{
  "</s>": 0,
  "<unk>": 1,
  ",": 2,
  ".": 3,
  "\u2581the": 4,
  "\u2581de": 5,
  "s": 6,
  "'": 7,
  "\u2581of": 8,
  "\u2581a": 9,
  "\u2581and": 10,
  "\u2581la": 11,
  "\u2581to": 12,
  "\u2581in": 13,
  ">>fr<<": 14,
  "-": 15,
  ">>es<<": 16,
  "\u2581que": 17,
  "\u2581en": 18,
  "?": 19,
  "\u2581et": 20,
  "\u2581l": 21,
  "\u2581I": 22,
  "\u2581(": 23,
  "\u2581for": 24,
  "\u2581-": 25,
  "\u2581des": 26,
  "\u2581that": 27,
  "\u2581is": 28,
  "\u2581le": 29,
  "\u2581\u00e0": 30,
  "\u2581les": 31,
  "\u2581y": 32,
  "\u2581you": 33,
  "\u2581on": 34,
  "\u2581un": 35,
  "\u2581e": 36,
  ":": 37,
  "\u2581d": 38,
  ")": 39,
  "\u2581el": 40,
  ">>it<<": 41,
  "\u2581": 42,
  "e": 43,
  "\u2581with": 44,
  ">>pt<<": 45,
  "\u2581The": 46,
  "t": 47,
  "\u2581be": 48,
  "\u2581o": 49,
  "\u2581di": 50,
  ">>pt_br<<": 51,
  "\u2581du": 52,
  "\u2581as": 53,
  ">>ro<<": 54,
  "a": 55,
  "\u2581se": 56,
  "\u2581it": 57,
  "\u2581\"": 58,
  "\u2581del": 59,
  "\u2581los": 60,
  "\u2581'": 61,
  "\u2581by": 62,
  "\u2581are": 63,
  "\u2581para": 64,
  "r": 65,
  "\u2581con": 66,
  "\u2581A": 67,
  "\u2581no": 68,
  "\u2581this": 69,
  ";": 70,
  "...": 71,
  "re": 72,
  "\u2581las": 73,
  "\u2581or": 74,
  "i": 75,
  "o": 76,
  "\u2581was": 77,
  "\u2581not": 78,
  "\u2581do": 79,
  "m": 80,
  "\u2581pour": 81,
  "\u2581have": 82,
  "\u2581from": 83,
  "!": 84,
  "\u2581dans": 85,
  "\u2581at": 86,
  "es": 87,
  "\u2581me": 88,
  "\u2581por": 89,
  "\u2581an": 90,
  "\u2581au": 91,
  "\u2581una": 92,
  "\u2581il": 93,
  "\u2581sur": 94,
  "\u2581all": 95,
  "n": 96,
  "/": 97,
  "\u2581par": 98,
  "\u2581une": 99,
  "\u2581La": 100,
  "\u2581est": 101,
  "\u2581will": 102,
  "d": 103,
  "\u2581da": 104,
  "\u2581your": 105,
  "\u2581which": 106,
  "\u2581qui": 107,
  "\u2581s": 108,
  "\u2581per": 109,
  "\u2581we": 110,
  "\u2581al": 111,
  "\u2581can": 112,
  "\u2581In": 113,
  "\u2581has": 114,
  "ing": 115,
  "\u2581su": 116,
  "to": 117,
  "\u2581You": 118,
  "\u2581ou": 119,
  "\u2581che": 120,
  "\u2581It": 121,
  "\u2581No": 122,
  "te": 123,
  "\u2581its": 124,
  "\u2581their": 125,
  "\u2581Le": 126,
  "\u2581ce": 127,
  "\u2581he": 128,
  "\u2581es": 129,
  "\u2581em": 130,
  "\u2581pas": 131,
  "le": 132,
  "er": 133,
  "\u2581si": 134,
  ").": 135,
  "\u2581E": 136,
  "y": 137,
  "\"": 138,
  "\u2581\u00e9": 139,
  "ed": 140,
  "\u2581C": 141,
  "\u2581been": 142,
  "\u2581one": 143,
  "\u2581non": 144,
  "\u25811": 145,
  "\u2581aux": 146,
  "do": 147,
  "\u2581ne": 148,
  "\u2581they": 149,
  "\u2581L": 150,
  "\u2581were": 151,
  "\u2581but": 152,
  "se": 153,
  "\u2581my": 154,
  "\u2581como": 155,
  "A": 156,
  "\u2581com": 157,
  "\u2581out": 158,
  "ta": 159,
  "\u2581i": 160,
  "\u2581other": 161,
  "\u2581also": 162,
  "\u2581more": 163,
  "\u2581O": 164,
  "\u2581n": 165,
  "\u2581S": 166,
  "\u2581En": 167,
  "),": 168,
  "da": 169,
  "ti": 170,
  "\u2581um": 171,
  "\u2581lo": 172,
  "\u2581re": 173,
  "\u2581about": 174,
  "\u2581Commission": 175,
  "\u2581plus": 176,
  "\u2581his": 177,
  "\u2581n\u00e3o": 178,
  "est": 179,
  "\u2581:": 180,
  "S": 181,
  "\u2581We": 182,
  "\u2581so": 183,
  "un": 184,
  "\u2581qu": 185,
  "\u25812": 186,
  "\u2581there": 187,
  "\u2581This": 188,
  "l": 189,
  "u": 190,
  "\u2581what": 191,
  "\u2581up": 192,
  "\u2581had": 193,
  "c": 194,
  "\u2581El": 195,
  "\u2581know": 196,
  "\u2581should": 197,
  "\u25813": 198,
  "\u2581sont": 199,
  "\u2581sobre": 200,
  "\u2581would": 201,
  "\u2581avec": 202,
  "\u2581ha": 203,
  "no": 204,
  "\u2581\u00een": 205,
  "\u2581who": 206,
  "\u2581our": 207,
  "nt": 208,
  "ndo": 209,
  "ve": 210,
  "in": 211,
  "\u2581time": 212,
  "\u2581Il": 213,
  "\u2581son": 214,
  "\u2581\u00bf": 215,
  "de": 216,
  "\u2581like": 217,
  "\u2581Les": 218,
  "\u2581uma": 219,
  "\u2581if": 220,
  "\u2581entre": 221,
  "\u00e9": 222,
  "\u2581?": 223,
  "\u2581\u00e8": 224,
  "C": 225,
  "ul": 226,
  "il": 227,
  "\u2581What": 228,
  "\u2581s\u0103": 229,
  "\u2581And": 230,
  "\u2581os": 231,
  "\u2581them": 232,
  "\u2581He": 233,
  "\u2581just": 234,
  "en": 235,
  "z": 236,
  "\u2581sa": 237,
  "\u2581into": 238,
  "\u2581della": 239,
  "ll": 240,
  "\u258110": 241,
  "la": 242,
  "\u2581vous": 243,
  "lo": 244,
  "\u2581any": 245,
  "\u2581European": 246,
  "al": 247,
  "\u2581new": 248,
  "\u2581information": 249,
  "\u2581right": 250,
  "\u2581\u00e9t\u00e9": 251,
  "\u25814": 252,
  "\u25815": 253,
  "\u2581ont": 254,
  "\u2581shall": 255,
  "ment": 256,
  "ly": 257,
  "\u2581here": 258,
  "\u2581B": 259,
  "\u2581States": 260,
  "\u2581este": 261,
  "\u2581don": 262,
  "\u2581these": 263,
  "g": 264,
  "\u2581may": 265,
  "\u2581est\u00e1": 266,
  "\u2581mais": 267,
  "\u2581her": 268,
  "b": 269,
  "\u2581only": 270,
  "\u2581when": 271,
  "\u2581him": 272,
  "\u2581such": 273,
  "me": 274,
  "on": 275,
  "ce": 276,
  "\u2581m\u00e1s": 277,
  "\u2581us": 278,
  "\u2581te": 279,
  "\u2581people": 280,
  "\u2581work": 281,
  "ci": 282,
  "\u2581than": 283,
  "\u2581na": 284,
  "\u2581De": 285,
  "\u2581Nations": 286,
  "\u2581c": 287,
  "\u2581Se": 288,
  "une": 289,
  "\u2581Council": 290,
  "\u2581some": 291,
  "\u2581United": 292,
  "\u2581dos": 293,
  "\u2581under": 294,
  "\u2581come": 295,
  "\u2581services": 296,
  "mos": 297,
  "\u2581get": 298,
  "\u2581cu": 299,
  "ar": 300,
  "\u2581ser": 301,
  "\u2581\u00eatre": 302,
  "\u2581P": 303,
  "\u2581Canada": 304,
  "\u2581two": 305,
  "\u0103": 306,
  "\u2581D": 307,
  "\u2581between": 308,
  "ra": 309,
  "\u2581need": 310,
  "\u2581use": 311,
  "\u2581M": 312,
  "\u2581first": 313,
  "\u2581those": 314,
  "\u25816": 315,
  "mente": 316,
  "\u2581must": 317,
  "\u2581now": 318,
  "\u2581\u00ab": 319,
  "\u2581international": 320,
  "\u2581go": 321,
  "\u2581Committee": 322,
  "\u2581made": 323,
  "\u2581over": 324,
  "va": 325,
  "na": 326,
  "\u2581well": 327,
  "\u2581take": 328,
  "am": 329,
  "\u2581where": 330,
  "\u2581could": 331,
  "\u258115": 332,
  "\u2581sus": 333,
  "\u2581years": 334,
  "\u2581want": 335,
  "ci\u00f3n": 336,
  "\u258118": 337,
  "\u2581Si": 338,
  "\u2581\u2014": 339,
  "\u2581tu": 340,
  "\u2581pe": 341,
  "\u2581make": 342,
  "\u2581ma": 343,
  "\u2581care": 344,
  "\u00e7\u00e3o": 345,
  "\u2581That": 346,
  "\u2581Je": 347,
  "\u258120": 348,
  "ca": 349,
  "\u2581nous": 350,
  "\u2581As": 351,
  "\u2581N\u00e3o": 352,
  "\u2581countries": 353,
  "\u2581So": 354,
  "\u2581very": 355,
  "\u2581am": 356,
  "\u2581place": 357,
  "\u2581see": 358,
  "B": 359,
  "\u2581But": 360,
  "\u2581through": 361,
  "\u2581[": 362,
  "\u2581national": 363,
  "\u2581social": 364,
  "th": 365,
  "\u2581public": 366,
  "\u2581If": 367,
  "\u2581mi": 368,
  "\u2581part": 369,
  "\u2581eu": 370,
  "\u2581nu": 371,
  "\u2581T": 372,
  "\u2581development": 373,
  "\u2581Re": 374,
  "\u2581\u2013": 375,
  "h": 376,
  "\u2581Article": 377,
  "is": 378,
  "\u25817": 379,
  "\u2581way": 380,
  "\u2581she": 381,
  "\u2581Member": 382,
  "di": 383,
  "co": 384,
  "\u2581F": 385,
  "\u2581cette": 386,
  "\u2581ces": 387,
  "\u258130": 388,
  "]": 389,
  "\u2581comme": 390,
  "p": 391,
  "2": 392,
  "\u2581think": 393,
  "\u2581good": 394,
  "\u25818": 395,
  "\u00f3": 396,
  "\u2581leur": 397,
  "\u2581bien": 398,
  "ro": 399,
  "\u2581pays": 400,
  "O": 401,
  "E": 402,
  ".\"": 403,
  "I": 404,
  "\u2581General": 405,
  "\u2581nos": 406,
  "\u2581how": 407,
  "\u258112": 408,
  "\u2581did": 409,
  "as": 410,
  "\u2581dei": 411,
  "\u2581For": 412,
  "\u00e1": 413,
  "\u2581most": 414,
  "or": 415,
  "\u2581report": 416,
  "os": 417,
  "\u2581support": 418,
  "ba": 419,
  "ne": 420,
  "it": 421,
  "\u2581p": 422,
  "\u2581m": 423,
  "\u2581G": 424,
  "\u2581R": 425,
  "\u2581said": 426,
  "dos": 427,
  "\u2581sono": 428,
  "\u2581system": 429,
  "\u2581\u015fi": 430,
  "\u2581On": 431,
  "\u2581ca": 432,
  "\u2581after": 433,
  "\u2581dell": 434,
  "L": 435,
  "\u2581used": 436,
  "\u2581Mr": 437,
  "\u2581There": 438,
  "zione": 439,
  "an": 440,
  "\u2581parte": 441,
  "\".": 442,
  "\u2581esta": 443,
  "\u2581je": 444,
  "x": 445,
  "\u2581back": 446,
  "\u2581They": 447,
  "\u2581c\u0103": 448,
  "\u2581rights": 449,
  "\u2581programme": 450,
  "\u2581voc\u00ea": 451,
  "\u2581mai": 452,
  "\u25819": 453,
  "\u2581year": 454,
  "\u2581Comit\u00e9": 455,
  "\u2581being": 456,
  "li": 457,
  "\u2581order": 458,
  "\u2581then": 459,
  "\u2581got": 460,
  "\u2581fait": 461,
  "\u2581including": 462,
  "\u2581because": 463,
  "\u2581before": 464,
  "mi": 465,
  "das": 466,
  "\u2581number": 467,
  "\u2581world": 468,
  "\u2581State": 469,
  "\u2581&": 470,
  "\u258119": 471,
  "nte": 472,
  "\u2581important": 473,
  "\u2581Con": 474,
  "\u2581particular": 475,
  "\u2581man": 476,
  "ia": 477,
  "\u2581ex": 478,
  "ai": 479,
  "\u2581many": 480,
  "f": 481,
  "\u2581point": 482,
  "\u2581To": 483,
  "\u2581same": 484,
  "\u2581ci": 485,
  "\u2581co": 486,
  "D": 487,
  "\u2581God": 488,
  "\u2581human": 489,
  "\u2581ri": 490,
  "ri": 491,
  "\u2581life": 492,
  "\u2581within": 493,
  "k": 494,
  "\u2581delle": 495,
  "\u2581J": 496,
  "ma": 497,
  "\u2581data": 498,
  "\u2581ses": 499,
  "\u2581down": 500,
  "que": 501,
  "\u2581against": 502,
  "\u2581va": 503,
  "\u2581even": 504,
  "\u2581todos": 505,
  "\u2581...": 506,
  "\u2581Un": 507,
  "\u2581long": 508,
  "\u2581plan": 509,
  "\u2581base": 510,
  "\u2581sua": 511,
  "\u2581All": 512,
  "vi": 513,
  "\u2581Eu": 514,
  "\u2581day": 515,
  "\u2581pre": 516,
  "\u2581pentru": 517,
  "\u2581children": 518,
  "\u2581possible": 519,
  "\u2581service": 520,
  "\u2581N": 521,
  "\u2581ad": 522,
  "\u2581protection": 523,
  "\u2581going": 524,
  "\u2581Ce": 525,
  "\u2581peut": 526,
  "\u2581\u00c9": 527,
  "\u2581inter": 528,
  "P": 529,
  "tion": 530,
  "\u2581era": 531,
  "(": 532,
  "\u2581pro": 533,
  "ant": 534,
  "\u258116": 535,
  "us": 536,
  "\u2581%": 537,
  "\u2581following": 538,
  "\u2581each": 539,
  "\u2581nel": 540,
  "\u2581Do": 541,
  "T": 542,
  "3": 543,
  "\u2581Oh": 544,
  "\u2581conditions": 545,
  "\u2581women": 546,
  "\u2581fi": 547,
  "ation": 548,
  "com": 549,
  "\u2581country": 550,
  "\u2581ao": 551,
  "\u2581case": 552,
  "able": 553,
  "\u2581car": 554,
  "\u2581measures": 555,
  "\u2581Por": 556,
  "\u258114": 557,
  "ga": 558,
  "F": 559,
  "\u2581tra": 560,
  "\u2581Al": 561,
  "\u258111": 562,
  "che": 563,
  "\u2581Well": 564,
  "\u2581Convention": 565,
  "mo": 566,
  "\u258117": 567,
  "\u2581V": 568,
  "\u2581lui": 569,
  "tu": 570,
  "\u2581tout": 571,
  "\u2581during": 572,
  "\u2581say": 573,
  "\u2581Estados": 574,
  "\u2581help": 575,
  "\u2581Union": 576,
  "\u2581question": 577,
  "\u2581contra": 578,
  "\u2581d\u00e9": 579,
  "1": 580,
  "\u2581!": 581,
  "\u2581d\u00e9veloppement": 582,
  "\u2581three": 583,
  "\u258125": 584,
  "\u2581Regulation": 585,
  "\u2581She": 586,
  "\u2581tous": 587,
  "\u2581session": 588,
  "\u2581Conseil": 589,
  "\u2581total": 590,
  "\u2581situation": 591,
  "\u2581activities": 592,
  "\u2581faire": 593,
  "\u2581without": 594,
  "\u2581din": 595,
  "\u2581set": 596,
  "\u2581both": 597,
  "\u258124": 598,
  "\u2581Community": 599,
  "\u0163i": 600,
  "\u2581das": 601,
  "\u258113": 602,
  "\u2581does": 603,
  "\u2581area": 604,
  "go": 605,
  "\u2581law": 606,
  "\u2581K": 607,
  "\u2581alla": 608,
  "\u2581b": 609,
  "G": 610,
  "H": 611,
  "\",": 612,
  "\u2581\u0219i": 613,
  "\u2581votre": 614,
  "les": 615,
  "\u2581local": 616,
  "\u2581general": 617,
  "\u2581Ma": 618,
  "\u2581much": 619,
  "\u00ed": 620,
  "\u2581How": 621,
  "\u2581cas": 622,
  "at": 623,
  "\u2581Non": 624,
  "ge": 625,
  "\u2581Los": 626,
  "\u2581level": 627,
  "\u2581last": 628,
  "\u2581ai": 629,
  "\u2581find": 630,
  "v": 631,
  "\u2581available": 632,
  "\u2581provide": 633,
  "\u2581_": 634,
  "\u2581own": 635,
  "M": 636,
  "\u2581still": 637,
  "V": 638,
  "\u2581foi": 639,
  "\u2581deux": 640,
  "\u2581health": 641,
  "\u2581Nu": 642,
  "\u2581At": 643,
  "\u2581programmes": 644,
  "\u2581too": 645,
  "\u2581\u00c9tats": 646,
  "\u2581products": 647,
  "\u2581policy": 648,
  "\u2581economic": 649,
  "\u2581high": 650,
  "\u2581travail": 651,
  "\u2581Y": 652,
  "\u2581ainsi": 653,
  "\u2581fin": 654,
  "\u2581pi\u00f9": 655,
  "\u2581process": 656,
  "\u2581droits": 657,
  "\u2581>": 658,
  "\u2581Me": 659,
  "ni": 660,
  "\u2581todo": 661,
  "\u2581different": 662,
  "\u2581rapport": 663,
  "ou": 664,
  "\u2581provided": 665,
  "CE": 666,
  "\u2581best": 667,
  "\u2581autres": 668,
  "\u2581control": 669,
  "\u2581tambi\u00e9n": 670,
  "\u2581Es": 671,
  "\u258121": 672,
  "\u2581gonna": 673,
  "\u2581leurs": 674,
  "\u2581ele": 675,
  "\u2581H": 676,
  "man": 677,
  "\u2581forma": 678,
  "\u2581action": 679,
  "\u2581New": 680,
  "\u2581isso": 681,
  "au": 682,
  "\u2581period": 683,
  "\u2581/": 684,
  "per": 685,
  "\u2581sub": 686,
  "\u2581\u00e9galement": 687,
  "\u2581market": 688,
  "EC": 689,
  "\u2581Mi": 690,
  "ciones": 691,
  "K": 692,
  "\u00e0": 693,
  "\u2581gli": 694,
  "\u2581give": 695,
  "ria": 696,
  "\u2581m\u00eame": 697,
  "\u2581Europe": 698,
  "\u2581application": 699,
  "\u2581end": 700,
  "\u2581financial": 701,
  "\u2581respect": 702,
  "\u2581aussi": 703,
  "\u2581Per": 704,
  "\u2581mas": 705,
  "\u2581date": 706,
  "\u2581something": 707,
  "\u25810": 708,
  "\u2581nombre": 709,
  "\u2581off": 710,
  "\u2581production": 711,
  "\u2581Yeah": 712,
  "\u2581really": 713,
  "\u2581since": 714,
  "ter": 715,
  "con": 716,
  "\u2581parties": 717,
  "\u2581ver": 718,
  "\u2581little": 719,
  "\u2581EU": 720,
  "ie": 721,
  "\u2581implementation": 722,
  "\u2581seu": 723,
  "w": 724,
  "\u2581site": 725,
  "vo": 726,
  "the": 727,
  "\u2581ensure": 728,
  "\u2581International": 729,
  "\u2581questions": 730,
  "\u2581Tu": 731,
  "\u2581sector": 732,
  "\u2581free": 733,
  "\u2581membres": 734,
  "ver": 735,
  "\u2581pa\u00edses": 736,
  "\u2581vez": 737,
  "\u2581taken": 738,
  "W": 739,
  "\u2581due": 740,
  "em": 741,
  "\u2581article": 742,
  "mento": 743,
  "cu": 744,
  "N": 745,
  "\u2581never": 746,
  "\u258131": 747,
  "\u2581meeting": 748,
  "\u2581My": 749,
  "\u2581sin": 750,
  "\u2581grande": 751,
  "\u2581great": 752,
  "\u2581final": 753,
  "\u258122": 754,
  "\u2581while": 755,
  "\u2581every": 756,
  "\u2581Government": 757,
  "\u2581ti": 758,
  "t\u00e9": 759,
  "\u2581face": 760,
  "\u2581special": 761,
  "\u2581real": 762,
  "\u2581han": 763,
  "\u2581puede": 764,
  "qui": 765,
  "\u2581efforts": 766,
  "\u2581U": 767,
  "\u2581President": 768,
  "\u2581Comisi\u00f3n": 769,
  "\u2581Lo": 770,
  "\u2581better": 771,
  "t\u0103": 772,
  "ur": 773,
  "\u2581means": 774,
  "\u2581resolution": 775,
  "\u2581security": 776,
  "el": 777,
  "ic": 778,
  "\u2581areas": 779,
  "ine": 780,
  "\u2581water": 781,
  "\u2581sous": 782,
  "\u2581tell": 783,
  "\u2581access": 784,
  "\u2581certain": 785,
  "\u2581necessary": 786,
  "\u2581members": 787,
  "\u2581legal": 788,
  "\u2581casa": 789,
  "\u2581further": 790,
  "rea": 791,
  "\u2581working": 792,
  "\u258123": 793,
  "\u2581r\u00e9": 794,
  "zioni": 795,
  "\u2581found": 796,
  "\u2581far": 797,
  "\u2581bem": 798,
  "\u2581look": 799,
  "\u2581didn": 800,
  "\u2581sistema": 801,
  "\u2581t": 802,
  "\u2581pero": 803,
  "\u2581view": 804,
  "\u2581tem": 805,
  "\u2581management": 806,
  "\u2581decision": 807,
  "chi": 808,
  "\u2581second": 809,
  "ers": 810,
  "\u2581home": 811,
  "\u2581contre": 812,
  "\u2581days": 813,
  "\u2581family": 814,
  "\u2581ta": 815,
  "\u2581When": 816,
  "\u2581W": 817,
  "ron": 818,
  "\u2581change": 819,
  "lor": 820,
  "up": 821,
  "\u2581Dans": 822,
  "\u2581another": 823,
  "\u2581name": 824,
  "\u2581Unidas": 825,
  "\u2581s\u00e9curit\u00e9": 826,
  "\u2581II": 827,
  "\u2581essere": 828,
  "\u2581mean": 829,
  "sa": 830,
  "\u2581million": 831,
  "\u2581\u00a1": 832,
  "\u2581\u00bb": 833,
  "\u2581Naciones": 834,
  "\u258150": 835,
  "ten": 836,
  "so": 837,
  "\u2581caso": 838,
  "\u2581document": 839,
  "\u2581around": 840,
  "\u2581regional": 841,
  "\u2581put": 842,
  "\u2581business": 843,
  "\u2581doit": 844,
  "\u2581dont": 845,
  "\u2581based": 846,
  "\u2581elle": 847,
  "4": 848,
  "\u2581training": 849,
  "pa": 850,
  "\u2581Des": 851,
  "Y": 852,
  "\u2581ni": 853,
  "\u2581population": 854,
  "ez": 855,
  "\u2581durante": 856,
  "\u2581Co": 857,
  "The": 858,
  "\u2581men": 859,
  "\u2581person": 860,
  "\u2581cooperation": 861,
  "\u00e7\u00f5es": 862,
  "\u2581group": 863,
  "\u2581December": 864,
  "elle": 865,
  "\u2581regard": 866,
  "\u2581accordance": 867,
  "ch": 868,
  "\u2581ar": 869,
  "\u2581love": 870,
  "\u2581sans": 871,
  "\u2581vida": 872,
  "\u2581questo": 873,
  "\u2581why": 874,
  "ir": 875,
  "r\u00e1": 876,
  "\u2581given": 877,
  "\u2581again": 878,
  "\u2581\u00e9tait": 879,
  "\u2581main": 880,
  "\u2581full": 881,
  "\u2581vi": 882,
  "\u2581\u20ac": 883,
  "\u2581Why": 884,
  "\u2581let": 885,
  "\u2581already": 886,
  "\u2581Voc\u00ea": 887,
  "\u2581An": 888,
  "\u2581present": 889,
  "\u2581resources": 890,
  "\u2581institutions": 891,
  "\u2581type": 892,
  "\u2581personnes": 893,
  "\u2581Pro": 894,
  "\u2581ter": 895,
  "ului": 896,
  "\u2581personal": 897,
  "\u2581transport": 898,
  "_": 899,
  "\u2581droit": 900,
  "\u2581always": 901,
  "\u2581Di": 902,
  "\u2581account": 903,
  "\u2581desarrollo": 904,
  "\u2581presente": 905,
  "\u2581continue": 906,
  "\u258128": 907,
  "\u2581Para": 908,
  "\u00e9s": 909,
  "\u2581Pour": 910,
  "ja": 911,
  "\u2581solo": 912,
  "\u2581quando": 913,
  "ent": 914,
  "\u2581anti": 915,
  "\u2581cada": 916,
  "za": 917,
  "\u00eda": 918,
  "\u2581informaci\u00f3n": 919,
  "\u2581things": 920,
  "\u2581vie": 921,
  "\u2581o\u00f9": 922,
  "\u2581mesures": 923,
  "\u2581pode": 924,
  "\u2581Au": 925,
  "\u2581among": 926,
  "\u2581DE": 927,
  "\u2581issues": 928,
  "\u2581These": 929,
  "\u2581cours": 930,
  "\u2581uno": 931,
  "\u2581Assembly": 932,
  "\u258127": 933,
  "\u2581Consejo": 934,
  "be": 935,
  "\u2581as\u00ed": 936,
  "\u2581political": 937,
  "\u2581budget": 938,
  "\u2581Las": 939,
  "\u2581Na": 940,
  "\u2581file": 941,
  "\u2581desde": 942,
  "ons": 943,
  "\u2581projet": 944,
  "\u2581tempo": 945,
  "du": 946,
  "\u2581paragraph": 947,
  "\u258126": 948,
  "\u2581Parliament": 949,
  "\u25811,": 950,
  "\u2581doing": 951,
  "\u2581future": 952,
  "\u2581large": 953,
  "are": 954,
  "\u2581j": 955,
  "\u2581course": 956,
  "\u2581100": 957,
  "\u2581small": 958,
  "\u2581education": 959,
  "\u2581project": 960,
  "\u2581assistance": 961,
  "ado": 962,
  "car": 963,
  "\u2581Nous": 964,
  "\u2581mon": 965,
  "\u2581partie": 966,
  "\u2581relevant": 967,
  "ate": 968,
  "\u2581research": 969,
  "\u2581meu": 970,
  "\u2581basis": 971,
  "R": 972,
  "\u2581However": 973,
  "\u2581lugar": 974,
  "\u2581Now": 975,
  "\u2581s\u00e3o": 976,
  "\u2581mise": 977,
  "\u2581thing": 978,
  "\u2581might": 979,
  "sse": 980,
  "\u2581Don": 981,
  "\u2581cui": 982,
  "io": 983,
  "\u2581quality": 984,
  "\u2581needs": 985,
  "bo": 986,
  "je": 987,
  "\u2581together": 988,
  "\u2581adopted": 989,
  "\u2581position": 990,
  "\u2581cent": 991,
  "\u2581Hotel": 992,
  "\u2581Yes": 993,
  "\u2581mis": 994,
  "\u2581France": 995,
  "ton": 996,
  "\u2581specific": 997,
  "\u2581Republic": 998,
  "\u2581compte": 999,
  "\u2581importante": 1000,
  "\u2581a\u00f1os": 1001,
  "\u00bb": 1002,
  "\u2581government": 1003,
  "\u2581Group": 1004,
  "\u2581fue": 1005,
  "\u2581Vous": 1006,
  "\u2581May": 1007,
  "dor": 1008,
  "\u2581soit": 1009,
  "si": 1010,
  ");": 1011,
  "\u2581activit\u00e9s": 1012,
  "\u2581force": 1013,
  "\u2581medidas": 1014,
  "\u2581San": 1015,
  "\u2581fact": 1016,
  "ity": 1017,
  "ry": 1018,
  "\u2581dar": 1019,
  "\u25811.": 1020,
  "\u2581June": 1021,
  "pe": 1022,
  "po": 1023,
  "\u2581form": 1024,
  "\u2581Your": 1025,
  "\u2581Da": 1026,
  "\u2581Come": 1027,
  "\u2581Unies": 1028,
  "\u2581g\u00e9n\u00e9ral": 1029,
  "\u2581include": 1030,
  "\u2581call": 1031,
  "\u2581away": 1032,
  "\u2581Mas": 1033,
  "\u2581afin": 1034,
  "\u2581nella": 1035,
  "\u2581next": 1036,
  "\u2581fa": 1037,
  "\u2581anche": 1038,
  "\u2581party": 1039,
  "\u2581example": 1040,
  "\u258129": 1041,
  "\u2581Am": 1042,
  "\u2581cuando": 1043,
  "\u2581ho": 1044,
  "\u2581fost": 1045,
  "\u2581cadre": 1046,
  "\u2581Te": 1047,
  "autres": 1048,
  "\u2581toutes": 1049,
  "\u2581ans": 1050,
  "\u2581results": 1051,
  "\u2581g": 1052,
  "\u2581common": 1053,
  "ner": 1054,
  "\u2581able": 1055,
  "\u2581todas": 1056,
  "\u2581Su": 1057,
  "\u2581Social": 1058,
  "fi": 1059,
  "\u2581night": 1060,
  "\u2581sea": 1061,
  "\u2581cases": 1062,
  "\u2581tr\u00e8s": 1063,
  "\u2581derechos": 1064,
  "\u2581With": 1065,
  "st": 1066,
  "\u2581Can": 1067,
  "\u2581mundo": 1068,
  "\u2581tiene": 1069,
  "\u2581using": 1070,
  "\u2581today": 1071,
  "\u258140": 1072,
  "General": 1073,
  "\u2581syst\u00e8me": 1074,
  "\u2581jour": 1075,
  "\u2581notre": 1076,
  "ex": 1077,
  "\u2581increase": 1078,
  "\u2581donn\u00e9es": 1079,
  "\u2581Ha": 1080,
  "\u2581Development": 1081,
  "\u2581therefore": 1082,
  "age": 1083,
  "\u2581ya": 1084,
  "\u2581product": 1085,
  "\u2581muito": 1086,
  "\u2581\u00c0": 1087,
  "\u2581related": 1088,
  "\u2581National": 1089,
  "\u2581house": 1090,
  "\u2581km": 1091,
  "\u2581hotel": 1092,
  "\u2581authorities": 1093,
  "tra": 1094,
  "\u2581aqui": 1095,
  "\u2581hacer": 1096,
  "\u2581Ne": 1097,
  "\u2581held": 1098,
  "\u2581dal": 1099,
  "\u2581Secretary": 1100,
  "nce": 1101,
  "\u2581moment": 1102,
  "\u2581called": 1103,
  "\u2581Sim": 1104,
  "fa": 1105,
  "\u2581tipo": 1106,
  "\u2581appropriate": 1107,
  "\u2581Par": 1108,
  "son": 1109,
  "\u2581trade": 1110,
  "\u2581global": 1111,
  "\u2581Programme": 1112,
  "\u2581muy": 1113,
  "\u2581state": 1114,
  "\u2581Este": 1115,
  "tro": 1116,
  "\u2581room": 1117,
  "\u2581open": 1118,
  "\u2581sera": 1119,
  "\u2581required": 1120,
  "\u2581done": 1121,
  "ho": 1122,
  "\u2581Vi": 1123,
  "\u2581Go": 1124,
  "\u2581community": 1125,
  "\u2581peuvent": 1126,
  "\u2581qu\u00e9": 1127,
  "\u2581Directive": 1128,
  "\u2581few": 1129,
  "\u2581persons": 1130,
  "r\u00e9": 1131,
  "\u2581Where": 1132,
  "\u2581art\u00edculo": 1133,
  "ck": 1134,
  "\u2581online": 1135,
  "\u2581participation": 1136,
  "\u2581tanto": 1137,
  "\u2581least": 1138,
  "J": 1139,
  "\u2581result": 1140,
  "\u2581old": 1141,
  "\u2581Ele": 1142,
  "\u2581page": 1143,
  "\u2581third": 1144,
  "\u2581modo": 1145,
  "\u2581Sa": 1146,
  "\u2581produits": 1147,
  "\u2581four": 1148,
  "\u2581porque": 1149,
  "\u2581moins": 1150,
  "et": 1151,
  "\u2581civil": 1152,
  "\u2581Estado": 1153,
  "\u2581sau": 1154,
  "U": 1155,
  "\u2581whether": 1156,
  "ble": 1157,
  "\u2581role": 1158,
  "article": 1159,
  "\u2581rules": 1160,
  "\u2581enfants": 1161,
  "\u2581established": 1162,
  "\u2581Com": 1163,
  "\u2581child": 1164,
  "nos": 1165,
  "\u2581power": 1166,
  "\u2581organizations": 1167,
  "\u2581until": 1168,
  "\u2581body": 1169,
  "\u2581sant\u00e9": 1170,
  "\u2581temps": 1171,
  "\u25812006": 1172,
  "\u2581study": 1173,
  "\u2581femmes": 1174,
  "UE": 1175,
  "\u00fa": 1176,
  "\u2581*": 1177,
  "\u2581antes": 1178,
  "zi": 1179,
  "\u2581personas": 1180,
  "\u2581concernant": 1181,
  "\u2581provisions": 1182,
  "\u2581effective": 1183,
  "ait": 1184,
  "\u2581programa": 1185,
  "\u2581\u2018": 1186,
  "\u2581risk": 1187,
  "\u2581capital": 1188,
  "ais": 1189,
  "\u2581above": 1190,
  "\u2581subject": 1191,
  "\u2581ed": 1192,
  "tte": 1193,
  "\u2581World": 1194,
  "\u2581mati\u00e8re": 1195,
  "\u2581otros": 1196,
  "\u25812.": 1197,
  "\u2581Et": 1198,
  "\u2581requirements": 1199,
  "\u2581city": 1200,
  "\u2581believe": 1201,
  "ram": 1202,
  "\u2581less": 1203,
  "\u2581sunt": 1204,
  "\u2581show": 1205,
  "\u2581left": 1206,
  "\u2581having": 1207,
  "\u2581--": 1208,
  "tta": 1209,
  "ad": 1210,
  "\u2581nature": 1211,
  "\u2581review": 1212,
  "\u2581Office": 1213,
  "tor": 1214,
  "\u2581Act": 1215,
  "\u2581whole": 1216,
  "\u25812005": 1217,
  "\u2581politique": 1218,
  "\u2581Os": 1219,
  "\u2581sido": 1220,
  "\u2581ils": 1221,
  "gi": 1222,
  "\u2581section": 1223,
  "\u2581police": 1224,
  "cer": 1225,
  "\u2581money": 1226,
  "\u00e3o": 1227,
  "\u2581sure": 1228,
  "\u2581Mar": 1229,
  "\u2581One": 1230,
  "\u2581note": 1231,
  "\u2581per\u00edodo": 1232,
  "\u2581considered": 1233,
  "\u2581demande": 1234,
  "\u2581issue": 1235,
  "\u2581July": 1236,
  "lu": 1237,
  "\u25812007": 1238,
  "\u2581avait": 1239,
  "cha": 1240,
  "\u2581various": 1241,
  "\u2581Conference": 1242,
  "\u2581food": 1243,
  "ha": 1244,
  "\u2581Security": 1245,
  "\u2581groups": 1246,
  "\u2581concerned": 1247,
  "\u2581natural": 1248,
  "\u2581mal": 1249,
  "\u25812,": 1250,
  "\u2581light": 1251,
  "\u2581partir": 1252,
  "\u2581hand": 1253,
  "\u2581fazer": 1254,
  "\u00e9e": 1255,
  "\u2581notamment": 1256,
  "\u2581experience": 1257,
  "\u2581months": 1258,
  "\u2581Let": 1259,
  "\u2581times": 1260,
  "\u2581algo": 1261,
  "ty": 1262,
  "\u2581Or": 1263,
  "\u2581gestion": 1264,
  "\u2581niveau": 1265,
  "he": 1266,
  "\u2581March": 1267,
  "\u2581\u2022": 1268,
  "\u2581Internet": 1269,
  "\u2581energy": 1270,
  "\u2581upon": 1271,
  "\u2581draft": 1272,
  "\u2581THE": 1273,
  "\u2581taking": 1274,
  "\u2581current": 1275,
  "\u2581degli": 1276,
  "\u2581become": 1277,
  "\u2581contact": 1278,
  "\u25812004": 1279,
  "\u2581Human": 1280,
  "\u2581ra": 1281,
  "\u2581Rights": 1282,
  "\u2581documents": 1283,
  "\u2581<": 1284,
  "\u2581thought": 1285,
  "nza": 1286,
  "\u2581pelo": 1287,
  "\u2581ir": 1288,
  "idad": 1289,
  "\u2581Court": 1290,
  "\u2581formation": 1291,
  "\u2581apr\u00e8s": 1292,
  "\u2581impact": 1293,
  "\u2581problem": 1294,
  "6": 1295,
  "\u25812000": 1296,
  "land": 1297,
  "\u2581points": 1298,
  "\u2581trabajo": 1299,
  "\u2581menos": 1300,
  "\u2581field": 1301,
  "\u2581Okay": 1302,
  "\u2581Car": 1303,
  "\u2581fois": 1304,
  "\u2581technical": 1305,
  "\u2581keep": 1306,
  "\u2581Como": 1307,
  "\u25812008": 1308,
  "\u2581tiempo": 1309,
  "\u2581January": 1310,
  "\u2581took": 1311,
  "\u2581deve": 1312,
  "\u2581company": 1313,
  "ire": 1314,
  "\u2581Une": 1315,
  "\u2581addition": 1316,
  "\u2581avant": 1317,
  "\u2581toute": 1318,
  "\u2581Jesus": 1319,
  "\u2581europ\u00e9enne": 1320,
  "tura": 1321,
  "\u2581Ho": 1322,
  "\u2581recherche": 1323,
  "nti": 1324,
  "\u2581personnel": 1325,
  "\u2581kind": 1326,
  "\u2581etc": 1327,
  "\u2581anything": 1328,
  "ze": 1329,
  "\u2581individual": 1330,
  "\u2581systems": 1331,
  "\u2581Pe": 1332,
  "\u2581fine": 1333,
  "\u2581asta": 1334,
  "\u2581October": 1335,
  "\u2581came": 1336,
  "\u2581X": 1337,
  "\u2581treatment": 1338,
  "\u2581projects": 1339,
  "ion": 1340,
  "\u2581paragraphe": 1341,
  "\u2581English": 1342,
  "Qu\u00e9": 1343,
  "um": 1344,
  "ance": 1345,
  "\u2581Hey": 1346,
  "gen": 1347,
  "\u2581staff": 1348,
  "\u2581loro": 1349,
  "\u2581\u00e7a": 1350,
  "ils": 1351,
  "\u2581violence": 1352,
  "\u2581ever": 1353,
  "\u2581informe": 1354,
  "\u2581interest": 1355,
  "ist": 1356,
  "los": 1357,
  "\u2581lot": 1358,
  "and": 1359,
  "\u2581Home": 1360,
  "ste": 1361,
  "\u2581sul": 1362,
  "\u2581private": 1363,
  "uri": 1364,
  "\u2581patients": 1365,
  "ada": 1366,
  "\u2581material": 1367,
  "ntes": 1368,
  "\u2581minutes": 1369,
  "\u2581several": 1370,
  "\u2581region": 1371,
  "\u2581capacity": 1372,
  "\u2581air": 1373,
  "\u2581Que": 1374,
  "\u2581dire": 1375,
  "\u2581young": 1376,
  "\u2581major": 1377,
  "\u2581problems": 1378,
  "\u2581favor": 1379,
  "\u2581pa\u00eds": 1380,
  "\u2581miembros": 1381,
  "tes": 1382,
  "\u2581alle": 1383,
  "\u2581000": 1384,
  "\u2581aqu\u00ed": 1385,
  "\u2581value": 1386,
  "\u2581school": 1387,
  "las": 1388,
  "ux": 1389,
  "\u2581pot": 1390,
  "\u2581nada": 1391,
  "\u2581avoir": 1392,
  "\u2581tamb\u00e9m": 1393,
  "\u2581cause": 1394,
  "\u2581talk": 1395,
  "\u2581Not": 1396,
  "\u2581hay": 1397,
  "\u2581cannot": 1398,
  "\u2581doivent": 1399,
  "\u00b0": 1400,
  "\u2581September": 1401,
  "j": 1402,
  "\u00e8": 1403,
  "\u2581importance": 1404,
  "bi": 1405,
  "\u2581terms": 1406,
  "\u2581told": 1407,
  "\u2581Just": 1408,
  "\u2581cost": 1409,
  "\u2581Ar": 1410,
  "\u2581vue": 1411,
  "\u2581encore": 1412,
  "\u2581meet": 1413,
  "\u2581g\u00e9n\u00e9rale": 1414,
  "\u2581line": 1415,
  "\u2581autre": 1416,
  "\u2581communication": 1417,
  "\u2581internacional": 1418,
  "\u2581momento": 1419,
  "dores": 1420,
  "\u2581making": 1421,
  "\u2581address": 1422,
  "\u2581cet": 1423,
  "\u2581levels": 1424,
  "tti": 1425,
  "\u2581aid": 1426,
  "\u2581Esta": 1427,
  "\u2581five": 1428,
  "00": 1429,
  "\u2581November": 1430,
  "\u2581Man": 1431,
  "\u2581list": 1432,
  "\u2581feel": 1433,
  "\u2581developing": 1434,
  "\u2581price": 1435,
  "\u2581Presidente": 1436,
  "isation": 1437,
  "\u258160": 1438,
  "\u2581matter": 1439,
  "\u2581attention": 1440,
  "ven": 1441,
  "\u2581idea": 1442,
  "\u2581\u00e9conomique": 1443,
  "\u2581gran": 1444,
  "\u2581Be": 1445,
  "\u2581yet": 1446,
  "\u2581agreement": 1447,
  "\u2581hasta": 1448,
  "ban": 1449,
  "\u2581referred": 1450,
  "\u2581pr\u00e9": 1451,
  "\u2581peace": 1452,
  "\u2581est\u00e1n": 1453,
  "\u2581actividades": 1454,
  "\u2581Special": 1455,
  "\u2581live": 1456,
  "\u2581Elle": 1457,
  "\u2581amount": 1458,
  "\u2581program": 1459,
  "\u2581Our": 1460,
  "\u2581costs": 1461,
  "\u2581po": 1462,
  "\u00e1n": 1463,
  "it\u00e0": 1464,
  "\u2581bi": 1465,
  "\u00eatre": 1466,
  "\u2581bar": 1467,
  "ces": 1468,
  "\u2581start": 1469,
  "it\u00e9": 1470,
  "\u2581debe": 1471,
  "min": 1472,
  "des": 1473,
  "X": 1474,
  "\u2581society": 1475,
  "\u2581clear": 1476,
  "\u2581servicios": 1477,
  "\u2581actions": 1478,
  "im": 1479,
  "tori": 1480,
  "\u2581progress": 1481,
  "tos": 1482,
  "\u2581play": 1483,
  "net": 1484,
  "\u2581Em": 1485,
  "\u2581politiques": 1486,
  "\u2581More": 1487,
  "line": 1488,
  "20": 1489,
  "\u2581monde": 1490,
  "\u2581environment": 1491,
  "\u2581request": 1492,
  "eau": 1493,
  "\u2581ese": 1494,
  "ka": 1495,
  "ina": 1496,
  "\u25812003": 1497,
  "\u2581Centre": 1498,
  "\u2581central": 1499,
  "\u25812002": 1500,
  "res": 1501,
  "\u2581web": 1502,
  "\u2581vai": 1503,
  "\u2581heart": 1504,
  "par": 1505,
  "\u2581received": 1506,
  "\u2581$": 1507,
  "\u2581sei": 1508,
  "\u2581concerning": 1509,
  "\u2581six": 1510,
  "\u2581Plan": 1511,
  "No": 1512,
  "\u2581chaque": 1513,
  "\u2581Israel": 1514,
  "\u2581leave": 1515,
  "r\u00eda": 1516,
  "\u2581Tribunal": 1517,
  "\u2581simple": 1518,
  "\u2581Ex": 1519,
  "\u2581age": 1520,
  "\u2581Africa": 1521,
  "\u2581policies": 1522,
  "\u2581via": 1523,
  "\u25813.": 1524,
  "\u2581dit": 1525,
  "\u2581centre": 1526,
  "\u2581ressources": 1527,
  "\u2581everything": 1528,
  "tions": 1529,
  "\u25812009": 1530,
  "\u2581April": 1531,
  "\u2581others": 1532,
  "\u2581reports": 1533,
  "\u2581Mo": 1534,
  "\u2581framework": 1535,
  "aci\u00f3n": 1536,
  "\u2581media": 1537,
  "\u2581procedure": 1538,
  "\u2581+": 1539,
  "aux": 1540,
  "\u2581prima": 1541,
  "\u2581justice": 1542,
  "\u2581mejor": 1543,
  "\u2581Ci": 1544,
  "\u2581proposed": 1545,
  "*": 1546,
  "\u2581Economic": 1547,
  "\u2581Cette": 1548,
  "\u2581please": 1549,
  "der": 1550,
  "\u2581living": 1551,
  "\u2581hours": 1552,
  "\u2581rate": 1553,
  "pro": 1554,
  "50": 1555,
  "\u2581chi": 1556,
  "\u2581estar": 1557,
  "\u2581particularly": 1558,
  "\u2581post": 1559,
  "\u2581key": 1560,
  "\u2581nothing": 1561,
  "\u2581Pre": 1562,
  "cia": 1563,
  "\u2581h": 1564,
  "ke": 1565,
  "ya": 1566,
  "\u2581Canadian": 1567,
  "\u2581Ri": 1568,
  "\u2581close": 1569,
  "\u2581Who": 1570,
  "\u2581humanos": 1571,
  "\u2581side": 1572,
  "\u2581met": 1573,
  "\u2581St": 1574,
  "nes": 1575,
  "\u2581included": 1576,
  "\u2581Are": 1577,
  "\u2581organisations": 1578,
  "\u2581principal": 1579,
  "ins": 1580,
  "\u2581Dr": 1581,
  "ont": 1582,
  "\u2581lieu": 1583,
  "\u2581design": 1584,
  "\u2581depuis": 1585,
  "In": 1586,
  "nu": 1587,
  "\u2581land": 1588,
  "\u2581stay": 1589,
  "\u2581test": 1590,
  "ting": 1591,
  "\u2581eso": 1592,
  "\u2581industry": 1593,
  "ite": 1594,
  "sta": 1595,
  "\u2581Ca": 1596,
  "\u2581once": 1597,
  "\u2581f": 1598,
  "\u2581Thank": 1599,
  "rie": 1600,
  "\u2581developed": 1601,
  "\u2581esto": 1602,
  "\u2581approach": 1603,
  "\u2581Mais": 1604,
  "\u25812001": 1605,
  "\u2581additional": 1606,
  "\u2581dia": 1607,
  "\u2581won": 1608,
  "\u2581pela": 1609,
  "\u2581trois": 1610,
  "tive": 1611,
  "\u2581especially": 1612,
  "\u2581;": 1613,
  "\u2581ela": 1614,
  "ista": 1615,
  "\u2581trans": 1616,
  "\u2581cuenta": 1617,
  "\u2581Treaty": 1618,
  "\u2581according": 1619,
  "\u2581improve": 1620,
  "ici": 1621,
  "\u2581Bar": 1622,
  "\u2581problema": 1623,
  "\u2581minha": 1624,
  "\u2581Est\u00e1": 1625,
  "\u2581Service": 1626,
  "\u2581derecho": 1627,
  "\u2581loi": 1628,
  "\u2581Parties": 1629,
  "\u2581aplicaci\u00f3n": 1630,
  "\u2581Then": 1631,
  "\u00ea": 1632,
  "mer": 1633,
  "\u2581Board": 1634,
  "\u25812010": 1635,
  "\u2581suis": 1636,
  "\u2581Ta": 1637,
  "\u2581big": 1638,
  "\u2581however": 1639,
  "\u2581s\u00e9": 1640,
  "\u2581mesmo": 1641,
  "\u2581proposal": 1642,
  "\u2581Commissione": 1643,
  "\u2581d\u00e9cision": 1644,
  "\u2581provides": 1645,
  "\u2581dollars": 1646,
  "\u2581safety": 1647,
  "d\u00e9": 1648,
  "\u2581r\u00e8glement": 1649,
  "\u2581often": 1650,
  "mar": 1651,
  "\u2581uso": 1652,
  "\u021bi": 1653,
  "\u2581understand": 1654,
  "\u2581single": 1655,
  "pi": 1656,
  "\u2581pueden": 1657,
  "\u2581performance": 1658,
  ".1": 1659,
  "\u2581legislation": 1660,
  "\u2581Ver": 1661,
  "\u2581auto": 1662,
  "ber": 1663,
  "\u2581tal": 1664,
  "ive": 1665,
  "\u2581By": 1666,
  "\u2581China": 1667,
  "\u2581\u00cen": 1668,
  "\u2581Annex": 1669,
  "\u2581seen": 1670,
  "\u2581Sr": 1671,
  "\u2581software": 1672,
  "\u2581member": 1673,
  "\u2581processus": 1674,
  "\u2581direct": 1675,
  "tiva": 1676,
  "\u2581internationale": 1677,
  "ster": 1678,
  "\u2581known": 1679,
  "\u2581effect": 1680,
  "40": 1681,
  "\u2581vers": 1682,
  "\u2581gouvernement": 1683,
  "\u2581ask": 1684,
  "\u2581bring": 1685,
  "\u2581otras": 1686,
  "\u2581dalla": 1687,
  "\u2581stato": 1688,
  "\u2581towards": 1689,
  "\u2581Fa": 1690,
  "fe": 1691,
  "0": 1692,
  "\u2581mar": 1693,
  "10": 1694,
  "\u2581ago": 1695,
  "\u2581#": 1696,
  "\u2581later": 1697,
  "\u2581York": 1698,
  "AL": 1699,
  "jo": 1700,
  "\u2581tutti": 1701,
  "90": 1702,
  "\u2581environmental": 1703,
  "\u2581pol\u00edtica": 1704,
  "\u2581n\u00famero": 1705,
  "\u2581After": 1706,
  "\u2581French": 1707,
  "\u2581quanto": 1708,
  "\u2581February": 1709,
  "\u2581toda": 1710,
  "\u2581growth": 1711,
  "30": 1712,
  "\u2581offer": 1713,
  "\u2581mission": 1714,
  "vis": 1715,
  "\u2581mind": 1716,
  "gar": 1717,
  "\u2581job": 1718,
  "\u2581Du": 1719,
  "\u2581knowledge": 1720,
  "\u2581low": 1721,
  "\u2581Li": 1722,
  "\u25812011": 1723,
  "\u2581Christ": 1724,
  "\u2581Pero": 1725,
  "\u2581li": 1726,
  "\u2581fe": 1727,
  "\u2581cosa": 1728,
  "\u2581opinion": 1729,
  "\u2581vos": 1730,
  "\u2581Ro": 1731,
  "):": 1732,
  "zza": 1733,
  "\u2581equipment": 1734,
  "ele": 1735,
  "art": 1736,
  "\u2581apply": 1737,
  "\u2581donc": 1738,
  "\u2581r": 1739,
  "\u2581Information": 1740,
  "\u2581Parlamento": 1741,
  "\u2581sempre": 1742,
  "\u2581OF": 1743,
  "\u2581death": 1744,
  "\u2581ser\u00e1": 1745,
  "\u2581Please": 1746,
  "\u2581ni\u00f1os": 1747,
  "\u2581His": 1748,
  "\u00c3": 1749,
  "information": 1750,
  "\u2581mine": 1751,
  "can": 1752,
  "\u2581coming": 1753,
  "\u2581seguridad": 1754,
  "\u2581head": 1755,
  "\u2581extra": 1756,
  "\u2581content": 1757,
  "\u2581offers": 1758,
  "\u2581r\u00e9solution": 1759,
  "\u00e2": 1760,
  "\u2581hab\u00eda": 1761,
  "aient": 1762,
  "\u2581table": 1763,
  "\u2581Dios": 1764,
  "\u2581pay": 1765,
  "\u2581march\u00e9": 1766,
  "\u2581sou": 1767,
  "\u2581team": 1768,
  "\u2581South": 1769,
  "\u2581office": 1770,
  "La": 1771,
  "\u2581examen": 1772,
  "\u2581active": 1773,
  "\u2581okay": 1774,
  "\u2581s\u00f3": 1775,
  "ism": 1776,
  "\u2581went": 1777,
  "\u2581selon": 1778,
  "\u2581standard": 1779,
  "\u25812015": 1780,
  "fer": 1781,
  "\u2581Health": 1782,
  "\u2581jusqu": 1783,
  "rio": 1784,
  "\u2581changes": 1785,
  "\u2581similar": 1786,
  "\u2581enough": 1787,
  "\u2581pendant": 1788,
  "\u2581coop\u00e9ration": 1789,
  "--": 1790,
  "\u2581past": 1791,
  "\u25812012": 1792,
  "den": 1793,
  "\u2581\u00e9l": 1794,
  "\u2581h\u00e1": 1795,
  "hi": 1796,
  "\u2581Good": 1797,
  "\u2581text": 1798,
  "\u2581original": 1799,
  "\u2581version": 1800,
  ".2": 1801,
  "\u25812013": 1802,
  "\u2581aos": 1803,
  "\u2581Services": 1804,
  "\u2581game": 1805,
  "\u2581increased": 1806,
  "8": 1807,
  "\u2581cultural": 1808,
  "ita": 1809,
  "\u2581context": 1810,
  "\u2581mismo": 1811,
  "\u2581Ces": 1812,
  "\u2581involved": 1813,
  "\u2581top": 1814,
  "\u2581building": 1815,
  "\u2581companies": 1816,
  "\u2581nuclear": 1817,
  "\u2581causa": 1818,
  "\u2014": 1819,
  "\u00e9es": 1820,
  "\u2581plans": 1821,
  "\u2581secteur": 1822,
  "\u2581groupe": 1823,
  "\u2581hanno": 1824,
  "\u2581construction": 1825,
  "a\u00e7\u00e3o": 1826,
  "\u2581sulla": 1827,
  "\u2581gas": 1828,
  "\u2581technology": 1829,
  "\u2581III": 1830,
  "\u2581UN": 1831,
  "\u2581Bo": 1832,
  "\u2581solution": 1833,
  "\u2581doesn": 1834,
  "nd": 1835,
  "\u2581pr\u00e9sent": 1836,
  "\u2581wanted": 1837,
  ",\"": 1838,
  "AC": 1839,
  "\u2581compris": 1840,
  "\u25812016": 1841,
  "ness": 1842,
  "\u2581p\u00e9riode": 1843,
  "\u2581looking": 1844,
  "\u2581Ti": 1845,
  "\u2581either": 1846,
  "\u2581recursos": 1847,
  "\u2581responsible": 1848,
  "\u2581location": 1849,
  "\u2581located": 1850,
  "\u2581coordination": 1851,
  "\u2581s\u00f3lo": 1852,
  "\u2581suo": 1853,
  "\u2581America": 1854,
  "via": 1855,
  "\u2581questa": 1856,
  "\u2581promotion": 1857,
  "\u2581TV": 1858,
  "\u2581fa\u00e7on": 1859,
  "\u2581See": 1860,
  "5": 1861,
  "\u2581multi": 1862,
  "\u2581Look": 1863,
  "ES": 1864,
  "\u2581sta": 1865,
  "\u2581nivel": 1866,
  "\u2581instruments": 1867,
  "\u2581Paris": 1868,
  "\u2581pi": 1869,
  "\u2581anos": 1870,
  "Z": 1871,
  "\u2581x": 1872,
  "\u2581prendre": 1873,
  "\u25813,": 1874,
  "\u2581significant": 1875,
  "ile": 1876,
  "\u2581r\u00e9sultats": 1877,
  "\u2581EUR": 1878,
  "\u2581discrimination": 1879,
  "\u2581nouveau": 1880,
  "\u2581charge": 1881,
  "\u2581comment": 1882,
  "\u2581Ba": 1883,
  "ados": 1884,
  "\u2581employment": 1885,
  "\u2581cor": 1886,
  "\u2581proyecto": 1887,
  "\u2581relations": 1888,
  "era": 1889,
  "\u2581qualit\u00e9": 1890,
  "gue": 1891,
  "\u2581informations": 1892,
  "\u2581Ra": 1893,
  "\u2581analysis": 1894,
  "7": 1895,
  "\u2581structure": 1896,
  "\u2581agenda": 1897,
  "\u2581red": 1898,
  "\u2581programas": 1899,
  "\u2581disse": 1900,
  "\u2581mois": 1901,
  "\u2581Sin": 1902,
  "\u2581hecho": 1903,
  "\u2581Ad": 1904,
  "\u2581radio": 1905,
  "tto": 1906,
  "tivo": 1907,
  "\u2581From": 1908,
  "\u2581words": 1909,
  "\u2581normal": 1910,
  "\u2581tudo": 1911,
  "\u2581punto": 1912,
  "\u2581Code": 1913,
  "ante": 1914,
  "men": 1915,
  "\u2581yo": 1916,
  "\u2581materia": 1917,
  "\u25812014": 1918,
  "\u2581Comiss\u00e3o": 1919,
  "\u2581millions": 1920,
  "ko": 1921,
  "\u2581procedures": 1922,
  "\u2581plusieurs": 1923,
  "\u2581mesure": 1924,
  "\u2581tant": 1925,
  "\u2581Cu": 1926,
  "\u2581titre": 1927,
  "\u2581ann\u00e9es": 1928,
  "ii": 1929,
  "cri": 1930,
  "\u2581initiatives": 1931,
  "\u2581sol": 1932,
  "\u2581Fi": 1933,
  "\u2581standards": 1934,
  "\u2581hope": 1935,
  "\u2581space": 1936,
  "\u2581personne": 1937,
  "\u2581articles": 1938,
  "\u2581submitted": 1939,
  "60": 1940,
  "\u2581obligations": 1941,
  "cul": 1942,
  "\u2581esa": 1943,
  "\u2581particulier": 1944,
  "\u2581US": 1945,
  "\u2581Chi": 1946,
  "\u2581mayor": 1947,
  "ary": 1948,
  "\u2581pu\u00f2": 1949,
  "\u2581produit": 1950,
  "\u2581premi\u00e8re": 1951,
  "\u25814.": 1952,
  "\u2581Contact": 1953,
  "\u2581purpose": 1954,
  "bra": 1955,
  "\u2581ceux": 1956,
  "\u2581sem": 1957,
  "\u2581follow": 1958,
  "ler": 1959,
  "\u2581true": 1960,
  "\u2581existing": 1961,
  "\u2581below": 1962,
  "\u2581Europa": 1963,
  "\u2581carried": 1964,
  "\u2581v": 1965,
  "\u2581types": 1966,
  "\u2581Web": 1967,
  "\u00f4": 1968,
  "\u2581ahora": 1969,
  "\u2581sia": 1970,
  "vers": 1971,
  "\u2581d\u00eda": 1972,
  "one": 1973,
  "ato": 1974,
  "\u2581John": 1975,
  "see": 1976,
  "80": 1977,
  "\u2581debate": 1978,
  "\u2581needed": 1979,
  "\u2581seus": 1980,
  "\u2581makes": 1981,
  "\u2581Here": 1982,
  "nia": 1983,
  "\u2581pu": 1984,
  "\u2581effects": 1985,
  "\u2581\u266a": 1986,
  "\u2581premier": 1987,
  "\u2581respecto": 1988,
  "\u2581language": 1989,
  "\u2581short": 1990,
  "\u2581a\u00f1o": 1991,
  "\u2581contribution": 1992,
  "\u2581Agreement": 1993,
  "vous": 1994,
  "\u2581\u0153uvre": 1995,
  "\u2581week": 1996,
  "\u2581fully": 1997,
  "\u2581nom": 1998,
  "\u2581Other": 1999,
  "\u2581Some": 2000,
  "\u2581applicable": 2001,
  "\u2581promote": 2002,
  "azione": 2003,
  "\u2581nas": 2004,
  "\u2581nacional": 2005,
  "\u2581aspects": 2006,
  "\u2581range": 2007,
  "\u2581culture": 2008,
  "\u2581recommendations": 2009,
  "\u2581)": 2010,
  "\u2581Z": 2011,
  "\u2581Decision": 2012,
  "\u2581war": 2013,
  "ale": 2014,
  "ff": 2015,
  "\u2581resoluci\u00f3n": 2016,
  "\u2581Mon": 2017,
  "\u2581early": 2018,
  "\u2581grand": 2019,
  "ts": 2020,
  "\u2581father": 2021,
  "gna": 2022,
  "ana": 2023,
  "\u2581Che": 2024,
  "25": 2025,
  "zo": 2026,
  "ling": 2027,
  "ement": 2028,
  "\u2581vote": 2029,
  "for": 2030,
  "\u2581ro": 2031,
  "\u2581workers": 2032,
  "tar": 2033,
  "\u2581Groupe": 2034,
  "\u2581video": 2035,
  "\u2581stop": 2036,
  "\u2581certains": 2037,
  "\u2581says": 2038,
  "\u2581mettre": 2039,
  "\u2581devrait": 2040,
  "\u2581homme": 2041,
  "\u2581August": 2042,
  "Union": 2043,
  "\u2581Minister": 2044,
  "\u2581property": 2045,
  "\u2581model": 2046,
  "\u2581dialogue": 2047,
  "\u2581activity": 2048,
  "\u258190": 2049,
  "\u2581bodies": 2050,
  "\u2581Add": 2051,
  "tas": 2052,
  "\u2581ve": 2053,
  "\u2581suite": 2054,
  "\u2581try": 2055,
  ".3": 2056,
  "\u2581court": 2057,
  "\u2581read": 2058,
  "\u2581savoir": 2059,
  "ismo": 2060,
  "\u2581potential": 2061,
  "\u2581hear": 2062,
  "\u2581goods": 2063,
  "\u2581Una": 2064,
  "\u2581dentro": 2065,
  "\u2581assessment": 2066,
  "\u2581bine": 2067,
  "\u2581Q": 2068,
  "\u2581share": 2069,
  "rse": 2070,
  "ian": 2071,
  "\u2581forces": 2072,
  "tri": 2073,
  "\u2581Free": 2074,
  "bre": 2075,
  "\u2581prix": 2076,
  "\u2581unique": 2077,
  "\u2581source": 2078,
  "dia": 2079,
  "\u2581authority": 2080,
  "pre": 2081,
  "\u2581hard": 2082,
  "rsi": 2083,
  "ura": 2084,
  "\u2581practice": 2085,
  "\u2581dispositions": 2086,
  "\u2581mujeres": 2087,
  "\u2581peu": 2088,
  "\u2581Wi": 2089,
  "\u2581mani\u00e8re": 2090,
  "\u258135": 2091,
  "\u2581Qu": 2092,
  "\u2581at\u00e9": 2093,
  "ard": 2094,
  "\u2581fundamental": 2095,
  "\u2581asked": 2096,
  "\u2581domaine": 2097,
  "\u2581projets": 2098,
  "\u2581mercado": 2099,
  "\u2581mm": 2100,
  "\u2581greater": 2101,
  "op": 2102,
  "\u2581exemple": 2103,
  "rd": 2104,
  "\u2581reason": 2105,
  "\u2581operations": 2106,
  "\u2581wrong": 2107,
  "\u2581blood": 2108,
  "\u2581parents": 2109,
  "\u2581allow": 2110,
  "\u2581entreprises": 2111,
  "mp": 2112,
  "\u2581toujours": 2113,
  "\u2581directly": 2114,
  "\u2581higher": 2115,
  "\u2581nome": 2116,
  "\u2581mother": 2117,
  "\u2581Um": 2118,
  "ix": 2119,
  "\u2581grandes": 2120,
  "\u2581Cor": 2121,
  "ju": 2122,
  "De": 2123,
  "\u2581relating": 2124,
  "ac": 2125,
  "\u2581actual": 2126,
  "\u2581Department": 2127,
  "\u2581event": 2128,
  "sion": 2129,
  "\u2581soci\u00e9t\u00e9": 2130,
  "\u2581tri": 2131,
  "\u2581relative": 2132,
  "\u2581l\u00e1": 2133,
  "\u2581First": 2134,
  "\u2581Bureau": 2135,
  ".4": 2136,
  "\u2581nell": 2137,
  "\u2581providing": 2138,
  "\u2581Inter": 2139,
  "\u2581outside": 2140,
  "\u25811999": 2141,
  "\u2581events": 2142,
  "\u2581happened": 2143,
  "tica": 2144,
  "\u2581works": 2145,
  "\u2581participants": 2146,
  "lin": 2147,
  "\u2581mg": 2148,
  "Re": 2149,
  "ncia": 2150,
  "\u2581turn": 2151,
  "\u2581paz": 2152,
  "r\u0103": 2153,
  "\u2581American": 2154,
  "\u2581decided": 2155,
  "\u2581lors": 2156,
  "\u2581tener": 2157,
  "\u2581Pr\u00e9sident": 2158,
  "\u2581sociale": 2159,
  "\u2581jours": 2160,
  "\u2581guy": 2161,
  "\u2581Gobierno": 2162,
  "\u2581\u00e9taient": 2163,
  "\u2581j\u00e1": 2164,
  "\u2581reference": 2165,
  "\u2581regarding": 2166,
  "por": 2167,
  "\u2581develop": 2168,
  "\u2581consider": 2169,
  "\u2581Report": 2170,
  "\u2581meetings": 2171,
  "gu": 2172,
  "\u2581along": 2173,
  "sti": 2174,
  "\u2581soon": 2175,
  "\u2581manera": 2176,
  "\u2581apoyo": 2177,
  "\u2581dizer": 2178,
  "\u2581wish": 2179,
  "\u2581nouvelle": 2180,
  "\u2581conform\u00e9ment": 2181,
  "\u2581acuerdo": 2182,
  "\u2581pr\u00e9sente": 2183,
  "\u2581crisis": 2184,
  "\u2581Central": 2185,
  "\u2581someone": 2186,
  "\u2581recent": 2187,
  "\u2581cum": 2188,
  "fo": 2189,
  "\u2581Lord": 2190,
  "\u2581Dar": 2191,
  "\u2581condition": 2192,
  "\u2581itself": 2193,
  "\u2581military": 2194,
  "\u2581agora": 2195,
  "\u2581status": 2196,
  "\u2581noi": 2197,
  "ible": 2198,
  "\u2581investment": 2199,
  "\u2581europea": 2200,
  "sh": 2201,
  "\u2581d\u00e9j\u00e0": 2202,
  "EEC": 2203,
  "CEE": 2204,
  "\u2581directive": 2205,
  "ol": 2206,
  "\u2581return": 2207,
  "\u2581administrative": 2208,
  "ence": 2209,
  "\u2581d\u00e9cembre": 2210,
  "\u2581create": 2211,
  "ger": 2212,
  "\u2581bon": 2213,
  "\u2581bio": 2214,
  "\u2581friend": 2215,
  "\u25812018": 2216,
  "\u2581code": 2217,
  "\u2581UE": 2218,
  "\u2581Tra": 2219,
  "\u258145": 2220,
  "\u2581membre": 2221,
  "qua": 2222,
  "\u2581High": 2223,
  "\u2581book": 2224,
  "\u2581tax": 2225,
  "\u2581conta": 2226,
  "\u2581hace": 2227,
  "\u2581Italy": 2228,
  "\u2581concerne": 2229,
  "ure": 2230,
  "\u2581responsibility": 2231,
  "\u2581self": 2232,
  "\u2581serious": 2233,
  "\u258180": 2234,
  "\u2581trying": 2235,
  "\u2581r\u00f4le": 2236,
  "stra": 2237,
  "\u2581contr\u00f4le": 2238,
  "Q": 2239,
  "\u2581tan": 2240,
  "\u2581ici": 2241,
  "\u2581saw": 2242,
  "cen": 2243,
  "\u2581criminal": 2244,
  "\u2581half": 2245,
  "\u2581tutto": 2246,
  "\u2581avons": 2247,
  "ino": 2248,
  "\u2581film": 2249,
  "mail": 2250,
  "ise": 2251,
  "tin": 2252,
  "\u2581minimum": 2253,
  "\u2581Stati": 2254,
  "\u2581positive": 2255,
  "\u2581evidence": 2256,
  "eux": 2257,
  "\u2581maximum": 2258,
  "\u2581studies": 2259,
  "\u2581brought": 2260,
  "\u2581Saint": 2261,
  "cos": 2262,
  "\u2581industrial": 2263,
  "ut": 2264,
  "\u00a9": 2265,
  "\u2581grupo": 2266,
  "id": 2267,
  "\u2581zone": 2268,
  "%": 2269,
  "\u2581commercial": 2270,
  "\u2581persona": 2271,
  "\u2581aici": 2272,
  "\u2581sources": 2273,
  "\u2581average": 2274,
  "\u2581response": 2275,
  "70": 2276,
  "\u2581est\u00e3o": 2277,
  "\u2581bad": 2278,
  "\u2581contributions": 2279,
  "\u2581nunca": 2280,
  "\u2581prices": 2281,
  "\u2581Get": 2282,
  "\u2581woman": 2283,
  "pri": 2284,
  "EN": 2285,
  "\u2581art": 2286,
  "\u2581history": 2287,
  "\u2581m\u0103": 2288,
  "\u2581foram": 2289,
  "\u2581mediante": 2290,
  "\u2581move": 2291,
  "\u2581objectives": 2292,
  "\u2581double": 2293,
  "\u2581sent": 2294,
  "ando": 2295,
  "\u2581thus": 2296,
  "\u2581fra": 2297,
  "\u2581centro": 2298,
  "\u2581heard": 2299,
  "\u2581else": 2300,
  "ros": 2301,
  "\u2581Ils": 2302,
  "ki": 2303,
  "\u2581organization": 2304,
  "\u2581relaci\u00f3n": 2305,
  "\u2581complete": 2306,
  "\u00c9": 2307,
  "\u2581problemas": 2308,
  "\u2581paix": 2309,
  "\u258132": 2310,
  "\u2581monitoring": 2311,
  "\u2581\u00c9tat": 2312,
  "\u2581provision": 2313,
  "\u2581cela": 2314,
  "\u2581decisions": 2315,
  "\u2581Of": 2316,
  "\u2581moi": 2317,
  "\u2581administration": 2318,
  "\u2581despu\u00e9s": 2319,
  "\u2581assim": 2320,
  "\u25812017": 2321,
  "\u2581longer": 2322,
  "\u2581molto": 2323,
  "\u2581lead": 2324,
  "\u2581sale": 2325,
  "\u2581actually": 2326,
  "\u2581technologies": 2327,
  "ture": 2328,
  "\u2581Because": 2329,
  "\u2581nuevo": 2330,
  "\u2581trabalho": 2331,
  "\u2581sexual": 2332,
  "\u2581agreed": 2333,
  "iste": 2334,
  "\u2581Son": 2335,
  "\u2581Deus": 2336,
  "idade": 2337,
  "\u2581themselves": 2338,
  ".5": 2339,
  "\u2581u": 2340,
  "\u2581Dis": 2341,
  "\u2581crime": 2342,
  "\u2581super": 2343,
  "use": 2344,
  "we": 2345,
  "\u2581run": 2346,
  "\u2581faut": 2347,
  "cho": 2348,
  "lla": 2349,
  "\u2581dois": 2350,
  "\u2581presented": 2351,
  "\u2581front": 2352,
  "\u2581direction": 2353,
  "\u00e7a": 2354,
  "\u2581forme": 2355,
  "\u2581saber": 2356,
  "\u2581seulement": 2357,
  "\u2581basic": 2358,
  "\u2581200": 2359,
  "\u2581getting": 2360,
  "\u2581estas": 2361,
  "\u2581sustainable": 2362,
  "\u2581micro": 2363,
  "tore": 2364,
  "\u2581principles": 2365,
  "\u2581Director": 2366,
  "van": 2367,
  "\u2581Mission": 2368,
  "ley": 2369,
  "\u2581situaci\u00f3n": 2370,
  "\u2581seront": 2371,
  "\u2581taux": 2372,
  "\u2581decir": 2373,
  "\u2581reported": 2374,
  "\u2581created": 2375,
  "\u2581ante": 2376,
  "\u2581Ben": 2377,
  "\u2581official": 2378,
  "\u2581receive": 2379,
  "\u2581strategy": 2380,
  "\u2581distribution": 2381,
  "\u2581volta": 2382,
  "\u2581estos": 2383,
  "\u2581europ\u00e9en": 2384,
  "\u2581item": 2385,
  "\u2581r\u00e9gion": 2386,
  "\u2581act": 2387,
  "gra": 2388,
  "\u2581message": 2389,
  "\u2581estava": 2390,
  "\u2581fatto": 2391,
  "gan": 2392,
  "\u2581Secr\u00e9taire": 2393,
  "\u2581Fund": 2394,
  "\u2581beautiful": 2395,
  "\u2581added": 2396,
  "\u2581deal": 2397,
  "\u2581medio": 2398,
  "\u2581nouvelles": 2399,
  "ida": 2400,
  "\u2581Bien": 2401,
  "\u2581sesiones": 2402,
  "\u2581adoption": 2403,
  "tico": 2404,
  "\u2581casos": 2405,
  "\u2581rather": 2406,
  "\u2581ru": 2407,
  "\u2581datos": 2408,
  "\u2581experts": 2409,
  "\u2581otra": 2410,
  "\u2581comes": 2411,
  "\u2581website": 2412,
  "\u2581estado": 2413,
  "14": 2414,
  "\u2581resultados": 2415,
  "ente": 2416,
  "\u2581poder": 2417,
  "\u2581euro": 2418,
  "01": 2419,
  "\u2581rest": 2420,
  "\u2581girl": 2421,
  "\u2581tres": 2422,
  "\u2581donde": 2423,
  "\u2581noted": 2424,
  "\u2581designed": 2425,
  "\u2581foreign": 2426,
  "\u2581ellos": 2427,
  "\u2581visit": 2428,
  "\u2581consideration": 2429,
  "\u2581strong": 2430,
  "\u2581guys": 2431,
  "\u2581Ju": 2432,
  "\u2581otro": 2433,
  "\u2581opportunity": 2434,
  "if": 2435,
  "\u2581vista": 2436,
  "teur": 2437,
  "\u2581Po": 2438,
  "\u2581transfer": 2439,
  "9": 2440,
  "bri": 2441,
  "\u2581reduce": 2442,
  "\u2581trebuie": 2443,
  "cre": 2444,
  "\u2581chez": 2445,
  "35": 2446,
  "\u2581esse": 2447,
  "ssi": 2448,
  "\u2581whose": 2449,
  "ous": 2450,
  "\u2581Action": 2451,
  "\u2581valor": 2452,
  "\u2581vol": 2453,
  "\u2581alors": 2454,
  "\u2581=": 2455,
  "EU": 2456,
  "\u2581techniques": 2457,
  "\u2581trata": 2458,
  "l\u00e9": 2459,
  "\u2581word": 2460,
  "\u2581pris": 2461,
  "\u2581anni": 2462,
  "\u2581friends": 2463,
  "\u2581lista": 2464,
  "\u2581besoin": 2465,
  "ati": 2466,
  "\u2581proceso": 2467,
  "ano": 2468,
  "\u2581Bi": 2469,
  "rs": 2470,
  "\u2581saying": 2471,
  "\u2581fare": 2472,
  "term": 2473,
  "\u2581Grupo": 2474,
  "\u2581travaux": 2475,
  "\u2581Pi": 2476,
  "c\u0103": 2477,
  "\u2581Organization": 2478,
  "\u2581tienen": 2479,
  "\u2581essential": 2480,
  "\u2581membri": 2481,
  "ated": 2482,
  "\u25815.": 2483,
  "\u2581(1)": 2484,
  "\u2581easy": 2485,
  "\u2581relatives": 2486,
  "\u2581remember": 2487,
  "\u2581objectifs": 2488,
  "tre": 2489,
  "\u2581bo": 2490,
  "\u258170": 2491,
  "\u2581joint": 2492,
  "\u25814,": 2493,
  "\u2581term": 2494,
  "11": 2495,
  "\u2581usted": 2496,
  "\u2581internal": 2497,
  "\u2581dead": 2498,
  "\u2581embargo": 2499,
  "\u2581voi": 2500,
  "\u2581juin": 2501,
  "\u2581benefits": 2502,
  "\u2581talking": 2503,
  "\u2581ligne": 2504,
  "ito": 2505,
  "\u2581network": 2506,
  "\u2581especial": 2507,
  "\u2581Bank": 2508,
  "\u2581parti": 2509,
  "\u2581forward": 2510,
  "\u2581mondiale": 2511,
  "eur": 2512,
  "\u2581gente": 2513,
  "\u2581avez": 2514,
  "18": 2515,
  "\u2581regions": 2516,
  "\u2581Mac": 2517,
  "\u2581existe": 2518,
  "tul": 2519,
  "org": 2520,
  "US": 2521,
  "\u2581Yo": 2522,
  "\u2581associated": 2523,
  "\u2581town": 2524,
  "\u2581dice": 2525,
  "\u2581African": 2526,
  "\u2581morning": 2527,
  "Le": 2528,
  "\u2581D\u00e9": 2529,
  "\u2581col": 2530,
  "\u2581sorry": 2531,
  "\u2581almost": 2532,
  "\u2581Sur": 2533,
  "ran": 2534,
  "ants": 2535,
  "\u2581Did": 2536,
  "\u2581empresas": 2537,
  "\u2581l\u00e0": 2538,
  "cal": 2539,
  "\u2581pessoas": 2540,
  "\u2581previous": 2541,
  "\u2581sites": 2542,
  "\u2581celui": 2543,
  "\u2581ejemplo": 2544,
  "\u2581Hi": 2545,
  "\u2581annual": 2546,
  "\u2581regular": 2547,
  "encia": 2548,
  "\u25811996": 2549,
  "\u2581House": 2550,
  "\u2581Pa": 2551,
  "\u2581chance": 2552,
  "\u00f3n": 2553,
  "amento": 2554,
  "\u2581across": 2555,
  "\u2581funds": 2556,
  "\u2581sabe": 2557,
  "\u2581relation": 2558,
  "12": 2559,
  "\u2581concern": 2560,
  "\u2581Since": 2561,
  "\u2581yourself": 2562,
  "\u2581currently": 2563,
  "\u2581limited": 2564,
  "\u2581melhor": 2565,
  "\u2581fonction": 2566,
  "\u2581doctor": 2567,
  "\u2581statement": 2568,
  "aire": 2569,
  "95": 2570,
  "\u2581Public": 2571,
  "\u2581ayant": 2572,
  "\u2581k": 2573,
  "sso": 2574,
  "\u2581During": 2575,
  "\u2581principle": 2576,
  "\u2581pan": 2577,
  "\u2581Asamblea": 2578,
  "\u2581benefit": 2579,
  "\u2581Ya": 2580,
  "\u2581Rep\u00fablica": 2581,
  "\u2581Law": 2582,
  "\u2581effet": 2583,
  "\u2581cualquier": 2584,
  "\u2581mo": 2585,
  "\u2581elles": 2586,
  "\u2581pra": 2587,
  "\u2581takes": 2588,
  "\u2581materials": 2589,
  "\u2581voir": 2590,
  "\u2581renseignements": 2591,
  "\u2581games": 2592,
  "\u2581near": 2593,
  "cio": 2594,
  "\u2581representatives": 2595,
  "\u2581practices": 2596,
  "\u2581Her": 2597,
  "\u2581rates": 2598,
  "\u2581volume": 2599,
  "su": 2600,
  "\u2581Paul": 2601,
  "19": 2602,
  "\u2581lack": 2603,
  "\u2581difficult": 2604,
  "\u2581sens": 2605,
  "\u2581gave": 2606,
  "\u2581Working": 2607,
  "izaci\u00f3n": 2608,
  "ei": 2609,
  "\u2581cm": 2610,
  "\u2581Kingdom": 2611,
  "\u2581collaboration": 2612,
  "\u2581tras": 2613,
  "m\u00e9": 2614,
  "\u2581Ent\u00e3o": 2615,
  "ud": 2616,
  "\u2581train": 2617,
  "\u2581nuestro": 2618,
  "\u2581Uni\u00f3n": 2619,
  "\u2581City": 2620,
  "\u2581Jo": 2621,
  "\u2581size": 2622,
  "\u2581Total": 2623,
  "\u2581ainda": 2624,
  "\u2581exchange": 2625,
  "\u2581rooms": 2626,
  "15": 2627,
  "\u2581approved": 2628,
  "\u2581vou": 2629,
  "ini": 2630,
  "\u2581pa": 2631,
  "\u2581operation": 2632,
  "DE": 2633,
  "\u2581technique": 2634,
  "\u2581alone": 2635,
  "ssa": 2636,
  "by": 2637,
  "\u2581mucho": 2638,
  "\u2581n\u00f3s": 2639,
  "\u2581coisa": 2640,
  "\u2581haya": 2641,
  "\u2581pol\u00edticas": 2642,
  "\u2581nei": 2643,
  "\u2581though": 2644,
  "stre": 2645,
  "\u2581estou": 2646,
  "\u2581details": 2647,
  "pt": 2648,
  "\u2581Ve": 2649,
  "\u2581tre": 2650,
  "\u2581gender": 2651,
  "\u2581vin": 2652,
  "\u2581Affairs": 2653,
  "lan": 2654,
  "menti": 2655,
  "\u2581applications": 2656,
  "\u2581sujet": 2657,
  "\u00f1a": 2658,
  "\u2581Air": 2659,
  "\u2581prevent": 2660,
  "\u2581organizaciones": 2661,
  "\u2581Ni": 2662,
  "\u2581purposes": 2663,
  "bile": 2664,
  "\u2581eles": 2665,
  "\u2581expected": 2666,
  "\u2581Germany": 2667,
  "\u25811998": 2668,
  "port": 2669,
  "\u2581R\u00e9publique": 2670,
  "\u2581\u0301": 2671,
  "urs": 2672,
  "\u25811995": 2673,
  "\u2581forms": 2674,
  "\u2581ten": 2675,
  "\u2581laquelle": 2676,
  "ization": 2677,
  "gno": 2678,
  "\u2581Consiglio": 2679,
  "tic": 2680,
  "\u2581alta": 2681,
  "\u258133": 2682,
  "\u2581fun": 2683,
  "\u2581parts": 2684,
  "\u2581road": 2685,
  "\u2581establishment": 2686,
  "\u2581indica": 2687,
  "\u2581agencies": 2688,
  "\u2581solutions": 2689,
  "\u2581conflict": 2690,
  "\u2581mer": 2691,
  "\u2581paid": 2692,
  "ero": 2693,
  "\u2581Ela": 2694,
  "\u2581imp": 2695,
  "\u2581rural": 2696,
  "\u2581dis": 2697,
  "\u2581app": 2698,
  "\u2581beaucoup": 2699,
  "\u2581partes": 2700,
  "eu": 2701,
  "\u2581initiative": 2702,
  "\u2581Europea": 2703,
  "\u2581probl\u00e8mes": 2704,
  "\u2581groupes": 2705,
  "\u2581medical": 2706,
  "\u2581soient": 2707,
  "\u2581objective": 2708,
  "\u2581liste": 2709,
  "\u2581month": 2710,
  "IS": 2711,
  "16": 2712,
  "$": 2713,
  "\u2581Internacional": 2714,
  "\u2581citizens": 2715,
  "\u2581ann\u00e9e": 2716,
  "Unis": 2717,
  "\u2581mim": 2718,
  "\u2581raison": 2719,
  "ns": 2720,
  "\u2581productos": 2721,
  "ique": 2722,
  "\u2581ready": 2723,
  "\u2581search": 2724,
  "\u2581white": 2725,
  "\u2581Women": 2726,
  "ies": 2727,
  "\u2581focus": 2728,
  "\u2581sir": 2729,
  "\u2581nationale": 2730,
  "\u2581onde": 2731,
  "\u2581ton": 2732,
  "\u2581applied": 2733,
  "aide": 2734,
  "\u2581Windows": 2735,
  "\u2581lavoro": 2736,
  "ari": 2737,
  "\u2581Section": 2738,
  "\u2581published": 2739,
  "\u2581collection": 2740,
  "\u2581dose": 2741,
  "vol": 2742,
  "\u2581students": 2743,
  "\u2581horas": 2744,
  "\u2581discussion": 2745,
  "\u2581started": 2746,
  "\u2581includes": 2747,
  "\u2581libre": 2748,
  "\u2581competition": 2749,
  "\u2581quer": 2750,
  "\u2581protecci\u00f3n": 2751,
  "\u2581check": 2752,
  "ER": 2753,
  "action": 2754,
  "\u2581Table": 2755,
  "\u2581LA": 2756,
  "bu": 2757,
  "r\u00e0": 2758,
  "\u2581(2)": 2759,
  "ak": 2760,
  "\u2581continued": 2761,
  "\u2581travel": 2762,
  "\u2581CE": 2763,
  "\u2581economy": 2764,
  "IC": 2765,
  "ang": 2766,
  "\u2581Ja": 2767,
  "\u258148": 2768,
  "\u2581requested": 2769,
  "\u2581cooperaci\u00f3n": 2770,
  "\u2581Agency": 2771,
  "r\u00e1n": 2772,
  "\u2581domestic": 2773,
  "\u2581zona": 2774,
  "\u2581cual": 2775,
  "\u2581significa": 2776,
  "\u2581items": 2777,
  "+": 2778,
  "ction": 2779,
  "\u00c9tat": 2780,
  "\u2581funding": 2781,
  "\u2581EN": 2782,
  "ji": 2783,
  "of": 2784,
  "\u2581bit": 2785,
  "17": 2786,
  "homme": 2787,
  "\u2581representative": 2788,
  "ali": 2789,
  "\u2581encontrar": 2790,
  "\u2581suas": 2791,
  "\u2581futuro": 2792,
  "\u2581estaba": 2793,
  "\u2581proposals": 2794,
  "ata": 2795,
  "inter": 2796,
  "\u2581lost": 2797,
  "\u2581ora": 2798,
  "\u2581stage": 2799,
  "\u2581500": 2800,
  "\u2581nouveaux": 2801,
  "\u2581quelques": 2802,
  "\u2581color": 2803,
  "mes": 2804,
  "\u2581Ka": 2805,
  "\u2581diferentes": 2806,
  "t\u00f3": 2807,
  "\u2581behalf": 2808,
  "based": 2809,
  "\u2581protect": 2810,
  "\u2581Lu": 2811,
  "ments": 2812,
  "\u2581Maybe": 2813,
  "\u2581posso": 2814,
  "ira": 2815,
  "\u2581importantes": 2816,
  "\u2581labour": 2817,
  "\u2581agreements": 2818,
  "\u2581mes": 2819,
  "\u2581IN": 2820,
  "\u2581throughout": 2821,
  "13": 2822,
  "end": 2823,
  "\u2581partners": 2824,
  "\u2581Quando": 2825,
  "ating": 2826,
  "\u2581photo": 2827,
  "\u2581altri": 2828,
  "\u2581instrument": 2829,
  "\u2581pourrait": 2830,
  "\u2581former": 2831,
  "ras": 2832,
  "ru": 2833,
  "\u2581David": 2834,
  "\u2581ob": 2835,
  "ide": 2836,
  "\u2581Cal": 2837,
  "hui": 2838,
  "time": 2839,
  "\u00e9tait": 2840,
  "\u2581fo": 2841,
  "\u2581kill": 2842,
  "\u2581covered": 2843,
  "\u2581visant": 2844,
  "elles": 2845,
  "\u2581cara": 2846,
  "\u2581ayuda": 2847,
  "\u2581While": 2848,
  "\u2581Pas": 2849,
  "out": 2850,
  "\u2581professional": 2851,
  "\u2581posible": 2852,
  "IT": 2853,
  "\u2581Gu": 2854,
  "\u2581fight": 2855,
  "\u2581figure": 2856,
  "\u258136": 2857,
  "\u2581Ko": 2858,
  "\u2581Loi": 2859,
  "\u25811994": 2860,
  "\u2581poco": 2861,
  "\u2581hospital": 2862,
  "\u2581nuestra": 2863,
  "\u2581achieve": 2864,
  "\u2581prin": 2865,
  "\u2581condiciones": 2866,
  "\u2581d\u00edas": 2867,
  "\u2581essa": 2868,
  "\u2581outre": 2869,
  "\u2581internacionales": 2870,
  "\u2581facilities": 2871,
  "Con": 2872,
  "ING": 2873,
  "duc": 2874,
  "\u2581heures": 2875,
  "\u2581phase": 2876,
  "\u2581cover": 2877,
  "\u2581Commissioner": 2878,
  "\u2581sociales": 2879,
  "\u2581equal": 2880,
  "wa": 2881,
  "iv": 2882,
  "sol": 2883,
  "\u2581oil": 2884,
  "-1": 2885,
  "\u2581fer": 2886,
  "\u2581expressed": 2887,
  "\u2581\u015ei": 2888,
  "\u2581weight": 2889,
  "\u2581email": 2890,
  "@": 2891,
  "\u2581millones": 2892,
  "\u2581Asia": 2893,
  "\u2581Dieu": 2894,
  "ido": 2895,
  "000": 2896,
  "\u2581traitement": 2897,
  "\u2581North": 2898,
  "\u2581wife": 2899,
  "\u2581apenas": 2900,
  "\u2581marco": 2901,
  "\u2581tema": 2902,
  "99": 2903,
  "\u2581parece": 2904,
  "\u25816.": 2905,
  "\u2581rule": 2906,
  "\u2581chose": 2907,
  "\u2581news": 2908,
  "BAR": 2909,
  "28": 2910,
  "\u2581beginning": 2911,
  "\u2581isn": 2912,
  "\u2581lives": 2913,
  "\u2581novembre": 2914,
  "dio": 2915,
  "\u25811997": 2916,
  "\u2581modern": 2917,
  "tal": 2918,
  "application": 2919,
  "\u00eancia": 2920,
  "\u2581nacionales": 2921,
  "\u2581nice": 2922,
  "\u2581record": 2923,
  "\u2581dall": 2924,
  "pos": 2925,
  "Por": 2926,
  "\u2581publication": 2927,
  "mb": 2928,
  "\u2581Convenci\u00f3n": 2929,
  "\u2581besoins": 2930,
  "\u2581Spain": 2931,
  "para": 2932,
  "qu\u00e9": 2933,
  "\u2581values": 2934,
  "Fi": 2935,
  "\u2581cre": 2936,
  "ica": 2937,
  "27": 2938,
  "\u2581Cour": 2939,
  "\u2581step": 2940,
  "\u2581considera": 2941,
  "\u2581ways": 2942,
  "cas": 2943,
  "\u2581evaluation": 2944,
  "\u2581Management": 2945,
  "\u25811990": 2946,
  "area": 2947,
  "\u2581dac\u0103": 2948,
  "\u2581ogni": 2949,
  "\u2581income": 2950,
  "\u2581moyen": 2951,
  "\u2581financement": 2952,
  "\u2581salud": 2953,
  "\u2581planning": 2954,
  "\u2581establish": 2955,
  "\u2581porta": 2956,
  "q": 2957,
  "\u2581remain": 2958,
  "\u2581publique": 2959,
  "\u2581criteria": 2960,
  "\u2581mio": 2961,
  "\u2581Secretario": 2962,
  "nal": 2963,
  "\u00f5es": 2964,
  "\u2581Justice": 2965,
  "\u2581truth": 2966,
  "\u2581clients": 2967,
  "\u2581credit": 2968,
  "\u2581d\u00f3lares": 2969,
  "\u2581knew": 2970,
  "\u2581Check": 2971,
  "96": 2972,
  "\u2581bed": 2973,
  "\u2581disponibles": 2974,
  "\u2581rapports": 2975,
  "CO": 2976,
  "\u2581communities": 2977,
  "21": 2978,
  "En": 2979,
  "\u2581computer": 2980,
  "\u2581grupos": 2981,
  "\u2581R\u00e9": 2982,
  "\u2581Tri": 2983,
  "24": 2984,
  "tique": 2985,
  "teurs": 2986,
  "TA": 2987,
  "ere": 2988,
  "\u2581pouvoir": 2989,
  "\u2581consultations": 2990,
  "\u2581Isso": 2991,
  "\u2581mujer": 2992,
  "\u2581matters": 2993,
  "\u2581Sub": 2994,
  "\u2581n\u00e9cessaire": 2995,
  "ront": 2996,
  "\u2581poverty": 2997,
  "\u2581Google": 2998,
  "29": 2999,
  "\u2581sound": 3000,
  "\u2581valeur": 3001,
  "ient": 3002,
  "oso": 3003,
  "\u2581deben": 3004,
  "\u2581reasons": 3005,
  "\u2581hold": 3006,
  "\u2581reduction": 3007,
  "\u2581prepared": 3008,
  "\u00e7o": 3009,
  "ier": 3010,
  "\u2581contained": 3011,
  "\u2581supply": 3012,
  "\u2581calidad": 3013,
  "\u2581tomar": 3014,
  "\u2581avis": 3015,
  "utilisation": 3016,
  "\u2581primera": 3017,
  "\u2581series": 3018,
  "\u2581Ministry": 3019,
  "\u2581objetivo": 3020,
  "\u2581permanent": 3021,
  "\u2581donn\u00e9": 3022,
  "\u2581consultation": 3023,
  "\u2581asistencia": 3024,
  "sur": 3025,
  "\u2581centres": 3026,
  "nie": 3027,
  "\u2581issued": 3028,
  "her": 3029,
  "\u2581lado": 3030,
  "2,": 3031,
  "\u2581freedom": 3032,
  "emploi": 3033,
  "\u2581physical": 3034,
  "\u2581PC": 3035,
  "\u2581famille": 3036,
  "\u2581Qui": 3037,
  "\u2581Unidos": 3038,
  "\u2581labor": 3039,
  "\u2581siempre": 3040,
  "cent": 3041,
  "\u2581Ga": 3042,
  "\u2581terme": 3043,
  "\u2581ella": 3044,
  "\u2581tuo": 3045,
  "\u2581cosas": 3046,
  "\u2581Protocol": 3047,
  "vin": 3048,
  "\u2581weeks": 3049,
  "\u2581perfect": 3050,
  "\u2581music": 3051,
  "\u2581serait": 3052,
  "\u2581Hu": 3053,
  "\u2581commerce": 3054,
  "mon": 3055,
  "ges": 3056,
  "\u2581safe": 3057,
  "\u2581laws": 3058,
  "\u2581balance": 3059,
  "\u2581everyone": 3060,
  "\u2581Conselho": 3061,
  "ED": 3062,
  "\u2581connection": 3063,
  "\u2581concept": 3064,
  "gli": 3065,
  "32": 3066,
  "\u2581Art": 3067,
  "\u2581tua": 3068,
  "\u2581late": 3069,
  "gio": 3070,
  "\u2581fie": 3071,
  "\u258134": 3072,
  "\u25815,": 3073,
  "endo": 3074,
  "\u2581meses": 3075,
  "?\"": 3076,
  "\u2581isto": 3077,
  "\u2581mieux": 3078,
  "\u2581phone": 3079,
  "\u2581certaines": 3080,
  "\u2581individuals": 3081,
  "dy": 3082,
  "ted": 3083,
  "\u2581serve": 3084,
  "cion": 3085,
  "\u2581thank": 3086,
  "\u2581organismes": 3087,
  "\u2581Search": 3088,
  "\u2581celle": 3089,
  "ung": 3090,
  "\u2581offre": 3091,
  "\u2581According": 3092,
  "\u2581contract": 3093,
  "\u2581steps": 3094,
  "\u2581Gouvernement": 3095,
  "\u2581commitment": 3096,
  "\u2581juillet": 3097,
  "\u2581Tom": 3098,
  "Ma": 3099,
  "\u2581stock": 3100,
  "\u2581ground": 3101,
  "34": 3102,
  "\u2581pouvez": 3103,
  "tina": 3104,
  "\u2581inside": 3105,
  "\u2581Jehovah": 3106,
  "\u2581reach": 3107,
  "\u2581sim": 3108,
  "\u2581organisation": 3109,
  "\u2581Conf\u00e9rence": 3110,
  "\u2581Reglamento": 3111,
  "\u2581quand": 3112,
  "\u2581animal": 3113,
  "\u2581opportunities": 3114,
  "\u2581East": 3115,
  "\u2581Parlement": 3116,
  "\u2581segundo": 3117,
  "\u2581cookies": 3118,
  "\u2581outros": 3119,
  "\u2581Date": 3120,
  "\u2581sense": 3121,
  "bar": 3122,
  "cle": 3123,
  "\u2581marketing": 3124,
  "\u2581learn": 3125,
  "\u2581vamos": 3126,
  "\u2581baby": 3127,
  "\u2581Col": 3128,
  "\u2581algunos": 3129,
  "\u2581AND": 3130,
  "\u2581Santa": 3131,
  "\u2581IV": 3132,
  "\u2581aumento": 3133,
  "22": 3134,
  "\u2581relationship": 3135,
  "\u2581behind": 3136,
  "\u2581lower": 3137,
  "\u2581cal": 3138,
  "\u2581cross": 3139,
  "\u2581Val": 3140,
  "\u2581empresa": 3141,
  "\u2581quite": 3142,
  "\u2581mars": 3143,
  "\u2581Vamos": 3144,
  "\u258137": 3145,
  "\u2581News": 3146,
  "nica": 3147,
  "\u2581hora": 3148,
  "\u2581sais": 3149,
  "\u00bb.": 3150,
  "\u2581creation": 3151,
  "ab": 3152,
  "\u2581killed": 3153,
  "\u2581girls": 3154,
  "\u2581surface": 3155,
  "\u2581res": 3156,
  "\u2581Iraq": 3157,
  "ized": 3158,
  "\u2581notes": 3159,
  "\u2581University": 3160,
  "\u2581Adem\u00e1s": 3161,
  "ch\u00e9": 3162,
  "\u2581superior": 3163,
  "\u2581himself": 3164,
  "\u2581situations": 3165,
  "23": 3166,
  "\u2581overall": 3167,
  "\u2581pursuant": 3168,
  "\u2581estamos": 3169,
  "\u2581places": 3170,
  "\u2581Note": 3171,
  "cta": 3172,
  "\u2581users": 3173,
  "\u2581methods": 3174,
  "\u2581identified": 3175,
  "\u2581wasn": 3176,
  "\u2581artigo": 3177,
  "\u2581jeunes": 3178,
  "\u2581communications": 3179,
  "m\u0103": 3180,
  "\u2581send": 3181,
  "\u2581interests": 3182,
  "\u2581ba": 3183,
  "ah": 3184,
  "iti": 3185,
  "\u2581families": 3186,
  "\u2581pai": 3187,
  "\u2581fire": 3188,
  "\u2581reporting": 3189,
  "\u2581acceso": 3190,
  "\u2581jamais": 3191,
  "\u2581elements": 3192,
  "\u2581tenu": 3193,
  "ue": 3194,
  "\u2581image": 3195,
  "sen": 3196,
  "rei": 3197,
  "\u2581priority": 3198,
  "\u2581autorit\u00e9s": 3199,
  "\u2581EC": 3200,
  "\u2581capacidad": 3201,
  "\u2581cuestiones": 3202,
  "\u2581visto": 3203,
  "47": 3204,
  "\u2581understanding": 3205,
  "\u00f2": 3206,
  "\u2581implement": 3207,
  "\u2581normas": 3208,
  "\u2581janvier": 3209,
  "\u2581nosotros": 3210,
  "\u2581enter": 3211,
  "26": 3212,
  "\u2581options": 3213,
  "sia": 3214,
  "\u2581durable": 3215,
  "\u2581principales": 3216,
  "\u25812006,": 3217,
  "less": 3218,
  "\u2581disease": 3219,
  "\u00ae": 3220,
  ".9": 3221,
  "\u2581relativa": 3222,
  "\u2581hands": 3223,
  "\u2581quello": 3224,
  "\u2581century": 3225,
  "\u2581fonds": 3226,
  "si\u00f3n": 3227,
  "CN": 3228,
  "\u2581Portugal": 3229,
  "\u2581cap": 3230,
  "\u25812005,": 3231,
  "\u2581importa": 3232,
  "\u2581logo": 3233,
  "\u2581sentido": 3234,
  "\u2581guide": 3235,
  "\u2581category": 3236,
  "\u2581amor": 3237,
  "\u2581uh": 3238,
  "\u2581states": 3239,
  "\u2581add": 3240,
  "bili": 3241,
  "amente": 3242,
  "\u2581movement": 3243,
  "\u2581Research": 3244,
  "ct": 3245,
  "\u00e9valuation": 3246,
  "\u2581Party": 3247,
  "\u2581maintenant": 3248,
  "\u2581donner": 3249,
  "\u2581Description": 3250,
  "\u2581ale": 3251,
  "dis": 3252,
  "\u2581Ten": 3253,
  "\u2581sino": 3254,
  "\u2581entitled": 3255,
  "rait": 3256,
  "\u2581p\u00e1rrafo": 3257,
  "articolo": 3258,
  "\u2581agricultural": 3259,
  "\u2581tel": 3260,
  "9/": 3261,
  "\u2581require": 3262,
  "31": 3263,
  "\u2581dove": 3264,
  "\u2581Organisation": 3265,
  "\u2581paper": 3266,
  "tur": 3267,
  "\u2581written": 3268,
  "\u2581autoridades": 3269,
  "\u2581fecha": 3270,
  "\u25811993": 3271,
  "\u2581sein": 3272,
  "\u2581bajo": 3273,
  "\u2581challenges": 3274,
  "miento": 3275,
  "voir": 3276,
  "\u2581species": 3277,
  "\u2581camp": 3278,
  "\u2581Euro": 3279,
  "\u2581grave": 3280,
  "lhe": 3281,
  "\u2581ancora": 3282,
  "\u2581comprehensive": 3283,
  "\u2581enjoy": 3284,
  "\u2581station": 3285,
  "\u2013": 3286,
  "\u2581papel": 3287,
  "\u2581payment": 3288,
  "\u2581affaires": 3289,
  "aria": 3290,
  "\u2581regolamento": 3291,
  "\u2581defined": 3292,
  "gre": 3293,
  "\u2581India": 3294,
  "\u2581recommended": 3295,
  "ille": 3296,
  "\u2581haber": 3297,
  "\u2581anyone": 3298,
  "\u2581spa": 3299,
  "45": 3300,
  "osa": 3301,
  "\u25817.": 3302,
  "\u2581Rapporteur": 3303,
  "\u2581addressed": 3304,
  "\u2581wants": 3305,
  "\u2581conformidad": 3306,
  "\u2581Oui": 3307,
  "\u2581federal": 3308,
  "\u2581syst\u00e8mes": 3309,
  "\u2581arrangements": 3310,
  "\u2581speak": 3311,
  "\u2581infrastructure": 3312,
  "\u2581podemos": 3313,
  "cra": 3314,
  "stru": 3315,
  "55": 3316,
  "\u2581prodotti": 3317,
  "\u2581diciembre": 3318,
  "\u2581territory": 3319,
  "col": 3320,
  "\u2581mult": 3321,
  "illa": 3322,
  "\u2581ambiente": 3323,
  "\u2581CO": 3324,
  "\u2581S\u00ed": 3325,
  "autre": 3326,
  "year": 3327,
  "\u2581presence": 3328,
  "\u2581disso": 3329,
  "\u2581reform": 3330,
  "\u2581montant": 3331,
  "33": 3332,
  "\u2581letter": 3333,
  "mas": 3334,
  "\u2581vita": 3335,
  "\u2581Comp": 3336,
  "\u2581dijo": 3337,
  "\u2581qualquer": 3338,
  "El": 3339,
  "\u2581Thanks": 3340,
  "\u2581answer": 3341,
  "\u258138": 3342,
  "\u2581proc\u00e9dure": 3343,
  "/2": 3344,
  "cro": 3345,
  "\u2581independent": 3346,
  "ham": 3347,
  "\u2581About": 3348,
  "05": 3349,
  "\u2581senza": 3350,
  "\u2581300": 3351,
  "\u2581Comme": 3352,
  "\u2581vertu": 3353,
  "\u2581n\u00e9cessaires": 3354,
  "\u2581build": 3355,
  "\u2581Secretariat": 3356,
  "1/": 3357,
  "\u2581atenci\u00f3n": 3358,
  "\u2581Plus": 3359,
  "\u2581Red": 3360,
  "\u2581entire": 3361,
  "cher": 3362,
  "\u2581markets": 3363,
  "\u2581choice": 3364,
  "\u2581podem": 3365,
  "\u25812004,": 3366,
  "\u2581delegation": 3367,
  "\u2581ville": 3368,
  "\u2581Ai": 3369,
  "\u2581effort": 3370,
  "\u2581views": 3371,
  "v\u00e9": 3372,
  "\u2581built": 3373,
  "\u2581certo": 3374,
  "\u2581sp\u00e9cial": 3375,
  "\u2581stand": 3376,
  "39": 3377,
  "\u2581Association": 3378,
  "\u2581factors": 3379,
  "\u2581substances": 3380,
  "cci\u00f3n": 3381,
  "\u2581lorsque": 3382,
  "\u2581Tambi\u00e9n": 3383,
  "07": 3384,
  "\u2581tenho": 3385,
  "\u2581Fo": 3386,
  "fici": 3387,
  "ize": 3388,
  "\u2581cr\u00e9ation": 3389,
  "\u2581c\u00f3mo": 3390,
  "\u2581wait": 3391,
  "\u2581carry": 3392,
  "ET": 3393,
  "\u2581shown": 3394,
  "\u2581establishing": 3395,
  "\u2581pressure": 3396,
  "stro": 3397,
  "\u2581cerca": 3398,
  "\u2581West": 3399,
  "\u2581tour": 3400,
  "iser": 3401,
  "\u2581became": 3402,
  "\u2581shows": 3403,
  "\u2581tale": 3404,
  "\u2581village": 3405,
  "gua": 3406,
  "\u2581People": 3407,
  "\u2581likely": 3408,
  "\u2581Nos": 3409,
  "\u2581Church": 3410,
  "\u2581laid": 3411,
  "\u2581Estou": 3412,
  "\u2581walk": 3413,
  "\u2581happy": 3414,
  "\u2581loss": 3415,
  "\u2581opera": 3416,
  "98": 3417,
  ".7": 3418,
  "EL": 3419,
  "\u2581frente": 3420,
  "\u2581Policy": 3421,
  "\u2581War": 3422,
  "\u2581probl\u00e8me": 3423,
  "\u2581r\u00e9union": 3424,
  "CI": 3425,
  "\u2581font": 3426,
  "\u2581guerra": 3427,
  "\u2581europeo": 3428,
  "\u2581black": 3429,
  "\u2581t\u00e3o": 3430,
  "\u2581surveillance": 3431,
  "\u2581class": 3432,
  "-2": 3433,
  "\u2581c\u00e2nd": 3434,
  "\u2581soutien": 3435,
  "val": 3436,
  "\u2581German": 3437,
  "\u2581locales": 3438,
  "\u2581Porque": 3439,
  "mm": 3440,
  "38": 3441,
  "\u2581initial": 3442,
  "\u2581eyes": 3443,
  "\u2581Forum": 3444,
  "\u2581mu": 3445,
  "AR": 3446,
  "\u2581seems": 3447,
  "\u2581victims": 3448,
  "49": 3449,
  "\u2581intended": 3450,
  "\u258139": 3451,
  "\u2581Right": 3452,
  "37": 3453,
  "\u2581Cha": 3454,
  "\u2581Support": 3455,
  "tel": 3456,
  "\u2581seja": 3457,
  "\u2581myself": 3458,
  "day": 3459,
  "\u2581sommes": 3460,
  "\u2581mare": 3461,
  "\u2581daily": 3462,
  "let": 3463,
  "\u2581clearly": 3464,
  "\u2581Sud": 3465,
  "ui": 3466,
  "\u2581tine": 3467,
  "\u25812019": 3468,
  "\u2581strengthen": 3469,
  "\u2581Entre": 3470,
  "\u2581probably": 3471,
  "\u2581campo": 3472,
  "OR": 3473,
  "\u2581prior": 3474,
  "\u2581Va": 3475,
  "4/": 3476,
  "\u2581hacia": 3477,
  "\u258142": 3478,
  "\u2581poate": 3479,
  "\u2581hombre": 3480,
  "\u2581follows": 3481,
  "ques": 3482,
  "\u2581septembre": 3483,
  "\u2581zones": 3484,
  "\u2581Sal": 3485,
  "\u2581acts": 3486,
  "ng": 3487,
  "\u2581trust": 3488,
  "ring": 3489,
  "\u2581led": 3490,
  "\u2581regime": 3491,
  "\u2581hell": 3492,
  "\u2581==": 3493,
  "ot": 3494,
  "\u2581miles": 3495,
  "06": 3496,
  "\u2581circumstances": 3497,
  "\u2581medida": 3498,
  "2.": 3499,
  "\u2581produced": 3500,
  "c\u00e9": 3501,
  "\u2581comments": 3502,
  "\u2581Bem": 3503,
  "\u2581Ru": 3504,
  "vel": 3505,
  "\u2581maybe": 3506,
  "\u2581Nord": 3507,
  "\u2581door": 3508,
  "\u2581Comment": 3509,
  "\u2581exercise": 3510,
  "\u2581processes": 3511,
  "\u2581accord": 3512,
  "\u2581processo": 3513,
  "\u2581donne": 3514,
  "\u2581d\u00e9penses": 3515,
  "\u2581pal": 3516,
  "\u2581regulations": 3517,
  "\u2581assurer": 3518,
  "\u015fi": 3519,
  "OS": 3520,
  "\u2581bom": 3521,
  "\u2581cuesti\u00f3n": 3522,
  "\u2581map": 3523,
  "\u2581committed": 3524,
  "\u2581increasing": 3525,
  "\u2581COM": 3526,
  "\u2581moyens": 3527,
  "\u2581produce": 3528,
  "ification": 3529,
  "\u2581cos\u00ec": 3530,
  "ish": 3531,
  "pu": 3532,
  "lle": 3533,
  "\u2581story": 3534,
  "izar": 3535,
  "\u2581devraient": 3536,
  "\u2581export": 3537,
  "ple": 3538,
  "\u2581option": 3539,
  "\u2581juste": 3540,
  "\u2581sotto": 3541,
  "SE": 3542,
  "\u2581pla": 3543,
  "\u2581conclusions": 3544,
  "\u25812003,": 3545,
  "ggio": 3546,
  "Al": 3547,
  "\u2581ven": 3548,
  "\u2581ensemble": 3549,
  "apr\u00e8s": 3550,
  "\u2581Seguridad": 3551,
  "\u2581risque": 3552,
  "\u2581Bible": 3553,
  "\u2581implementing": 3554,
  "\u2581strategic": 3555,
  "\u2581s\u00ed": 3556,
  "\u2581primer": 3557,
  "\u2581missions": 3558,
  "\u2581esos": 3559,
  "\u2581\u00e9l\u00e9ments": 3560,
  "\u2581manner": 3561,
  "\u2581App": 3562,
  "\u25812007,": 3563,
  "\u2581measure": 3564,
  "AM": 3565,
  "\u2581octobre": 3566,
  "\u2581cut": 3567,
  "ico": 3568,
  "\u2581armas": 3569,
  "\u25812000,": 3570,
  "\u2581net": 3571,
  "\u2581whom": 3572,
  "\u2581traditional": 3573,
  "IN": 3574,
  "\u2581contribute": 3575,
  "\u2581vehicle": 3576,
  "\u2581encourage": 3577,
  "\u2581external": 3578,
  "\u2581sectors": 3579,
  "\u2581van": 3580,
  "\u2581Division": 3581,
  "\u2581possono": 3582,
  "\u2581quatre": 3583,
  "\u2581remains": 3584,
  "ola": 3585,
  "97": 3586,
  "\u2581combat": 3587,
  "\u2581majority": 3588,
  "\u2581climate": 3589,
  "\u2581TO": 3590,
  "gas": 3591,
  "\u2581Cap": 3592,
  "\u2581function": 3593,
  "\u2581podr\u00eda": 3594,
  "\u2581thinking": 3595,
  "\u2581Constitution": 3596,
  "\u2581stated": 3597,
  "\u2581quem": 3598,
  "\u2581oeuvre": 3599,
  "\u2581CON": 3600,
  "\u2581amended": 3601,
  "\u2581allowed": 3602,
  "\u2581avaient": 3603,
  "\u0163ie": 3604,
  "\u2581Under": 3605,
  "\u2581ju": 3606,
  ".6": 3607,
  "\u2581Data": 3608,
  "\u2581ceva": 3609,
  "\u2581sorte": 3610,
  "don": 3611,
  "75": 3612,
  "\u2581Federal": 3613,
  "\u2581supported": 3614,
  "\u2581Ge": 3615,
  "\u2581Executive": 3616,
  "\u2581fins": 3617,
  "\u2581nelle": 3618,
  "\u2581format": 3619,
  "\u2581apartado": 3620,
  "Pro": 3621,
  "\u2581propose": 3622,
  "\u2581choose": 3623,
  "\u2581stata": 3624,
  "\u2581port": 3625,
  "\u2581decide": 3626,
  "\u2581Read": 3627,
  "\u2581minute": 3628,
  "n\u00e9": 3629,
  "\u2581Spanish": 3630,
  "\u2581rien": 3631,
  "pon": 3632,
  "nda": 3633,
  "\u2581haut": 3634,
  "92": 3635,
  "\u2581devant": 3636,
  "ps": 3637,
  "ris": 3638,
  "\u2581wide": 3639,
  "remos": 3640,
  "lha": 3641,
  "\u2581popular": 3642,
  "ani": 3643,
  "\u2581humanitarian": 3644,
  "\u2581transition": 3645,
  "\u2581falta": 3646,
  "\u2581photos": 3647,
  "\u2581permet": 3648,
  "\u2581VI": 3649,
  "65": 3650,
  "48": 3651,
  "`": 3652,
  "\u2581mentioned": 3653,
  "\u2581description": 3654,
  "36": 3655,
  "\u2581motor": 3656,
  "environnement": 3657,
  "\u2581institution": 3658,
  "\u2581diff\u00e9rents": 3659,
  "\u2581est\u00e1s": 3660,
  "\u2581ciudad": 3661,
  "\u2581poor": 3662,
  "\u2581granted": 3663,
  "\u25816,": 3664,
  "\u2581hommes": 3665,
  "\u2581anexo": 3666,
  "\u2581Assembl\u00e9e": 3667,
  "\u2581ones": 3668,
  "\u2581weapons": 3669,
  "\u2581\u00e9tant": 3670,
  "\u2581aider": 3671,
  "\u2581competent": 3672,
  "\u2581spirit": 3673,
  "\u2581decisi\u00f3n": 3674,
  "\u2581sal": 3675,
  "\u2581acerca": 3676,
  "\u2581sign": 3677,
  "\u2581noite": 3678,
  "mica": 3679,
  "\u2581affected": 3680,
  "\u2581drug": 3681,
  "g\u00e9": 3682,
  "\u2581serie": 3683,
  "\u2581concerns": 3684,
  "\u2581Having": 3685,
  "\u2581earth": 3686,
  "\u2581prison": 3687,
  "bus": 3688,
  "\u2581d\u00e9but": 3689,
  "\u2581fournir": 3690,
  "\u2581alto": 3691,
  "\u25812002,": 3692,
  "\u258155": 3693,
  "Europe": 3694,
  "\u2581muchos": 3695,
  "3/": 3696,
  "\u2581although": 3697,
  "\u2581Global": 3698,
  "\u2581fiscal": 3699,
  "\u2581success": 3700,
  "\u2581occasion": 3701,
  "\u2581compared": 3702,
  "\u2581\u00e9conomiques": 3703,
  "\u2581Pu": 3704,
  "ario": 3705,
  "lia": 3706,
  "\u2581calls": 3707,
  "\u2581Derechos": 3708,
  "94": 3709,
  "\u2581lutte": 3710,
  "\u2581Esto": 3711,
  "\u2581Ven": 3712,
  "\u2581aide": 3713,
  "\u2581Centro": 3714,
  "\u2581agua": 3715,
  "\u2581cer": 3716,
  "\u2581drive": 3717,
  "\u2581floor": 3718,
  "\u2581(1": 3719,
  "\u2581Facebook": 3720,
  "ec": 3721,
  "Me": 3722,
  "ice": 3723,
  "\u2581indicated": 3724,
  "\u2581Dio": 3725,
  "\u2581vision": 3726,
  "\u2581entry": 3727,
  "Se": 3728,
  "\u2581waste": 3729,
  "2/": 3730,
  "Unione": 3731,
  "\u2581mandat": 3732,
  "\u2581billion": 3733,
  "ales": 3734,
  "\u2581giving": 3735,
  "\u2581integration": 3736,
  "\u2581brother": 3737,
  "\u2581allows": 3738,
  "\u2581Amarillas": 3739,
  "bla": 3740,
  "\u2581Est": 3741,
  "\u258165": 3742,
  "\u25811992": 3743,
  "isme": 3744,
  "\u2581pratiques": 3745,
  "\u2581followed": 3746,
  "\u2581Hay": 3747,
  "6/": 3748,
  "\u2581programs": 3749,
  "\u2581conduct": 3750,
  "\u2581Fe": 3751,
  "\u2581Sol": 3752,
  "8/": 3753,
  "\u2581route": 3754,
  "xi": 3755,
  "\u2581trop": 3756,
  "\u2581wouldn": 3757,
  "tan": 3758,
  "\u2581judicial": 3759,
  "\u2581renforcer": 3760,
  "\u2581Villa": 3761,
  "\u2581doar": 3762,
  "\u2581deuxi\u00e8me": 3763,
  "\u2581requests": 3764,
  "iza": 3765,
  "\u2581Rome": 3766,
  "ren": 3767,
  "UN": 3768,
  "\u258175": 3769,
  "lica": 3770,
  "ial": 3771,
  "\u2581unit": 3772,
  "\u2581formal": 3773,
  "\u2581Russian": 3774,
  "\u2581machine": 3775,
  "\u2581nombreux": 3776,
  "\u2581images": 3777,
  "\u2581ano": 3778,
  "istas": 3779,
  "rra": 3780,
  "\u2581faith": 3781,
  "\u2581primary": 3782,
  "\u2581\u00c8": 3783,
  "\u2581described": 3784,
  "vir": 3785,
  "\u2581comp": 3786,
  "\u2581Gar": 3787,
  "\u2581ben": 3788,
  "ative": 3789,
  "\u2581aim": 3790,
  "bles": 3791,
  "\u2581Bra": 3792,
  "ens": 3793,
  "\u2581conducted": 3794,
  "ville": 3795,
  "\u2581tot": 3796,
  "\u2581happen": 3797,
  "s\u00e3o": 3798,
  "\u2581Uh": 3799,
  "\u2581fall": 3800,
  "\u2581thanks": 3801,
  "-3": 3802,
  "vent": 3803,
  "\u2581dopo": 3804,
  "\u2581investigation": 3805,
  "\u2581patient": 3806,
  "\u2581scientific": 3807,
  "\u2581mandate": 3808,
  "\u2581internationales": 3809,
  "\u2581import": 3810,
  "\u2581ideal": 3811,
  "\u2581Italian": 3812,
  "\u2581determined": 3813,
  "\u2581avoid": 3814,
  "\u2581trav\u00e9s": 3815,
  "\u2581Cuba": 3816,
  "ov": 3817,
  "gon": 3818,
  "\u2581reste": 3819,
  "TM": 3820,
  "ning": 3821,
  "\u2581style": 3822,
  "\u2581vu": 3823,
  "\u2581s\u00e9rie": 3824,
  "\u2581contains": 3825,
  "\u2581gone": 3826,
  "5/": 3827,
  "\u2581cinq": 3828,
  "44": 3829,
  "\u2581buy": 3830,
  "\u2581prove": 3831,
  "\u2581features": 3832,
  "\u2581conclusion": 3833,
  "\u2581continua": 3834,
  "\u2581normes": 3835,
  "\u2581objetivos": 3836,
  "n\u0103": 3837,
  "\u2581center": 3838,
  "\u2581Programa": 3839,
  "\u2581recommandations": 3840,
  "\u2581parce": 3841,
  "\u2581ficar": 3842,
  "\u2581mechanisms": 3843,
  "\u2581p\u00e9": 3844,
  "\u258143": 3845,
  "ful": 3846,
  "\u2581interior": 3847,
  "\u2581Cuando": 3848,
  "ries": 3849,
  "\u2581implemented": 3850,
  "llo": 3851,
  "\u2581enable": 3852,
  "7/": 3853,
  "tru": 3854,
  "\u2581Although": 3855,
  "\u2581maintenance": 3856,
  "\u2581celles": 3857,
  "\u2581partner": 3858,
  "\u2581bus": 3859,
  "\u2581Sch": 3860,
  "\u2581achieved": 3861,
  "\u2581schools": 3862,
  "\u2581trebui": 3863,
  "\u2581Sono": 3864,
  "\u2581immediately": 3865,
  "\u2581operating": 3866,
  "\u2581l\u00ednea": 3867,
  "\u2581quelque": 3868,
  "\u2581domaines": 3869,
  "\u2581::": 3870,
  "\u2581aupr\u00e8s": 3871,
  "We": 3872,
  "p\u00e9": 3873,
  "ann\u00e9e": 3874,
  "\u2581p\u00fablico": 3875,
  "\u2581fu": 3876,
  "77": 3877,
  "\u2581Even": 3878,
  "nta": 3879,
  "\u2581HIV": 3880,
  "\u2581Have": 3881,
  "\u2581origin": 3882,
  "04": 3883,
  "\u2581approval": 3884,
  "\u2581guidelines": 3885,
  "\u2581Park": 3886,
  "\u2581informed": 3887,
  "\u25812008,": 3888,
  "\u2581couple": 3889,
  "\u2581souvent": 3890,
  "\u2581pain": 3891,
  "\u2581fuera": 3892,
  "\u2581op\u00e9rations": 3893,
  "\u2581detailed": 3894,
  "\u2581informazioni": 3895,
  "\u2581responsabilidad": 3896,
  "\u2581despre": 3897,
  "\u0163ii": 3898,
  "\u2581jobs": 3899,
  "\u2581goes": 3900,
  "\u2581quoi": 3901,
  "\u2581vis": 3902,
  "\u2581Mrs": 3903,
  "67": 3904,
  "our": 3905,
  "\u2581plant": 3906,
  "\u2581agents": 3907,
  "vie": 3908,
  "ea": 3909,
  "ph": 3910,
  "\u2581veux": 3911,
  "\u2581suivi": 3912,
  "\u2581bonne": 3913,
  "\u2581Sta": 3914,
  "\u2581dernier": 3915,
  "\u2581extent": 3916,
  "nel": 3917,
  "\u2581influence": 3918,
  "\u2581\u00e1rea": 3919,
  "\u2581worked": 3920,
  "\u25818.": 3921,
  "ium": 3922,
  "\u2581die": 3923,
  "\u2581Jean": 3924,
  "ag": 3925,
  "\u2581min": 3926,
  "\u2581viene": 3927,
  "ser": 3928,
  "ek": 3929,
  "ual": 3930,
  "\u2581sort": 3931,
  "\u2581method": 3932,
  "\u2581mobile": 3933,
  "\u2581r\u00e9gions": 3934,
  "\u2581Italia": 3935,
  "93": 3936,
  "\u2581quel": 3937,
  "\u2581reviews": 3938,
  "\u2581documento": 3939,
  "\u2581nota": 3940,
  "\u2581files": 3941,
  "IM": 3942,
  "08": 3943,
  "\u2581aimed": 3944,
  "\u2581Questo": 3945,
  "\u2581nuestros": 3946,
  "\u2581familia": 3947,
  "\u2581save": 3948,
  "\u2581employees": 3949,
  "\u2581welcome": 3950,
  "\u2581agree": 3951,
  "\u2581mode": 3952,
  "\u2581corre": 3953,
  "\u2581\u00e9gard": 3954,
  "\u2581demand\u00e9": 3955,
  "\u2581maison": 3956,
  "rlo": 3957,
  "ori": 3958,
  "\u2581demand": 3959,
  "\u2581operational": 3960,
  "\u2581System": 3961,
  "\u2581facilitate": 3962,
  "nze": 3963,
  "\u2581financing": 3964,
  "\u2581nor": 3965,
  "\u2581interested": 3966,
  "\u2581obligation": 3967,
  "\u2581io": 3968,
  "\u2581pare": 3969,
  ".8": 3970,
  "yer": 3971,
  "\u2581gesti\u00f3n": 3972,
  "ghe": 3973,
  "41": 3974,
  "2)": 3975,
  "\u2581Take": 3976,
  "\u2581sex": 3977,
  "\u2581especialmente": 3978,
  "02": 3979,
  "\u2581Directiva": 3980,
  "\u2581seguir": 3981,
  "\u2581pouco": 3982,
  "\u2581Tre": 3983,
  "\u2581Conferencia": 3984,
  "\u20ac": 3985,
  "glia": 3986,
  "\u2581pen": 3987,
  "\u2581Regional": 3988,
  "\u2581m\u00ed": 3989,
  "\u25812001,": 3990,
  "\u2581participate": 3991,
  "\u2581Ms": 3992,
  "\u2581pretty": 3993,
  "\u2581prevention": 3994,
  "IP": 3995,
  "\u2581falar": 3996,
  "\u2581perch\u00e9": 3997,
  "\u2581Peter": 3998,
  "\u2581determine": 3999,
  "\u2581avril": 4000,
  "tif": 4001,
  "\u2581Roma": 4002,
  "Add": 4003,
  "way": 4004,
  "\u2581negotiations": 4005,
  "\u2581animals": 4006,
  "\u2581Communaut\u00e9": 4007,
  "dic": 4008,
  "\u2581poli": 4009,
  "\u2581permis": 4010,
  "\u2581f\u00e9vrier": 4011,
  "\u2581Trade": 4012,
  "\u2581Will": 4013,
  "\u2581suit": 4014,
  "mina": 4015,
  "ID": 4016,
  "\u2581limit": 4017,
  "\u2581digital": 4018,
  "\u2581persone": 4019,
  "66": 4020,
  "\u2581fish": 4021,
  "\u2581reached": 4022,
  "\u2581mundial": 4023,
  "\u2581proposition": 4024,
  "\u2581carte": 4025,
  "\u2581structures": 4026,
  "\u2581seven": 4027,
  "\u2581Casa": 4028,
  "\u2581compliance": 4029,
  ":00": 4030,
  "\u2581province": 4031,
  "\u2581tele": 4032,
  "ME": 4033,
  "\u2581gr\u00e2ce": 4034,
  "\u2581vir": 4035,
  "\u2581watch": 4036,
  "\u2581requires": 4037,
  "\u258149": 4038,
  "\u2581boy": 4039,
  "\u2581entra": 4040,
  "\u2581necesario": 4041,
  "\u2581completed": 4042,
  "\u2581qual": 4043,
  "cip": 4044,
  "\u2581r\u00e8gles": 4045,
  "78": 4046,
  "\u2581Like": 4047,
  "\u2581urban": 4048,
  "\u2581toi": 4049,
  "ador": 4050,
  "\u2581Australia": 4051,
  "AN": 4052,
  "bro": 4053,
  "\u2581croissance": 4054,
  "\u2581Protection": 4055,
  "\u2581duty": 4056,
  "To": 4057,
  "pin": 4058,
  "tent": 4059,
  "\u2581veces": 4060,
  "\u2581science": 4061,
  "\u2581vigueur": 4062,
  "\u258147": 4063,
  "\u2581permite": 4064,
  "\u2581Mu": 4065,
  "\u2581fac": 4066,
  "ny": 4067,
  "\u2581Fer": 4068,
  "\u2581acordo": 4069,
  "\u2581eux": 4070,
  "\u2581integrated": 4071,
  "\u2581tools": 4072,
  "\u2581distance": 4073,
  "\u2581proyectos": 4074,
  "\u2581units": 4075,
  "ables": 4076,
  "\u2581bene": 4077,
  "\u2581disponible": 4078,
  "\u2581sistemas": 4079,
  "ATION": 4080,
  "\u2581correct": 4081,
  "\u2581beyond": 4082,
  "\u2581am\u00e9liorer": 4083,
  "\u2581violations": 4084,
  "\u2581As\u00ed": 4085,
  "\u2581medium": 4086,
  "\u2581ability": 4087,
  "\u2581gives": 4088,
  "\u2581cycle": 4089,
  "\u258144": 4090,
  "CH": 4091,
  "\u2581autor": 4092,
  "nto": 4093,
  "adas": 4094,
  "\u2581\u00fanico": 4095,
  "nas": 4096,
  "\u2581\u00a9": 4097,
  "\u2581frais": 4098,
  "\u2581delivery": 4099,
  "int": 4100,
  "\u2581ideas": 4101,
  "lli": 4102,
  "\u2581realmente": 4103,
  "enza": 4104,
  "(1)": 4105,
  "\u2581ab": 4106,
  "\u2581observations": 4107,
  "\u2581d\u00e9cisions": 4108,
  "1,": 4109,
  "\u2581Tratado": 4110,
  "\u2581eat": 4111,
  "rmi": 4112,
  "volu": 4113,
  "\u2581verdade": 4114,
  "\u2581quero": 4115,
  "\u25817,": 4116,
  "\u2581Day": 4117,
  "\u2581pension": 4118,
  "\u2581download": 4119,
  "\u2581outro": 4120,
  "\u2581nueva": 4121,
  "\u2581reduced": 4122,
  "\u2581siguiente": 4123,
  "46": 4124,
  "\u2581faz": 4125,
  "\u2581Articles": 4126,
  "mor": 4127,
  "accord": 4128,
  "\u2581exactly": 4129,
  "\u2581completa": 4130,
  "\u2581secret": 4131,
  "\u2581Tem": 4132,
  "amo": 4133,
  "\u2581profit": 4134,
  "\u2581Declaration": 4135,
  "\u2581im": 4136,
  "\u2581nationales": 4137,
  "\u2581complex": 4138,
  "\u2581acum": 4139,
  "\u2581pacientes": 4140,
  "ities": 4141,
  "\u2581began": 4142,
  "59": 4143,
  "\u2581dai": 4144,
  "\u2581cambio": 4145,
  "\u2581tinha": 4146,
  "\u2581arma": 4147,
  "\u2581conference": 4148,
  "UL": 4149,
  "\u2581link": 4150,
  "\u2581acc\u00e8s": 4151,
  "\u2581lit": 4152,
  "\u2581cinco": 4153,
  "\u2581pertinentes": 4154,
  "\u2581intra": 4155,
  "\u2581discussions": 4156,
  "\u2581fair": 4157,
  "\u2581r\u00e9f\u00e9rence": 4158,
  "\u2581disposiciones": 4159,
  "zio": 4160,
  "\u2581communaut\u00e9": 4161,
  "Pa": 4162,
  "\u2581extension": 4163,
  "\u2581effets": 4164,
  "\u2581accept": 4165,
  "\u2581\u00eates": 4166,
  "\u2581identify": 4167,
  "\u2581functions": 4168,
  "\u258146": 4169,
  "\u2581religious": 4170,
  "\u2581knows": 4171,
  "\u2581ent\u00e3o": 4172,
  "\u2581num": 4173,
  "\u2581Two": 4174,
  "\u2581Mer": 4175,
  "09": 4176,
  "\u2581adopt\u00e9": 4177,
  "\u2581Bal": 4178,
  "\u2581detto": 4179,
  "\u2581hour": 4180,
  "CC": 4181,
  "rci": 4182,
  "\u2581alternative": 4183,
  "\u2581aujourd": 4184,
  "\u2581porte": 4185,
  "eurs": 4186,
  "ade": 4187,
  "\u2581Christian": 4188,
  "\u2581electronic": 4189,
  "ctor": 4190,
  "ensemble": 4191,
  "\u2581ensuring": 4192,
  "\u2581estoy": 4193,
  "\u2581servicio": 4194,
  "\u2581client": 4195,
  "\u2581internet": 4196,
  "\u2581ley": 4197,
  "\u2581foto": 4198,
  "\u2581uses": 4199,
  "\u2581[...]": 4200,
  "\u2581Nacional": 4201,
  "\u2581scope": 4202,
  "\u2581aucune": 4203,
  "\u2581coisas": 4204,
  "pan": 4205,
  "\u2581acest": 4206,
  "\u2581prises": 4207,
  "\u2581Bre": 4208,
  "\u2581servir": 4209,
  "\u2581Page": 4210,
  "\u2581amendments": 4211,
  "\u2581esas": 4212,
  "\u2581seg\u00fan": 4213,
  "\u2581simply": 4214,
  "gia": 4215,
  "ator": 4216,
  "\u2581poblaci\u00f3n": 4217,
  "\u2581Therefore": 4218,
  "\u2581recently": 4219,
  "\u2581guarantee": 4220,
  "cla": 4221,
  "\u2581Art\u00edculo": 4222,
  "68": 4223,
  "\u2581universal": 4224,
  "\u2581tutte": 4225,
  "\u2581quali": 4226,
  "\u2581contenu": 4227,
  "\u2581precisa": 4228,
  "\u2581factor": 4229,
  "\u2581Gra": 4230,
  "\u2581hair": 4231,
  "\u2581ordre": 4232,
  "ping": 4233,
  "\u2581educaci\u00f3n": 4234,
  "iamo": 4235,
  "\u2581PRO": 4236,
  "\u2581strategies": 4237,
  "\u2581leading": 4238,
  "\u2581possibility": 4239,
  "\u25818,": 4240,
  "wi": 4241,
  "\u2581board": 4242,
  "\u2581bas": 4243,
  "\u2581mia": 4244,
  "\u2581organized": 4245,
  "\u2581hi": 4246,
  "\u0103rii": 4247,
  "esc": 4248,
  "\u00e1rio": 4249,
  "mont": 4250,
  "\u2581primeiro": 4251,
  "air": 4252,
  "\u2581civile": 4253,
  "\u2581Part": 4254,
  "\u258185": 4255,
  "\u258152": 4256,
  "\u2581Gi": 4257,
  "\u2581junio": 4258,
  "85": 4259,
  "\u2581offered": 4260,
  "nder": 4261,
  "\u2581Father": 4262,
  "\u2581lu": 4263,
  "\u2581fueron": 4264,
  "\u2581View": 4265,
  "\u2581n\u00e9": 4266,
  "\u2581Sea": 4267,
  "\u2581terra": 4268,
  "\u2581corpo": 4269,
  "ft": 4270,
  "\u2581break": 4271,
  "\u2581mondial": 4272,
  "\u2581depois": 4273,
  "\u2581proceedings": 4274,
  "\u2581tarde": 4275,
  "\u2581died": 4276,
  "\u2581Desarrollo": 4277,
  "\u2581torture": 4278,
  "\u2581insurance": 4279,
  "\u2581awareness": 4280,
  "\u2581Especial": 4281,
  "\u2581nosso": 4282,
  "\u2581vehicles": 4283,
  "43": 4284,
  "\u2581Za": 4285,
  "yl": 4286,
  "\u2581Bu": 4287,
  "EM": 4288,
  "\u00e8re": 4289,
  "tant": 4290,
  "\u2581Pan": 4291,
  "\u2581caused": 4292,
  "\u2581plazo": 4293,
  "\u2581cabo": 4294,
  "\u2581haven": 4295,
  "\u2581Sam": 4296,
  "\u2581hot": 4297,
  "\u2581Ah": 4298,
  "\u2581Any": 4299,
  "\u2581fast": 4300,
  "eaz\u0103": 4301,
  "fect": 4302,
  "mis": 4303,
  "\u2581sociedad": 4304,
  "\u2581spus": 4305,
  "\u2581Cristo": 4306,
  "\u2581repr\u00e9sentants": 4307,
  "\u2581cancer": 4308,
  "It": 4309,
  "qu": 4310,
  "\u2581participaci\u00f3n": 4311,
  "\u2581orden": 4312,
  "pul": 4313,
  "\u2581homem": 4314,
  "\u2581\u00faltimo": 4315,
  "\u2581presenta": 4316,
  "\u2581Journal": 4317,
  "\u2581familiar": 4318,
  "\u2581regards": 4319,
  "\u2581signed": 4320,
  "\u2581transporte": 4321,
  "\u2581mejorar": 4322,
  "\u2581semana": 4323,
  "\u2581setting": 4324,
  "\u2581skills": 4325,
  "\u2581obtained": 4326,
  "\u2581Todos": 4327,
  "\u2581l\u00e9gislation": 4328,
  "\u00bb,": 4329,
  "\u2581texte": 4330,
  "\u2581introduced": 4331,
  "-4": 4332,
  "form": 4333,
  "\u2581mor": 4334,
  "\u2581forte": 4335,
  "ette": 4336,
  "\u2581vais": 4337,
  "antes": 4338,
  "ker": 4339,
  "\u2581Bueno": 4340,
  "\u2581passe": 4341,
  "\u2581aumentar": 4342,
  "\u2581Ei": 4343,
  "3,": 4344,
  "\u2581investigaci\u00f3n": 4345,
  "03": 4346,
  "\u258151": 4347,
  "\u2581Such": 4348,
  "cca": 4349,
  "\u25819.": 4350,
  "\u00fc": 4351,
  "\u2581Barcelona": 4352,
  "gado": 4353,
  "\u2581deber\u00eda": 4354,
  "\u2581d\u00e9claration": 4355,
  "\u2581comprend": 4356,
  "\u2581pr\u00e9sident": 4357,
  "\u2581submit": 4358,
  "ations": 4359,
  "\u2581capacit\u00e9": 4360,
  "\u2581user": 4361,
  "\u2581placed": 4362,
  "\u2581150": 4363,
  "\u258141": 4364,
  "\u2581fino": 4365,
  "MA": 4366,
  "\u2581provisional": 4367,
  "\u2581RE": 4368,
  "\u00e1vel": 4369,
  "\u2581comit\u00e9": 4370,
  "\u2581except": 4371,
  "\u2581pratique": 4372,
  "\u2581crimes": 4373,
  "\u2581Argentina": 4374,
  "berg": 4375,
  "CA": 4376,
  "\u2581Official": 4377,
  "\u2581Also": 4378,
  "\u2581wanna": 4379,
  "dra": 4380,
  "mbre": 4381,
  "\u2581assist": 4382,
  "\u2581mondo": 4383,
  "\u2581male": 4384,
  "\u2581adequate": 4385,
  "\u2581tels": 4386,
  "\u2581w": 4387,
  "\u2581mano": 4388,
  "\u2581Most": 4389,
  "42": 4390,
  "\u2581committee": 4391,
  "\u2581born": 4392,
  "\u2581Grand": 4393,
  "\u2581Vol": 4394,
  "\u2581Se\u00f1or": 4395,
  "\u2581maintain": 4396,
  "\u2581populations": 4397,
  "\u2581av": 4398,
  "\u2581youth": 4399,
  "\u2581prend": 4400,
  "\u2581necesidad": 4401,
  "\u2581diff\u00e9rentes": 4402,
  "\u2581padre": 4403,
  "\u2581usar": 4404,
  "\u2581pat": 4405,
  "\u2581progr\u00e8s": 4406,
  "\u2581trouver": 4407,
  "\u2581religion": 4408,
  "\u2581sui": 4409,
  "\u25819,": 4410,
  "\u2581principio": 4411,
  "\u2581pr\u00e8s": 4412,
  "\u2581promoting": 4413,
  "\u2581nostro": 4414,
  "dire": 4415,
  "\u2581sport": 4416,
  "\u2581specified": 4417,
  "89": 4418,
  "ffi": 4419,
  "SC": 4420,
  "\u2581giorno": 4421,
  "\u2581Great": 4422,
  "oc": 4423,
  "\u2581Trans": 4424,
  "off": 4425,
  "\u2581usually": 4426,
  "\u2581mort": 4427,
  "\u2581Uma": 4428,
  "\u2581contro": 4429,
  "\u2581proc\u00e9dures": 4430,
  "\u2581dados": 4431,
  "\u2581aucun": 4432,
  "RE": 4433,
  "\u2581marca": 4434,
  "\u258154": 4435,
  "\u2581mental": 4436,
  "\u2581Costa": 4437,
  "\u2581completely": 4438,
  "\u2581armed": 4439,
  "\u2581collective": 4440,
  "\u2581Mor": 4441,
  "\u2581gens": 4442,
  "\u2581exist": 4443,
  "56": 4444,
  "\u2581Only": 4445,
  "tt": 4446,
  "lic": 4447,
  "\u2581consumption": 4448,
  "\u2581ello": 4449,
  "\u2581husband": 4450,
  "\u2581vas": 4451,
  "\u2581minutos": 4452,
  "isti": 4453,
  "\u2581camera": 4454,
  "\u2581listed": 4455,
  "\u2581separate": 4456,
  "\u2581bank": 4457,
  "\u2581maior": 4458,
  "(2)": 4459,
  "\u2581tomorrow": 4460,
  "\u2581resolutions": 4461,
  "\u2581jo": 4462,
  "\u2581fruit": 4463,
  "87": 4464,
  "\u2581\u00e9tat": 4465,
  "\u2581audit": 4466,
  "\u2581metal": 4467,
  "ora": 4468,
  "\u2581R\u00e8glement": 4469,
  "\u2581casi": 4470,
  "\u2581ei": 4471,
  "mine": 4472,
  "\u2581listen": 4473,
  "\u2581Era": 4474,
  "\u2581Open": 4475,
  "\u2581\u00faltima": 4476,
  "\u2581marzo": 4477,
  "\u2581nations": 4478,
  "\u2581pool": 4479,
  "\u2581Mundial": 4480,
  "uff": 4481,
  "\u2581femme": 4482,
  "\u00edn": 4483,
  "\u2581highly": 4484,
  "\u2581useful": 4485,
  "\u2581Har": 4486,
  "\u2581Use": 4487,
  "\u2581ani": 4488,
  "\u2581British": 4489,
  "\u2581puedo": 4490,
  "\u2581selection": 4491,
  "\u2581aware": 4492,
  "\u2581excellent": 4493,
  "\u2581learning": 4494,
  "\u2581strengthening": 4495,
  "\u2581trip": 4496,
  "\u2581Rapport": 4497,
  "100": 4498,
  "\u2581Children": 4499,
  "\u2581risques": 4500,
  "\u2581fond": 4501,
  "\u2581questi": 4502,
  "\u2581kids": 4503,
  "\u2581CD": 4504,
  "\u2581incluso": 4505,
  "mu": 4506,
  "\u2581lei": 4507,
  "\u2581fishing": 4508,
  "cus": 4509,
  "\u2581Institute": 4510,
  "\u2581Europeia": 4511,
  "\u2581relativo": 4512,
  "\u2581(19": 4513,
  "\u2581f\u0103cut": 4514,
  "\u2581Senhor": 4515,
  "\u2581comunidad": 4516,
  "\u2581writing": 4517,
  "\u2581ministre": 4518,
  "\u2581Maria": 4519,
  "\u2581guess": 4520,
  "\u2581pesca": 4521,
  "lique": 4522,
  "\u2581efficace": 4523,
  "\u2581Pen": 4524,
  "\u2581skin": 4525,
  "\u2581select": 4526,
  "\u2581apartment": 4527,
  "\u2581Vo": 4528,
  "\u2581tool": 4529,
  "rios": 4530,
  "\u2581v\u0103": 4531,
  "\u015f": 4532,
  "\u2581largo": 4533,
  "\u2581preparation": 4534,
  "\u2581expert": 4535,
  "\u2581luz": 4536,
  "\u2581(3)": 4537,
  "\u2581lhe": 4538,
  "\u2581menu": 4539,
  "\u2581Those": 4540,
  "\u2581Program": 4541,
  "ches": 4542,
  "\u2581languages": 4543,
  "\u2581siguientes": 4544,
  "\u2581commission": 4545,
  "\u2581Mme": 4546,
  "\u2581director": 4547,
  "\u2581utilizar": 4548,
  "plo": 4549,
  "\u2581r\u00e9gime": 4550,
  "\u2581positions": 4551,
  "ose": 4552,
  "moi": 4553,
  "\u2581Brazil": 4554,
  "\u2581Men": 4555,
  "\u2581sometimes": 4556,
  "\u2581Each": 4557,
  "rii": 4558,
  "\u2581advice": 4559,
  "SI": 4560,
  "iza\u00e7\u00e3o": 4561,
  "non": 4562,
  "\u2581realizar": 4563,
  "\u2581Business": 4564,
  "\u2581meaning": 4565,
  "\u25812009,": 4566,
  "\u2581kg": 4567,
  "\u2581bureau": 4568,
  "mul": 4569,
  "hu": 4570,
  "iendo": 4571,
  "\u2581Minist\u00e8re": 4572,
  "\u2581putea": 4573,
  "acc\u00e8s": 4574,
  "\u2581a\u015fa": 4575,
  "\u2581puis": 4576,
  "lect": 4577,
  "\u2581Qu\u00e9bec": 4578,
  "\u2581speed": 4579,
  "\u2581ac": 4580,
  "\u2581Am\u00e9rica": 4581,
  "\u2581permettre": 4582,
  "\u2581regulation": 4583,
  "\u2581tribunal": 4584,
  "\u2581nem": 4585,
  "\u2581wine": 4586,
  "\u2581press": 4587,
  "\u2581latest": 4588,
  "\u2581changed": 4589,
  "\u2581nationaux": 4590,
  "\u2581misma": 4591,
  "\u2581efficiency": 4592,
  "\u2581tests": 4593,
  "\u2581innovation": 4594,
  "\u00e3": 4595,
  "\u2581r\u00e9seau": 4596,
  "\u2581cart": 4597,
  "\u2581tried": 4598,
  "tine": 4599,
  "\u2581Many": 4600,
  "\u2581vor": 4601,
  "\u2581principes": 4602,
  "\u2581Control": 4603,
  "64": 4604,
  "\u258156": 4605,
  "\u2581absence": 4606,
  "\u2581Oficina": 4607,
  "vio": 4608,
  "\u2581inform": 4609,
  "\u2581card": 4610,
  "\u2581successful": 4611,
  "\u2581paesi": 4612,
  "\u2581round": 4613,
  "\u2581a\u00fan": 4614,
  "\u2581conjunto": 4615,
  "\u2581seule": 4616,
  "\u2581responsable": 4617,
  "\u2581plupart": 4618,
  "\u00f6": 4619,
  "\u2581adopt": 4620,
  "zia": 4621,
  "\u2581Tout": 4622,
  "\u2581Governments": 4623,
  "pla": 4624,
  "\u2581monitor": 4625,
  "69": 4626,
  "\u2581cel": 4627,
  "ep": 4628,
  "\u2581steel": 4629,
  "\u2581acci\u00f3n": 4630,
  "har": 4631,
  "AP": 4632,
  "aires": 4633,
  "\u2581bal": 4634,
  "\u2581selected": 4635,
  "\u2581peux": 4636,
  "\u2581informes": 4637,
  "\u2581task": 4638,
  "\u2581tengo": 4639,
  "nom": 4640,
  "\u2581accepted": 4641,
  "cy": 4642,
  "\u258157": 4643,
  "ggi": 4644,
  "\u2581nossa": 4645,
  "\u2581couldn": 4646,
  "\u2581importancia": 4647,
  "\u2581Gli": 4648,
  "\u2581release": 4649,
  "\u2581looks": 4650,
  "\u2581prise": 4651,
  "\u2581cr\u00e9er": 4652,
  "rica": 4653,
  "\u2581race": 4654,
  "\u2581Product": 4655,
  "\u2581peoples": 4656,
  "AS": 4657,
  "\u2581necesidades": 4658,
  "54": 4659,
  "\u2581visita": 4660,
  "\u2581Education": 4661,
  "\u2581association": 4662,
  "tter": 4663,
  "ranno": 4664,
  "\u2581propre": 4665,
  "51": 4666,
  "NA": 4667,
  "\u2581risks": 4668,
  "\u2581opening": 4669,
  "\u2581Uni\u00e3o": 4670,
  "LE": 4671,
  "\u2581hoy": 4672,
  "\u2581mercato": 4673,
  "\u2581garantir": 4674,
  "ld": 4675,
  "particuli\u00e8rement": 4676,
  "\u2581Download": 4677,
  "\u2581commun": 4678,
  "\u2581m\u00e9": 4679,
  "\u2581mientras": 4680,
  "\u2581quickly": 4681,
  "\u2581Bine": 4682,
  "ute": 4683,
  "\u2581licence": 4684,
  "RA": 4685,
  "\u2581arms": 4686,
  "\u2581co\u00fbts": 4687,
  "\u2581processing": 4688,
  "tele": 4689,
  "\u2581ayudar": 4690,
  "\u2581particolare": 4691,
  "\u2581r\u00e9duction": 4692,
  "\u2581paragrafo": 4693,
  "\u2581novo": 4694,
  "\u2581assets": 4695,
  "\u258164": 4696,
  "MI": 4697,
  "\u2581primo": 4698,
  "\u2581expenditure": 4699,
  "\u2581IT": 4700,
  "ona": 4701,
  "\u2581difference": 4702,
  "\u2581(2": 4703,
  "\u2581agli": 4704,
  "\u2581observed": 4705,
  "\u2581Post": 4706,
  "\u2581practical": 4707,
  "\u2581Hello": 4708,
  "\u2581derni\u00e8re": 4709,
  "\u2581clean": 4710,
  "\u2581generally": 4711,
  "red": 4712,
  "\u2581Mexico": 4713,
  "\u2581faveur": 4714,
  "\u2581trait\u00e9": 4715,
  "ong": 4716,
  "\u2581Environment": 4717,
  "\u2581strat\u00e9gie": 4718,
  "\u2581felt": 4719,
  "\u2581recognized": 4720,
  "\u2581growing": 4721,
  "\u2581sleep": 4722,
  "bul": 4723,
  "fra": 4724,
  "\u2581relativas": 4725,
  "\u2581claim": 4726,
  "\u2581sud": 4727,
  "\u2581centrale": 4728,
  "IA": 4729,
  "\u2581livre": 4730,
  "\u2581causes": 4731,
  "\u2581resultado": 4732,
  "\u2581goal": 4733,
  "\u2581divers": 4734,
  "izing": 4735,
  "gie": 4736,
  "\u2581stati": 4737,
  "\u2581objeto": 4738,
  "\u2581lines": 4739,
  "\u2581raised": 4740,
  "\u2581conforme": 4741,
  "\u2581p\u00fablica": 4742,
  "\u2581proposta": 4743,
  "\u2581expression": 4744,
  "\u2581Japan": 4745,
  "\u2581Sha": 4746,
  "\u2581madre": 4747,
  "TE": 4748,
  "\u2581toate": 4749,
  "uta": 4750,
  "\u2581qu\u00ea": 4751,
  "\u2581indi": 4752,
  "\u2581timp": 4753,
  "udi": 4754,
  "\u2581reuni\u00f3n": 4755,
  "\u2581thereof": 4756,
  "\u2581producci\u00f3n": 4757,
  "\u2581numbers": 4758,
  "\u2581quelle": 4759,
  "\u2581King": 4760,
  "You": 4761,
  "tation": 4762,
  "inha": 4763,
  "\u2581statements": 4764,
  "\u2581\u00c7a": 4765,
  "\u2581critical": 4766,
  "\u2581Base": 4767,
  "tamente": 4768,
  "\u2581fosse": 4769,
  "\u2581Room": 4770,
  "\u2581sala": 4771,
  "58": 4772,
  "\u2581bri": 4773,
  "\u2581dedicated": 4774,
  "\u2581dati": 4775,
  "76": 4776,
  "\u2581sessions": 4777,
  "nde": 4778,
  "53": 4779,
  "\u2581DES": 4780,
  "\u2581consiste": 4781,
  "\u2581ore": 4782,
  "\u2581unos": 4783,
  "tivi": 4784,
  "\u2581Black": 4785,
  "\u2581m\u00e3e": 4786,
  "86": 4787,
  "\u2581efectos": 4788,
  "Assembl\u00e9e": 4789,
  "\u2581responsabilit\u00e9": 4790,
  "\u2581hit": 4791,
  "\u2581permit": 4792,
  "\u2581sufficient": 4793,
  "\u2581permanente": 4794,
  "Ha": 4795,
  "\u2581starting": 4796,
  "57": 4797,
  "\u2581algunas": 4798,
  "\u2581Ontario": 4799,
  "\u2581pol": 4800,
  "\u2581Arab": 4801,
  "\u2581box": 4802,
  "\u2581disposition": 4803,
  "\u2581trouve": 4804,
  "\u2581equipo": 4805,
  "\u2581mea": 4806,
  "\u2581enhance": 4807,
  "\u2581variety": 4808,
  "\u2581instituciones": 4809,
  "\u2581gets": 4810,
  "\u25811991": 4811,
  "\u2581S\u00f3": 4812,
  "\u2581damage": 4813,
  "anti": 4814,
  "\u2581seul": 4815,
  "\u2581Bed": 4816,
  "\u2581mass": 4817,
  "\u2581improving": 4818,
  "\u2581target": 4819,
  "\u2581Force": 4820,
  "\u258153": 4821,
  "\u2581environ": 4822,
  "\u2581tr\u00eas": 4823,
  "MP": 4824,
  "spec": 4825,
  "\u2581substance": 4826,
  "\u2581running": 4827,
  "\u2581Vou": 4828,
  "\u2581mari": 4829,
  "\u2581esfuerzos": 4830,
  "\u2581reading": 4831,
  "\u2581notice": 4832,
  "AT": 4833,
  "C\u00f3mo": 4834,
  "\u2581Van": 4835,
  "\u2581propos": 4836,
  "\u2581fucking": 4837,
  "\u2581mil": 4838,
  "\u2581zonas": 4839,
  "\u2581limita": 4840,
  "entre": 4841,
  "SP": 4842,
  "\u2581nuevas": 4843,
  "din": 4844,
  "\u2581Bon": 4845,
  "88": 4846,
  "\u2581Dac\u0103": 4847,
  "\u2581poste": 4848,
  "\u2581priorities": 4849,
  "\u2581commune": 4850,
  "\u2581\u00fanica": 4851,
  "\u2581programma": 4852,
  "ther": 4853,
  "\u2581stuff": 4854,
  "\u2581figura": 4855,
  "[": 4856,
  "gui": 4857,
  "zer": 4858,
  "\u2581OK": 4859,
  "\u2581Gracias": 4860,
  "\u2581Sunt": 4861,
  "\u2581indigenous": 4862,
  "\u2581contexto": 4863,
  "\u2581sociaux": 4864,
  "\u2581morte": 4865,
  "\u2581regi\u00f3n": 4866,
  "\u2581amigo": 4867,
  "spe": 4868,
  "\u2581Mal": 4869,
  "ena": 4870,
  "\u2581author": 4871,
  "\u2581Ok": 4872,
  "\u2581sull": 4873,
  "\u2581promouvoir": 4874,
  "una": 4875,
  "rez": 4876,
  "\u2581seem": 4877,
  "\u2581medios": 4878,
  "\u2581goals": 4879,
  "ding": 4880,
  "\u2581brand": 4881,
  "\u2581possibile": 4882,
  "\u2581sales": 4883,
  "\u2581ori": 4884,
  "\u25812010,": 4885,
  "\u2581Ley": 4886,
  "all": 4887,
  "\u2581attend": 4888,
  "\u2581instance": 4889,
  "\u00ef": 4890,
  "\u2581espera": 4891,
  "ordre": 4892,
  "\u2581dello": 4893,
  "ology": 4894,
  "\u2581customers": 4895,
  "\u2581territoire": 4896,
  "\u2581Mont": 4897,
  "\u2581fixed": 4898,
  "\u2581Vice": 4899,
  "\u00ec": 4900,
  "\u2581dicho": 4901,
  "\u2581concluded": 4902,
  "n\u00e7a": 4903,
  "\u2581Madrid": 4904,
  "\u2581livello": 4905,
  "\u2581Inc": 4906,
  "!\"": 4907,
  "\u2581nuovo": 4908,
  "pli": 4909,
  "\u2581proportion": 4910,
  "\u2581armes": 4911,
  "\u2581Nel": 4912,
  "int\u00e9r\u00eat": 4913,
  "\u2581Qual": 4914,
  "79": 4915,
  "\u2581comune": 4916,
  "\u2581soins": 4917,
  "3%": 4918,
  "ye": 4919,
  "glio": 4920,
  "\u2581wood": 4921,
  "\u2581played": 4922,
  "\u2581privind": 4923,
  "\u2581lucha": 4924,
  "\u2581Mag": 4925,
  "\u2581Show": 4926,
  "\u2581secondo": 4927,
  "\u2581existence": 4928,
  "tou": 4929,
  "lon": 4930,
  "\u2581repr\u00e9sentant": 4931,
  "\u2581emergency": 4932,
  "app": 4933,
  "\u2581formas": 4934,
  "\u2581termes": 4935,
  "tiques": 4936,
  "\u2581senhor": 4937,
  "\u2581\u00e9tudes": 4938,
  "ans": 4939,
  "\u2581varia": 4940,
  "\u2581pass\u00e9": 4941,
  "ttes": 4942,
  "nova": 4943,
  "rate": 4944,
  "\u2581hombres": 4945,
  "\u2581hai": 4946,
  "\u2581dif\u00edcil": 4947,
  "\u2581Price": 4948,
  "\u2581dias": 4949,
  "Te": 4950,
  "ilor": 4951,
  "\u2581empleo": 4952,
  "IL": 4953,
  "bel": 4954,
  "\u2581preciso": 4955,
  "\u2581t\u00fa": 4956,
  "Co": 4957,
  "\u2581bro": 4958,
  "\u2581usa": 4959,
  "\u2581instead": 4960,
  "\u2581fields": 4961,
  "\u2581entonces": 4962,
  "led": 4963,
  "\u2581Green": 4964,
  "\u2581socio": 4965,
  "\u2581Parte": 4966,
  "\u2581Number": 4967,
  "\u2581drink": 4968,
  "\u2581march\u00e9s": 4969,
  "\u2581capable": 4970,
  "\u2581restaurant": 4971,
  "\u2581approximately": 4972,
  "\u2581debt": 4973,
  "\u2581fund": 4974,
  "\u2581voice": 4975,
  "\u2581vedere": 4976,
  "\u2581communautaire": 4977,
  "\u2581unto": 4978,
  "cina": 4979,
  "\u2581challenge": 4980,
  "\u258177": 4981,
  "\u2581error": 4982,
  "\u2581Congo": 4983,
  "\u2581estate": 4984,
  "\u2581politica": 4985,
  "\u258158": 4986,
  "agit": 4987,
  "\u2581principe": 4988,
  "\u2581Fran\u00e7ais": 4989,
  "\u2581officials": 4990,
  "\u2581Chapter": 4991,
  "\u2581NO": 4992,
  "gri": 4993,
  "mini": 4994,
  "\u2581info": 4995,
  "\u00een": 4996,
  "\u2581noche": 4997,
  "\u2581registered": 4998,
  "\u2581guerre": 4999,
  "ST": 5000,
  "ob": 5001,
  "\u2581abbiamo": 5002,
  "\u2581mention": 5003,
  "\u2581historia": 5004,
  "\u2581prepare": 5005,
  "0,000": 5006,
  "\u2581grado": 5007,
  "\u2581producto": 5008,
  "TS": 5009,
  "\u2581kept": 5010,
  "\u2581vezes": 5011,
  "\u2581igual": 5012,
  "\u2581seek": 5013,
  "\u2581Sir": 5014,
  "\u2581capacit\u00e9s": 5015,
  "enti": 5016,
  "\u2581utiliser": 5017,
  "\u2581chiar": 5018,
  "fu": 5019,
  "\u2581Cela": 5020,
  "sor": 5021,
  "\u2581tonight": 5022,
  "toria": 5023,
  "\u2581mayor\u00eda": 5024,
  "\u2581perspective": 5025,
  "\u2581claims": 5026,
  "\u2581Thus": 5027,
  "\u2581actuellement": 5028,
  "\u2581stesso": 5029,
  "\u2581cha": 5030,
  "\u2581foarte": 5031,
  "\u2581petit": 5032,
  "\u2581directement": 5033,
  "\u2581pourquoi": 5034,
  "\u2581intention": 5035,
  "\u2581sviluppo": 5036,
  "\u2581unless": 5037,
  "\u2581vital": 5038,
  "\u2581border": 5039,
  "\u00eddo": 5040,
  "euse": 5041,
  "\u2581Civil": 5042,
  "\u2581sesi\u00f3n": 5043,
  "\u2581containing": 5044,
  "CP": 5045,
  "\u2581abogados": 5046,
  "\u2581Review": 5047,
  "\u2581definition": 5048,
  "\u2581George": 5049,
  "\u2581Ireland": 5050,
  "\u2581negative": 5051,
  "\u2581components": 5052,
  "idades": 5053,
  "\u2581responsables": 5054,
  "\u2581t\u00eam": 5055,
  "\u2581ONU": 5056,
  "\u2581Humanos": 5057,
  "vant": 5058,
  "\u2581Pode": 5059,
  "\u2581difficile": 5060,
  "\u2581cidade": 5061,
  "\u2581peso": 5062,
  "\u2581gaz": 5063,
  "\u2581co\u00fbt": 5064,
  "91": 5065,
  "\u2581invited": 5066,
  "ula": 5067,
  "gin": 5068,
  "lar": 5069,
  "\u2581rendre": 5070,
  "\u2581violencia": 5071,
  "enta": 5072,
  "\u2581partenaires": 5073,
  "\u2581Super": 5074,
  "\u2581destination": 5075,
  "\u25811999,": 5076,
  "\u2581Food": 5077,
  "met": 5078,
  "\u2581mechanism": 5079,
  "examen": 5080,
  "\u2581pages": 5081,
  "urile": 5082,
  "\u2581Find": 5083,
  "\u2581dur\u00e9e": 5084,
  "\u2581Mary": 5085,
  "tivos": 5086,
  "\u2581obtenir": 5087,
  "ella": 5088,
  "\u0163ia": 5089,
  "\u2581convention": 5090,
  "iers": 5091,
  "shi": 5092,
  "\u2581lose": 5093,
  "\u258159": 5094,
  "\u258192": 5095,
  "tie": 5096,
  "ines": 5097,
  "lie": 5098,
  "\u2581Brussels": 5099,
  "\u2581suivants": 5100,
  "ssent": 5101,
  "\u2581character": 5102,
  "\u2581arte": 5103,
  "\u2581temos": 5104,
  "\u2581Latin": 5105,
  "\u2581Fonds": 5106,
  "\u2581Regulations": 5107,
  "\u2581op": 5108,
  "\u2581pueblo": 5109,
  "\u2581representa": 5110,
  "emos": 5111,
  "bal": 5112,
  "\u2581\u00c1frica": 5113,
  "\u2581highest": 5114,
  "\u2581pass": 5115,
  "\u2581pr\u00e9senter": 5116,
  "igne": 5117,
  "\u2581juridique": 5118,
  "\u2581Foi": 5119,
  "\u2581Anti": 5120,
  "\u25811988": 5121,
  "\u2581estimated": 5122,
  "\u2581equality": 5123,
  "\u2581verdad": 5124,
  "sco": 5125,
  "\u2581king": 5126,
  "\u2581yes": 5127,
  "\u2581exploitation": 5128,
  "\u2581400": 5129,
  "\u2581financi\u00e8re": 5130,
  "\u2581Members": 5131,
  "\u2581niveaux": 5132,
  "\u2581julio": 5133,
  "-5": 5134,
  "\u2581ga": 5135,
  "\u2581travers": 5136,
  "\u2581conclu": 5137,
  "Do": 5138,
  "\u2581moral": 5139,
  "\u2581danger": 5140,
  "IR": 5141,
  "objet": 5142,
  "\u2581utilisation": 5143,
  "\u2581offices": 5144,
  "\u2581observa": 5145,
  "\u2581chef": 5146,
  "\u2581waiting": 5147,
  "\u2581tard": 5148,
  "\u2581proprio": 5149,
  "\u2581suoi": 5150,
  "\u2581r\u00e9duire": 5151,
  "\u2581pul": 5152,
  "ped": 5153,
  "bor": 5154,
  "\u2581Furthermore": 5155,
  "\u2581garantizar": 5156,
  "g\u0103": 5157,
  "\u2581improved": 5158,
  "\u2581click": 5159,
  "industrie": 5160,
  "\u2581suivant": 5161,
  "uch": 5162,
  "\u2581intervention": 5163,
  "\u2581environnement": 5164,
  "fre": 5165,
  "part": 5166,
  "\u2581fora": 5167,
  "\u2581terre": 5168,
  "\u2581respective": 5169,
  "\u2581degree": 5170,
  "\u2581r\u00e9alisation": 5171,
  "\u2581conseguir": 5172,
  "\u2581rental": 5173,
  "\u2581euros": 5174,
  "\u2581Etats": 5175,
  "\u2581numero": 5176,
  "\u2581easily": 5177,
  "\u2581mainly": 5178,
  "\u2581citt\u00e0": 5179,
  "\u2581lorsqu": 5180,
  "\u2581nuevos": 5181,
  "\u2581promover": 5182,
  "\u2581Project": 5183,
  "\u2581Comunit\u00e0": 5184,
  "\u2581precios": 5185,
  "\u2581cuanto": 5186,
  "\u2581Bel": 5187,
  "administration": 5188,
  "\u2581ja": 5189,
  "\u2581s\u00e9ance": 5190,
  "\u2581begin": 5191,
  "tec": 5192,
  "\u2581partnership": 5193,
  "\u2581breakfast": 5194,
  "\u2581Real": 5195,
  "vano": 5196,
  "ship": 5197,
  "\u2581gen": 5198,
  "care": 5199,
  "\u2581concert": 5200,
  "ions": 5201,
  "mat": 5202,
  "\u2581periodo": 5203,
  "\u2581democratic": 5204,
  "\u2581fase": 5205,
  "\u2581experiencia": 5206,
  "\u2581Apr\u00e8s": 5207,
  "\u2581secretariat": 5208,
  "\u2581re\u00e7u": 5209,
  "\u00e8me": 5210,
  "ip": 5211,
  "\u2581rep": 5212,
  "\u2581statistics": 5213,
  "\u2581Tell": 5214,
  "lio": 5215,
  "iz": 5216,
  "\u2581London": 5217,
  "d\u0103": 5218,
  "\u2581daughter": 5219,
  "\u2581pasado": 5220,
  "\u2581obtain": 5221,
  "\u2581servizi": 5222,
  "PA": 5223,
  "\u2581poi": 5224,
  "\u258195": 5225,
  "related": 5226,
  "rou": 5227,
  "han": 5228,
  "\u2581\u201e": 5229,
  "\u2581\u00e9valuation": 5230,
  "\u2581octubre": 5231,
  "\u2581Fu": 5232,
  "\u2581tratamiento": 5233,
  "\u2581Agora": 5234,
  "\u2581educational": 5235,
  "\u2581Palestinian": 5236,
  "\u2581Miss": 5237,
  "\u2581island": 5238,
  "\u2581arreglo": 5239,
  "\u2581demandes": 5240,
  "just": 5241,
  "\u2581composition": 5242,
  "uda": 5243,
  "\u2581Ou": 5244,
  "\u2581internationaux": 5245,
  "\u2581r\u00e9ponse": 5246,
  "\u2581replaced": 5247,
  "\u2581Europeo": 5248,
  "2013": 5249,
  "\u2581evaluaci\u00f3n": 5250,
  "\u2581Del": 5251,
  "\u2581VIH": 5252,
  "\u2581econ\u00f3mica": 5253,
  "=": 5254,
  "\u2581indiqu\u00e9": 5255,
  "\u2581kid": 5256,
  "\u258111.": 5257,
  "\u2581crea": 5258,
  "\u2581resulting": 5259,
  "t\u00e0": 5260,
  "FR": 5261,
  "serv": 5262,
  "\u2581legislative": 5263,
  "\u2581forget": 5264,
  "\u2581parmi": 5265,
  "\u2581Breakfast": 5266,
  "\u2581entrada": 5267,
  "\u2581texto": 5268,
  "rai": 5269,
  "\u2581gra": 5270,
  "\u25812005.": 5271,
  "\u2581fear": 5272,
  "\u2581Port": 5273,
  "\u2581anterior": 5274,
  "\u2581supposed": 5275,
  "bil": 5276,
  "lement": 5277,
  "\u2581appear": 5278,
  "iques": 5279,
  "\u2581\u00faltimos": 5280,
  "\u2581compensation": 5281,
  "\u2581leader": 5282,
  "\u2581J\u00e1": 5283,
  "\u2581Cri": 5284,
  "iro": 5285,
  "73": 5286,
  "ical": 5287,
  "\u2581ricerca": 5288,
  "\u2581Wa": 5289,
  "\u2581Colombia": 5290,
  "rent": 5291,
  "\u2581church": 5292,
  "cido": 5293,
  "\u2581undertaken": 5294,
  "ach": 5295,
  "\u2581gotta": 5296,
  "SA": 5297,
  "ON": 5298,
  "\u2581green": 5299,
  "\u00e2nd": 5300,
  "\u2581developments": 5301,
  "\u2581sitio": 5302,
  "\u2581reality": 5303,
  "\u2581Finally": 5304,
  "\u2581cri": 5305,
  "This": 5306,
  "pp": 5307,
  "\u2581altre": 5308,
  "\u2581Bas": 5309,
  "\u0103m": 5310,
  "\u2581pense": 5311,
  "\u2581classe": 5312,
  "\u2581cities": 5313,
  "\u2581deep": 5314,
  "jan": 5315,
  "\u2581mente": 5316,
  "\u2581publics": 5317,
  "\u2581Martin": 5318,
  "\u2581noviembre": 5319,
  "\u2581seguro": 5320,
  "\u2581continues": 5321,
  "\u2581maintien": 5322,
  "\u2581eight": 5323,
  "ious": 5324,
  "\u2581junto": 5325,
  "ase": 5326,
  "\u2581spiritual": 5327,
  "\u2581piano": 5328,
  "\u2581Ahora": 5329,
  "\u2581finally": 5330,
  "\u2581Water": 5331,
  "\u2581f\u00e1cil": 5332,
  "UR": 5333,
  "\u2581presidente": 5334,
  "\u2581Holy": 5335,
  "ors": 5336,
  "\u2581opened": 5337,
  "Es": 5338,
  "ule": 5339,
  "MO": 5340,
  "\u2581Jack": 5341,
  "\u2581fim": 5342,
  "side": 5343,
  "\u2581ao\u00fbt": 5344,
  "\u2581networks": 5345,
  "del": 5346,
  "\u2581presupuesto": 5347,
  "\u2581prodotto": 5348,
  "gro": 5349,
  "\u2581invita": 5350,
  "mal": 5351,
  "72": 5352,
  "\u2581lawyers": 5353,
  "\u2581rise": 5354,
  "\u2581sar\u00e0": 5355,
  "\u2581estudo": 5356,
  "\u2581Estamos": 5357,
  "\u2581recovery": 5358,
  "\u2581Regulamento": 5359,
  "\u00e1ria": 5360,
  "\u2581Main": 5361,
  "\u2581dated": 5362,
  "\u2581effectively": 5363,
  "\u2581diz": 5364,
  "\u2581vraiment": 5365,
  "\u2581\u00bb.": 5366,
  "\u2581Today": 5367,
  "\u2581affect": 5368,
  "\u2581accounts": 5369,
  "mbo": 5370,
  "\u2581Meeting": 5371,
  "\u2581storage": 5372,
  "DI": 5373,
  "\u2581shit": 5374,
  "poli": 5375,
  "\u2581statut": 5376,
  "\u25812011,": 5377,
  "\u2581disc": 5378,
  "\u2581dalle": 5379,
  "\u2581picture": 5380,
  "\u2581governments": 5381,
  "pres": 5382,
  "sk": 5383,
  "\u2581thousands": 5384,
  "\u2581organizaci\u00f3n": 5385,
  "\u2581quiero": 5386,
  "hor": 5387,
  "ised": 5388,
  "rem": 5389,
  "\u2581utiliza": 5390,
  "c\u00f3": 5391,
  "gur": 5392,
  "\u2581sob": 5393,
  "\u2581Star": 5394,
  "ara": 5395,
  "ono": 5396,
  "84": 5397,
  "\u2581charges": 5398,
  "\u2581documentation": 5399,
  "ili": 5400,
  "\u2581amplia": 5401,
  "\u2581produtos": 5402,
  "\u2581dup\u0103": 5403,
  "71": 5404,
  "\u2581advance": 5405,
  "\u2581n\u00e9cessit\u00e9": 5406,
  "\u2581Voir": 5407,
  "\u2581destruction": 5408,
  "\u2581septiembre": 5409,
  "\u2581ailleurs": 5410,
  "amiento": 5411,
  "\u2581amigos": 5412,
  "\u2581ten\u00eda": 5413,
  "\u25812012,": 5414,
  "\u2581outras": 5415,
  "\u2581Financial": 5416,
  "\u00e2n": 5417,
  "\u2581ofrece": 5418,
  "\u2581elementos": 5419,
  "\u2581pie": 5420,
  "nico": 5421,
  "\u2581efficient": 5422,
  "\u2581gouvernements": 5423,
  "\u2581Eso": 5424,
  "\u2581nombreuses": 5425,
  "\u2581altro": 5426,
  "\u2581Design": 5427,
  "\u00e8ne": 5428,
  "\u2581institutional": 5429,
  "\u2581\u00eentr": 5430,
  "\u2581hoje": 5431,
  "ore": 5432,
  "od": 5433,
  "\u2581Salvador": 5434,
  "var": 5435,
  "\u2581analyse": 5436,
  "\u2581Brasil": 5437,
  "\u2581respuesta": 5438,
  "\u2581voie": 5439,
  "\u2581virtud": 5440,
  "\u2581kitchen": 5441,
  "\u2581Fra": 5442,
  "\u2581venir": 5443,
  "\u2581fini": 5444,
  "ologie": 5445,
  "\u2581Russia": 5446,
  "\u00e9r\u00e9": 5447,
  "\u2581honor": 5448,
  "\u2581necesita": 5449,
  "\u2581edad": 5450,
  "\u2581Partes": 5451,
  "\u2581constitue": 5452,
  "bio": 5453,
  "\u2581lequel": 5454,
  "\u25811980": 5455,
  "\u2581Kosovo": 5456,
  "\u2581annex": 5457,
  "\u2581rapide": 5458,
  "\u2581tus": 5459,
  "\u2581claro": 5460,
  "\u2581voyage": 5461,
  "ig": 5462,
  "2005": 5463,
  "\u2581changements": 5464,
  "\u2581Ed": 5465,
  "\u258161": 5466,
  "\u2581pr\u00e9sent\u00e9": 5467,
  "\u258162": 5468,
  "\u2581earlier": 5469,
  "vas": 5470,
  "\u2581miembro": 5471,
  "\u2581pueda": 5472,
  "feri": 5473,
  "\u25812006.": 5474,
  "\u2581t\u00e9cnica": 5475,
  "\u2581White": 5476,
  "gos": 5477,
  "\u2581entered": 5478,
  "\u2581discussed": 5479,
  "\u2581pr\u00e9vention": 5480,
  "\u2581examine": 5481,
  "\u2581performed": 5482,
  "\u2581Luxembourg": 5483,
  "\u2581drugs": 5484,
  "\u2581fam\u00edlia": 5485,
  "\u2581Moreover": 5486,
  "\u2581FOR": 5487,
  "PC": 5488,
  "die": 5489,
  "\u2581duties": 5490,
  "\u2581cuatro": 5491,
  "\u2581scale": 5492,
  "\u2581quindi": 5493,
  "\u2581d\u00e9bat": 5494,
  "\u2581hablar": 5495,
  "\u2581transmission": 5496,
  "\u2581crear": 5497,
  "\u2581secteurs": 5498,
  "\u2581Land": 5499,
  "\u2581device": 5500,
  "\u2581norme": 5501,
  "\u2581eye": 5502,
  "\u2581sulle": 5503,
  "t\u00e1": 5504,
  "cept": 5505,
  "61": 5506,
  "\u2581Hotels": 5507,
  "\u2581Play": 5508,
  "\u2581fre": 5509,
  "\u2581choix": 5510,
  "\u2581conf\u00e9rence": 5511,
  "\u2581fuel": 5512,
  "AD": 5513,
  "\u2581summer": 5514,
  "\u2581enfant": 5515,
  "3)": 5516,
  "\u2581represent": 5517,
  "\u2581Foreign": 5518,
  "\u2581trouble": 5519,
  "\u2581travailleurs": 5520,
  "Uni": 5521,
  "\u2581length": 5522,
  "\u2581satisfaction": 5523,
  "\u2581links": 5524,
  "\u2581san": 5525,
  "\u2581contexte": 5526,
  "\u00e9ri": 5527,
  "\u2581airport": 5528,
  "\u2581supporting": 5529,
  "\u2581d\u00e9terminer": 5530,
  "pha": 5531,
  "\u2581Twitter": 5532,
  "\u2581relacionados": 5533,
  "LA": 5534,
  "\u2581Pra": 5535,
  "\u2581cargo": 5536,
  "\u2581appui": 5537,
  "\u2581advantage": 5538,
  "\u2581married": 5539,
  "\u2581whatever": 5540,
  "\u2581Media": 5541,
  "\u2581powers": 5542,
  "\u2581favour": 5543,
  "\u2581hab\u00edan": 5544,
  "\u2581Desde": 5545,
  "\u2581Austria": 5546,
  "\u25812007.": 5547,
  "\u2581Joint": 5548,
  "s\u00e9": 5549,
  "\u2581Michael": 5550,
  "ieron": 5551,
  "ala": 5552,
  "\u2581names": 5553,
  "sure": 5554,
  "\u2581shared": 5555,
  "\u2581trial": 5556,
  "\u2581nord": 5557,
  "\u2581commitments": 5558,
  "VI": 5559,
  "\u2581muchas": 5560,
  "\u2581Netherlands": 5561,
  "\u2581SE": 5562,
  "\u2581pensar": 5563,
  "\u2581outra": 5564,
  "\u2581Top": 5565,
  "\u2581attack": 5566,
  "\u2581adem\u00e1s": 5567,
  "\u2581leaders": 5568,
  "\u2581oral": 5569,
  "gni": 5570,
  "\u2581percent": 5571,
  "xa": 5572,
  "\u2581resto": 5573,
  "\u2581birth": 5574,
  "52": 5575,
  "\u2581Nueva": 5576,
  "For": 5577,
  "making": 5578,
  "\u2581registration": 5579,
  "\u2581totale": 5580,
  "vision": 5581,
  "\u2581gastos": 5582,
  "hy": 5583,
  "\u2581hotels": 5584,
  "\u2581graves": 5585,
  "\u2581Organizaci\u00f3n": 5586,
  "\u2581worry": 5587,
  "\u2581Frank": 5588,
  "\u2581telles": 5589,
  "\u2581Sou": 5590,
  "\u2581leaving": 5591,
  "bes": 5592,
  "\u258112.": 5593,
  "\u2581siendo": 5594,
  "\u2581limite": 5595,
  "\u2581Over": 5596,
  "\u2581showed": 5597,
  "ace": 5598,
  "63": 5599,
  "pie": 5600,
  "iens": 5601,
  "\u2581Airport": 5602,
  "\u2581violation": 5603,
  "\u2581Last": 5604,
  "Com": 5605,
  "\u00e9ducation": 5606,
  "\u2581traffic": 5607,
  "\u2581Sei": 5608,
  "\u2581Monte": 5609,
  "\u2581feeling": 5610,
  "\u2581segunda": 5611,
  "\u2581impossible": 5612,
  "\")": 5613,
  "\u2581algu\u00e9m": 5614,
  "\u2581Gran": 5615,
  "este": 5616,
  "\u2581playing": 5617,
  "\u2581characteristics": 5618,
  "\u2581Afrique": 5619,
  "\u2581p\u00e1gina": 5620,
  "\u2581com\u00fan": 5621,
  "/4": 5622,
  "\u2581spune": 5623,
  "83": 5624,
  "\u2581enforcement": 5625,
  "\u00e9nergie": 5626,
  "\u2581failure": 5627,
  "cola": 5628,
  "\u2581recognition": 5629,
  "\u2581complet": 5630,
  "\u2581cold": 5631,
  "ves": 5632,
  "\u2581creaci\u00f3n": 5633,
  "\u2581polic\u00eda": 5634,
  "\u2581Quem": 5635,
  "avoir": 5636,
  "\u2581treated": 5637,
  "\u2581salle": 5638,
  "\u2581Work": 5639,
  "\u2581bathroom": 5640,
  "\u2581bu": 5641,
  "\u2581organismos": 5642,
  "\u2581settore": 5643,
  "\u2581Durante": 5644,
  "\u2581derni\u00e8res": 5645,
  "tern": 5646,
  "\u2581m\u00e9dico": 5647,
  "\u2581exige": 5648,
  "ney": 5649,
  "\u2581Charter": 5650,
  "\u2581Ban": 5651,
  "tim": 5652,
  "\u021bia": 5653,
  "\u2581p\u00eache": 5654,
  "\u2581telle": 5655,
  "-10": 5656,
  "\u2581quale": 5657,
  "\u2581juego": 5658,
  "ima": 5659,
  "\u2581pure": 5660,
  "\u2581beach": 5661,
  "\u2581write": 5662,
  "\u2581carta": 5663,
  "king": 5664,
  "\u2581accommodation": 5665,
  "\u2581otherwise": 5666,
  "\u2581dinero": 5667,
  "\u2581closed": 5668,
  "\u2581stability": 5669,
  "\u2581draw": 5670,
  "\u2581IP": 5671,
  "\u2581formaci\u00f3n": 5672,
  "\u2581attivit\u00e0": 5673,
  "PE": 5674,
  "\u2581Pourquoi": 5675,
  "\u2581LE": 5676,
  "\u2581contrat": 5677,
  "\u2581possibilit\u00e9": 5678,
  "\u2581appel": 5679,
  "vor": 5680,
  "\u2581ap": 5681,
  "\u2581Cer": 5682,
  "\u2581cultura": 5683,
  "\u2581informa\u00e7\u00f5es": 5684,
  "OL": 5685,
  "\u2581Museum": 5686,
  "\u2581Representative": 5687,
  "\u2581imports": 5688,
  "\u2581sa\u00fade": 5689,
  "\u2581outcome": 5690,
  "ifica": 5691,
  "\u2581Stato": 5692,
  "\u2581tenemos": 5693,
  "\u2581territorio": 5694,
  "ffer": 5695,
  "\u2581langue": 5696,
  "\u2581evitar": 5697,
  "\u2581equipped": 5698,
  "nar": 5699,
  "\u2581vo": 5700,
  "\u2581exigences": 5701,
  "\u2581associations": 5702,
  "\u2581officers": 5703,
  "\u2581d\u00e9cid\u00e9": 5704,
  "sione": 5705,
  "74": 5706,
  "\u2581r\u00e9serve": 5707,
  "COM": 5708,
  "\"?": 5709,
  "\u2581principale": 5710,
  "\u2581improvement": 5711,
  "\u2581Eles": 5712,
  "level": 5713,
  "\u2581SA": 5714,
  "\u2581recommendation": 5715,
  "bas": 5716,
  "nic": 5717,
  "\u2581plants": 5718,
  "\u2581fonctions": 5719,
  "\u2581rapid": 5720,
  "dri": 5721,
  "mbi": 5722,
  "\u2581Meu": 5723,
  "\u2581sun": 5724,
  "responsibilities": 5725,
  "\u2581toma": 5726,
  "\u2581int\u00e9rieur": 5727,
  "\u2581join": 5728,
  "\u2581nation": 5729,
  "anno": 5730,
  "\u2581Ze": 5731,
  "\u2581utilis\u00e9": 5732,
  "\u2581clientes": 5733,
  "\u2581regulatory": 5734,
  "CR": 5735,
  "\u2581Robert": 5736,
  "\u2581consequences": 5737,
  "ane": 5738,
  "\u2581considerable": 5739,
  "\u2581propuesta": 5740,
  "Lo": 5741,
  "rit": 5742,
  "\u2581Camp": 5743,
  "\u2581pur": 5744,
  "\u2581club": 5745,
  "r\u00f3": 5746,
  "\u2581Authority": 5747,
  "\u2581models": 5748,
  "organisation": 5749,
  "\u2581terrorism": 5750,
  "ese": 5751,
  "\u2581Obrigado": 5752,
  "tate": 5753,
  "corre": 5754,
  "\u2581Year": 5755,
  "\u2581Back": 5756,
  "\u2581r\u00e9pondre": 5757,
  "\u2581elections": 5758,
  "\u2581quant": 5759,
  "\u2581pelos": 5760,
  "\u258101": 5761,
  "\u2581UNICEF": 5762,
  "\u2581lograr": 5763,
  "\u2581portant": 5764,
  "\u2581creating": 5765,
  "\u2581trafficking": 5766,
  "RI": 5767,
  "\u2581hizo": 5768,
  "\u2581dimension": 5769,
  "\u2581ship": 5770,
  "\u2581funci\u00f3n": 5771,
  "\u2581dado": 5772,
  "\u2581Toutefois": 5773,
  "\u2581planned": 5774,
  "\u2581r\u00e9unions": 5775,
  "\u2581emissions": 5776,
  "\u2581fort": 5777,
  "\u2581victimes": 5778,
  "\u2581Advisory": 5779,
  "vier": 5780,
  "\u2581100%": 5781,
  "\u2581alguma": 5782,
  "\u2581Guide": 5783,
  "\u2581cama": 5784,
  "remo": 5785,
  "\u2581semi": 5786,
  "\u2581\u00e1": 5787,
  "\u2581fez": 5788,
  "\u2581certainly": 5789,
  "\u2581hemos": 5790,
  "\u2581passa": 5791,
  "\u2581establecer": 5792,
  "\u2581Ph": 5793,
  "\u2581navigation": 5794,
  "\u2581mayo": 5795,
  "\u2581payments": 5796,
  "/10": 5797,
  "\u2581$1": 5798,
  "\u2581sentir": 5799,
  "\u2581Island": 5800,
  "\u2581conseil": 5801,
  "\u2581touch": 5802,
  "governmental": 5803,
  "\u2581devem": 5804,
  "dad": 5805,
  "\u2581cash": 5806,
  "\u2581d\u00e8s": 5807,
  "my": 5808,
  "\u2581agriculture": 5809,
  "enne": 5810,
  "\u2581Legal": 5811,
  "\u25812)": 5812,
  "\u2581llevar": 5813,
  "\u2581Dia": 5814,
  "\u2581studio": 5815,
  "\u2581pourraient": 5816,
  "\u2581haute": 5817,
  "entreprise": 5818,
  "\u2581differences": 5819,
  "\u2581directives": 5820,
  "RO": 5821,
  "\u2581ea": 5822,
  "\u2581holding": 5823,
  "\u2581duas": 5824,
  "\u2581formula": 5825,
  "\u2581stress": 5826,
  "\u2581concentration": 5827,
  "\u2581Western": 5828,
  "\u2581aff": 5829,
  "lip": 5830,
  "\u2581exact": 5831,
  "\u2581amounts": 5832,
  "\u2581Dan": 5833,
  "\u2581sp": 5834,
  "\u2581H\u00e1": 5835,
  "\u2581Once": 5836,
  "\u2581d\u00e9s": 5837,
  "\u2581rend": 5838,
  "\u2581Ab": 5839,
  "\u2581virus": 5840,
  "Mo": 5841,
  "entr\u00e9e": 5842,
  "\u2581district": 5843,
  "\u2581band": 5844,
  "\u2581ref": 5845,
  "\u2581sicurezza": 5846,
  "\u2581diverse": 5847,
  "\u2581famous": 5848,
  "\u2581seis": 5849,
  "\u2581pr\u00e1ctica": 5850,
  "\u2581anal": 5851,
  "ndi": 5852,
  "rais": 5853,
  "cida": 5854,
  "\u2581gi\u00e0": 5855,
  "\u2581recours": 5856,
  "\u2581\u00b0": 5857,
  "ghi": 5858,
  "sign": 5859,
  "vert": 5860,
  "\u2581Comunidad": 5861,
  "\u2581invite": 5862,
  "\u2581tenir": 5863,
  "\u021bie": 5864,
  "\u2581ml": 5865,
  "\u2581soy": 5866,
  "\u2581customs": 5867,
  "\u2581indicators": 5868,
  "rme": 5869,
  "\u2581resource": 5870,
  "\u2581records": 5871,
  "pol": 5872,
  "\u2581varios": 5873,
  "\u2581aver": 5874,
  "\u2581largest": 5875,
  "2008": 5876,
  "\u00e9n": 5877,
  "mit": 5878,
  "\u2581biens": 5879,
  "2007": 5880,
  "://": 5881,
  "\u2581consistent": 5882,
  "\u2581categories": 5883,
  "\u2581crucial": 5884,
  "\u2581caract\u00e8re": 5885,
  "\u2581effectiveness": 5886,
  "colo": 5887,
  ">>ca<<": 5888,
  "\u2581tipos": 5889,
  "\u2581meio": 5890,
  "cur": 5891,
  "origine": 5892,
  "\u2581nostra": 5893,
  "dar": 5894,
  "\u2581restrictions": 5895,
  "ski": 5896,
  "nzi": 5897,
  "\u2581turned": 5898,
  "ware": 5899,
  "\u2581pop": 5900,
  "\u2581Ke": 5901,
  "\u2581faci": 5902,
  "\u2581informal": 5903,
  "\u2581River": 5904,
  "\u2581percentage": 5905,
  "tores": 5906,
  "PR": 5907,
  "\u2581Gen": 5908,
  "over": 5909,
  "\u2581respond": 5910,
  "\u2581aspectos": 5911,
  "\u2581Fondo": 5912,
  "0.000": 5913,
  "entes": 5914,
  "oli": 5915,
  "cor": 5916,
  "\u2581Listen": 5917,
  "\u2581machines": 5918,
  "\u2581conservation": 5919,
  "\u2581crois": 5920,
  "rri": 5921,
  "\u2581cro": 5922,
  "bol": 5923,
  "Mi": 5924,
  "\u2581energ\u00eda": 5925,
  "\u2581basa": 5926,
  "\u2581Hai": 5927,
  "\u2581voc\u00eas": 5928,
  "\u2581sue": 5929,
  "\u2581emploi": 5930,
  "\u2581suivantes": 5931,
  "ists": 5932,
  "\u2581tierra": 5933,
  "annexe": 5934,
  "\u2581proper": 5935,
  "\u2581Cooperation": 5936,
  "ggia": 5937,
  "\u2581libert\u00e9": 5938,
  "\u2581mod": 5939,
  "\u2581participer": 5940,
  "\u2581moving": 5941,
  "\u2581enero": 5942,
  "4,": 5943,
  "\u2581agent": 5944,
  "nis": 5945,
  "kin": 5946,
  "\u00edan": 5947,
  "\u2581afraid": 5948,
  "\u2581carro": 5949,
  "\u2581involving": 5950,
  "\u2581leadership": 5951,
  "\u2581Acc": 5952,
  "\u2581difficulties": 5953,
  "\u2581quella": 5954,
  "\u2581podr\u00e1": 5955,
  "\u2581convient": 5956,
  "\u2581motivo": 5957,
  "\u2581Selon": 5958,
  "\u2581department": 5959,
  "\u2581indicate": 5960,
  "\u2581recomendaciones": 5961,
  "OM": 5962,
  "\u2581modifica": 5963,
  "\u2581Share": 5964,
  "dent": 5965,
  "om": 5966,
  "2001": 5967,
  "\u2581Network": 5968,
  "\u2581Master": 5969,
  "Il": 5970,
  "\u2581store": 5971,
  "\u2581win": 5972,
  "\u2581prime": 5973,
  "\u2581explain": 5974,
  "\u2581aurait": 5975,
  "\u2581acha": 5976,
  "agem": 5977,
  "\u2581Tudo": 5978,
  "\u2581visits": 5979,
  "\u2581principios": 5980,
  "\u2581renforcement": 5981,
  "\u2581tend": 5982,
  "\u2581ECU": 5983,
  "\u2581exercice": 5984,
  "exercice": 5985,
  "imp": 5986,
  "n\u00e9s": 5987,
  "\u2581shot": 5988,
  "\u2581buena": 5989,
  "\u2581modifications": 5990,
  "PS": 5991,
  "\u2581primeira": 5992,
  "\u2581Another": 5993,
  "\u2581Imp": 5994,
  "\u25812004.": 5995,
  "i\u00f3": 5996,
  "press": 5997,
  "\u2581davantage": 5998,
  "\u2581street": 5999,
  "\u2581consumer": 6000,
  "bli": 6001,
  "\u2581implica": 6002,
  "\u2581Bill": 6003,
  "\u2581Next": 6004,
  "Membros": 6005,
  "\u2581mod\u00e8le": 6006,
  "\u2581voy": 6007,
  "\u2581Second": 6008,
  "ap": 6009,
  "\u2581libertad": 6010,
  "\u2581linked": 6011,
  "\u2581pick": 6012,
  "\u2581division": 6013,
  "\u2581annexe": 6014,
  "\u2581specifically": 6015,
  "\u2581dem\u00e1s": 6016,
  "\u2581ongoing": 6017,
  "\u2581paragraphs": 6018,
  "\u2581alguns": 6019,
  "\u2581obtener": 6020,
  "\u2581secure": 6021,
  "\u2581multiple": 6022,
  "\u2581marine": 6023,
  "\u2581Energy": 6024,
  "\u2581customer": 6025,
  "\u2581Pentru": 6026,
  "\u2581passer": 6027,
  "ral": 6028,
  "mbra": 6029,
  "\u2581appeal": 6030,
  "\u2581canal": 6031,
  "\u2581campaign": 6032,
  "b\u00e9": 6033,
  "\u2581guidance": 6034,
  "\u25811986": 6035,
  "\u2581mandato": 6036,
  "\u2581continuing": 6037,
  "\u2581muerte": 6038,
  "\u2581fonctionnement": 6039,
  "parti": 6040,
  "\u2581Club": 6041,
  "\u2581transit": 6042,
  "\u2581autochtones": 6043,
  "\u25811998,": 6044,
  "porte": 6045,
  "\u2581notification": 6046,
  "\u2581carga": 6047,
  "\u2581garden": 6048,
  "\u2581desenvolvimento": 6049,
  "\u2581Street": 6050,
  "ub": 6051,
  "\u2581multilateral": 6052,
  "\u2581militar": 6053,
  "\u258172": 6054,
  "\u2581canadienne": 6055,
  "\u2581principaux": 6056,
  "\u2581Rio": 6057,
  "cial": 6058,
  "old": 6059,
  "\u2581reserva": 6060,
  "\u2581\u00bb,": 6061,
  "ally": 6062,
  "\u2581Chinese": 6063,
  "\u2581Espa\u00f1ol": 6064,
  "\u2581carne": 6065,
  "\u2581copy": 6066,
  "\u2581quadro": 6067,
  "62": 6068,
  "2004": 6069,
  "eta": 6070,
  "\u2581interesting": 6071,
  "\u2581consensus": 6072,
  "issement": 6073,
  "ison": 6074,
  "tage": 6075,
  "\u2581strength": 6076,
  "\u2581Power": 6077,
  "\u2581siamo": 6078,
  "\u2581\u00e9tabli": 6079,
  "\u25812008.": 6080,
  "\u2581hu": 6081,
  "aje": 6082,
  "\u2581estudio": 6083,
  "\u2581s\u00fbr": 6084,
  "\u2581Cam": 6085,
  "\u2581direttiva": 6086,
  "\u2581dangerous": 6087,
  "\u2581dinheiro": 6088,
  "\u2581documentos": 6089,
  "\u2581numa": 6090,
  "\u2581producers": 6091,
  "\u2581discuss": 6092,
  "\u2581abuse": 6093,
  "\u2581..": 6094,
  "\u2581engagement": 6095,
  "\u2581possa": 6096,
  "\u2581interna": 6097,
  "\u2581middle": 6098,
  "\u2581package": 6099,
  "e\u015fte": 6100,
  "\u2581fresh": 6101,
  "\u2581Reino": 6102,
  "\u2581fut": 6103,
  "\u2581glass": 6104,
  "5%": 6105,
  "bur": 6106,
  "\u2581gri": 6107,
  "\u2581square": 6108,
  "\u2581piece": 6109,
  "2002": 6110,
  "\u25811)": 6111,
  "Km": 6112,
  "\u2581ban": 6113,
  "board": 6114,
  "\u2581m\u00e9thodes": 6115,
  "\u2581released": 6116,
  "\u2581canadien": 6117,
  "2014": 6118,
  "\u2581host": 6119,
  "\u2581provincial": 6120,
  "\u2581posto": 6121,
  "\u2581d\u00e9l\u00e9gation": 6122,
  "\u2581valores": 6123,
  "\u2581contracts": 6124,
  "glie": 6125,
  "\u2581riesgo": 6126,
  "\u2581Center": 6127,
  "\u2581Cla": 6128,
  "\u258188": 6129,
  "\u2581Auto": 6130,
  "\u2581suficiente": 6131,
  "nous": 6132,
  "nio": 6133,
  "sch": 6134,
  "\u2581contain": 6135,
  "\u2581instructions": 6136,
  "tero": 6137,
  "uto": 6138,
  "\u2581semble": 6139,
  "\u2581fran\u00e7ais": 6140,
  "\u2581Criminal": 6141,
  "\u2581d\u00e9fense": 6142,
  "rre": 6143,
  "\u2581flight": 6144,
  "\u2581ahead": 6145,
  "\u2581reflect": 6146,
  "\u2581vigor": 6147,
  "dura": 6148,
  "stri": 6149,
  "\u2581scheme": 6150,
  "\u2581f\u00e9": 6151,
  "\u2581mono": 6152,
  "\u2581rela\u00e7\u00e3o": 6153,
  "\u2581Tal": 6154,
  "glo": 6155,
  "\u2581\u00c9l": 6156,
  "RC": 6157,
  "ENT": 6158,
  "\u25812013,": 6159,
  "istes": 6160,
  "\u2581demander": 6161,
  "\u2581Mai": 6162,
  "\u2581Permanent": 6163,
  "\u2581aura": 6164,
  "\u2581Tous": 6165,
  "\u2581worth": 6166,
  "\u2581Grande": 6167,
  "\u2581aplicar": 6168,
  "\u2581wall": 6169,
  "\u2581female": 6170,
  "\u2581modelo": 6171,
  "Organisation": 6172,
  "\u2581consumo": 6173,
  "\u2581ponto": 6174,
  "dica": 6175,
  "\u2581poly": 6176,
  "\u2581instrumentos": 6177,
  "\u2581availability": 6178,
  "\u2581terrain": 6179,
  "\u2581aspect": 6180,
  "uel": 6181,
  "\u2581evening": 6182,
  "\u2581ur": 6183,
  "\u2581tali": 6184,
  "\u2581tiers": 6185,
  "\u2581USA": 6186,
  "\u2581aunque": 6187,
  "\u2581esempio": 6188,
  "ability": 6189,
  "\u2581acolo": 6190,
  "\u2581120": 6191,
  "\u2581econ\u00f3mico": 6192,
  "cin": 6193,
  "\u2581temperature": 6194,
  "\u2581dejar": 6195,
  "\u258113.": 6196,
  "\u2581trova": 6197,
  "\u2581exception": 6198,
  "\u2581south": 6199,
  "\u2581manifesta": 6200,
  "\u2581ajuda": 6201,
  "\u2581rich": 6202,
  "\u258166": 6203,
  "rti": 6204,
  "\u2581parler": 6205,
  "\u2581dad": 6206,
  "\u2581circa": 6207,
  "\u2581Trabajo": 6208,
  "\u2581choses": 6209,
  "\u2581window": 6210,
  "\u2581ejecuci\u00f3n": 6211,
  "TO": 6212,
  "\u2581Geneva": 6213,
  "\u2581Ali": 6214,
  "\u2581purchase": 6215,
  "\u2581afirma": 6216,
  "\u2581teaching": 6217,
  "tici": 6218,
  "\u2581n\u00edvel": 6219,
  "ua": 6220,
  "uro": 6221,
  "IF": 6222,
  "\u2581sc": 6223,
  "\u2581pena": 6224,
  "\u2581Via": 6225,
  "elor": 6226,
  "\u2581professionnelle": 6227,
  "\u2581aller": 6228,
  "500": 6229,
  "\u2581bases": 6230,
  "\u2581cell": 6231,
  "\u2581protected": 6232,
  "avis": 6233,
  "ense": 6234,
  "\u2581delivered": 6235,
  "\u2581Spa": 6236,
  "\u2581Federation": 6237,
  "\u2581Type": 6238,
  "\u2581Acho": 6239,
  "\u2581satellite": 6240,
  "sc": 6241,
  "\u2581gracias": 6242,
  "\u2581bis": 6243,
  "\u2581Mark": 6244,
  "\u2581permettant": 6245,
  "\u2581spun": 6246,
  "\u2581Access": 6247,
  "\u2581gobierno": 6248,
  "zzo": 6249,
  "sul": 6250,
  "\u2581durant": 6251,
  "\u2581priv\u00e9": 6252,
  "\u2581suppl\u00e9mentaires": 6253,
  "\u2581survey": 6254,
  "\u2581comply": 6255,
  "\u2581desea": 6256,
  "\u2581stakeholders": 6257,
  "\u2581limits": 6258,
  "\u2581housing": 6259,
  "\u2581Tenho": 6260,
  "\u2581combination": 6261,
  "\u2581treaty": 6262,
  "\u2581Transport": 6263,
  "\u2581acc": 6264,
  "\u2581Ste": 6265,
  "lui": 6266,
  "\u2581financiers": 6267,
  "\u2581financi\u00e8res": 6268,
  "\u2581corps": 6269,
  "\u2581referencia": 6270,
  "\u2581requirement": 6271,
  "\u2581Before": 6272,
  "\u2581transactions": 6273,
  "\u2581forest": 6274,
  "\u2581Switzerland": 6275,
  "zzi": 6276,
  "iu": 6277,
  "\u2581blue": 6278,
  "\u2581offering": 6279,
  "\u2581llegar": 6280,
  "\u2581Sign": 6281,
  "\u2581hurt": 6282,
  "\u2581milieu": 6283,
  "rum": 6284,
  "\u2581classification": 6285,
  "i\u00e8re": 6286,
  "\u2581hijo": 6287,
  "Vi": 6288,
  "\u2581propres": 6289,
  "\u2581ET": 6290,
  "\u2581car\u00e1cter": 6291,
  "\u2581Nothing": 6292,
  "\u2581flu": 6293,
  "\u2581Daniel": 6294,
  "\u2581mantener": 6295,
  "\u2581Asta": 6296,
  "2009": 6297,
  "\u2581spent": 6298,
  "\u2581vive": 6299,
  "\u2581art\u00edculos": 6300,
  "\u2581extremely": 6301,
  "\u2581inter\u00e9s": 6302,
  "\u2581Berlin": 6303,
  "\u2581completo": 6304,
  "\u2581queste": 6305,
  "gem": 6306,
  "dessus": 6307,
  "\u2581Friday": 6308,
  "avi": 6309,
  "\u2581rue": 6310,
  "\u2581Tour": 6311,
  "\u2581tro": 6312,
  "\u2581drawn": 6313,
  "\u2581zi": 6314,
  "\u2581Every": 6315,
  "dem": 6316,
  "\u2581fuck": 6317,
  "\u2581Chairman": 6318,
  "\u2581Fin": 6319,
  "\u2581season": 6320,
  "\u2581manque": 6321,
  "free": 6322,
  "\u258198": 6323,
  "\u2581gre": 6324,
  "tier": 6325,
  "\u2581path": 6326,
  "\u2581minist\u00e8re": 6327,
  "\u2581Min": 6328,
  "\u2581sit": 6329,
  "\u2581se\u00f1or": 6330,
  "\u2581entrar": 6331,
  "\u2581boys": 6332,
  "\u2581devices": 6333,
  "\u2581efecto": 6334,
  "\u2581revenu": 6335,
  "\u2581solid": 6336,
  "II": 6337,
  "\u2581extended": 6338,
  "\u2581yeah": 6339,
  "81": 6340,
  "sis": 6341,
  "\u2581sanctions": 6342,
  "\u2581bra": 6343,
  "\u2581seguran\u00e7a": 6344,
  "\u2581Very": 6345,
  "mia": 6346,
  "tivas": 6347,
  "\u2581meta": 6348,
  "\u2581fit": 6349,
  "\u2581servi": 6350,
  "\u2581adoptar": 6351,
  "gg": 6352,
  "work": 6353,
  "idas": 6354,
  "\u2581(3": 6355,
  "\u2581doubt": 6356,
  "m\u00eame": 6357,
  "\u2581Communication": 6358,
  "\u2581Company": 6359,
  "\u2581atrav\u00e9s": 6360,
  "\u2581aircraft": 6361,
  "oma": 6362,
  "\u2581d\u00e9clar\u00e9": 6363,
  "\u2581hearing": 6364,
  "\u25811989": 6365,
  "izzazione": 6366,
  "TER": 6367,
  "\u2581Afghanistan": 6368,
  "\u2581aims": 6369,
  "\u2581facile": 6370,
  "\u2581stable": 6371,
  "peri": 6372,
  "\u2581regionales": 6373,
  "cce": 6374,
  "house": 6375,
  "nts": 6376,
  "\u2581pauvret\u00e9": 6377,
  "\u2581busca": 6378,
  "\u2581Membres": 6379,
  "\u2581abril": 6380,
  "\u2581crit\u00e8res": 6381,
  "\u2581introduction": 6382,
  "\u2581relazione": 6383,
  "\u2581moyenne": 6384,
  "\u2581clinical": 6385,
  "pes": 6386,
  "\u2581(\"": 6387,
  "\u2581objectif": 6388,
  "\u2581ninguna": 6389,
  "TC": 6390,
  "\u2581Turkey": 6391,
  "porta": 6392,
  "l\u00ed": 6393,
  "fort": 6394,
  "\u2581Online": 6395,
  "\u2581refugees": 6396,
  "\u2581Help": 6397,
  "\u2581informa": 6398,
  "\u2581governance": 6399,
  "cine": 6400,
  "\u2581]": 6401,
  "\u2581Trebuie": 6402,
  "\u2581publications": 6403,
  "\u2581Cum": 6404,
  "\u2581grant": 6405,
  "\u2581visite": 6406,
  "\u2581album": 6407,
  "\u2581bilateral": 6408,
  "vale": 6409,
  "\u2581firms": 6410,
  "\u2581pollution": 6411,
  "\u2581decisiones": 6412,
  "TION": 6413,
  "\u2581mom": 6414,
  "\u2581parole": 6415,
  "\u2581Estoy": 6416,
  "\u2581feet": 6417,
  "nge": 6418,
  "\u2581nuit": 6419,
  "\u2581recorded": 6420,
  "\u2581temporary": 6421,
  "\u2581match": 6422,
  "\u2581president": 6423,
  "\u2581bun": 6424,
  "\u2581relatif": 6425,
  "\u2581track": 6426,
  "\u2581ap\u00f3s": 6427,
  "\u2581tradition": 6428,
  "IE": 6429,
  "\u2581valeurs": 6430,
  "\u2581avere": 6431,
  "rma": 6432,
  "\u00e4": 6433,
  "\u00e1s": 6434,
  "\u2581passage": 6435,
  "\u2581vivo": 6436,
  "\u2581Location": 6437,
  "\u2581changement": 6438,
  "\u2581flow": 6439,
  "ienne": 6440,
  "\u2581misure": 6441,
  "lant": 6442,
  "\u2581sigue": 6443,
  "\u2581firm": 6444,
  "\u2581cuerpo": 6445,
  "\u2581dealing": 6446,
  "\u25811:": 6447,
  "\u2581Francia": 6448,
  "\u2581Royaume": 6449,
  "rico": 6450,
  "\u2581mat\u00e9riel": 6451,
  "\u2581moved": 6452,
  "\u2581presta": 6453,
  "\u2581faible": 6454,
  "\u2581Greece": 6455,
  "\u2581Best": 6456,
  "\u2581despite": 6457,
  "DC": 6458,
  "\u2581M\u00e1s": 6459,
  "\u2581comp\u00e9tences": 6460,
  "\u2581encuentra": 6461,
  "cut": 6462,
  "tz": 6463,
  "He": 6464,
  "\u2581curso": 6465,
  "\u2581hijos": 6466,
  "8%": 6467,
  "\u2581camino": 6468,
  "\u2581parking": 6469,
  "\u2581spread": 6470,
  "\u2581S\u0103": 6471,
  "\u2581boa": 6472,
  "\u2581tienes": 6473,
  "\u258100": 6474,
  "\u2581interno": 6475,
  "\u2581PE": 6476,
  "\u2581installation": 6477,
  "\u2581installations": 6478,
  "\u2581confidence": 6479,
  "leg": 6480,
  "\u2581School": 6481,
  "\u2581puedes": 6482,
  "\u2581Time": 6483,
  "\u2581raise": 6484,
  "\u2581Child": 6485,
  "tens": 6486,
  "\u2581minor": 6487,
  "\u0219i": 6488,
  "gres": 6489,
  "mma": 6490,
  "\u2581entities": 6491,
  "\u2581quien": 6492,
  "Di": 6493,
  "\u2581ceea": 6494,
  "\u2581debido": 6495,
  "\u2581cura": 6496,
  "\u2581Pot": 6497,
  "\u2581Venezuela": 6498,
  "\u2581rapporteur": 6499,
  "\u2581relatifs": 6500,
  "\u2581experiences": 6501,
  "\u2581propositions": 6502,
  "\u2581bag": 6503,
  "log": 6504,
  "\u2581caf\u00e9": 6505,
  "\u2581courses": 6506,
  "\u258163": 6507,
  "torio": 6508,
  ".1)": 6509,
  "\u2581CN": 6510,
  "\u2581explica": 6511,
  "DA": 6512,
  "\u2581threat": 6513,
  ".12": 6514,
  "\u2581amendment": 6515,
  "\u2581calling": 6516,
  "\u2581closely": 6517,
  "\u2581ch": 6518,
  "\u2581sito": 6519,
  "\u2581fel": 6520,
  "dul": 6521,
  "\u2581consulta": 6522,
  "\u2581expect": 6523,
  "\u2581troisi\u00e8me": 6524,
  "\u2581operaciones": 6525,
  "\u2581Life": 6526,
  "aba": 6527,
  "appel": 6528,
  "\u2581engine": 6529,
  "\u2581N\u00f3s": 6530,
  "\u2581Wait": 6531,
  "\u2581Alors": 6532,
  "\u2581continuer": 6533,
  "\u2581condizioni": 6534,
  "tado": 6535,
  "OC": 6536,
  "\u2581tasks": 6537,
  "len": 6538,
  "ken": 6539,
  "\u2581legislaci\u00f3n": 6540,
  "\u2581core": 6541,
  "av": 6542,
  "amos": 6543,
  "cional": 6544,
  "\u021bii": 6545,
  "\u2581rec": 6546,
  "\u2581gusta": 6547,
  "\u2581passed": 6548,
  "\u2581shopping": 6549,
  "\u2581broad": 6550,
  "PI": 6551,
  "\u2581lucru": 6552,
  "\u2581haciendo": 6553,
  "\u2581pesquisa": 6554,
  "\u2581visible": 6555,
  "\u2581happens": 6556,
  "\u2581r\u00e1pido": 6557,
  "\u2581ni\u00f1o": 6558,
  "\u2581connected": 6559,
  "tour": 6560,
  "sec": 6561,
  "\u2581comunicaci\u00f3n": 6562,
  "An": 6563,
  "rique": 6564,
  "\u2581procedimiento": 6565,
  "\u2581finance": 6566,
  "\u2581democracy": 6567,
  "\u2581Earth": 6568,
  "\u2581victim": 6569,
  "\u2581sample": 6570,
  "\u2581Io": 6571,
  "\u2581crise": 6572,
  "uk": 6573,
  "building": 6574,
  "\u2581600": 6575,
  "\u2581browser": 6576,
  "\u2581enterprises": 6577,
  "\u2581obstacles": 6578,
  "\u2581dintre": 6579,
  "\u2581appointed": 6580,
  "\u2581Avec": 6581,
  "\u2581concrete": 6582,
  "argent": 6583,
  "\u2581unde": 6584,
  "\u2581nevoie": 6585,
  "izado": 6586,
  "\u2581Email": 6587,
  "cat": 6588,
  "\u2581mini": 6589,
  "\u2581becomes": 6590,
  "\u2581asking": 6591,
  "\u2581Bor": 6592,
  "\u2581gold": 6593,
  "\u2581lois": 6594,
  "\u2581connect": 6595,
  "\u2581fondos": 6596,
  "\u2581fur": 6597,
  "\u2581accident": 6598,
  "\u2581Android": 6599,
  "\u2581coffee": 6600,
  "\u2581diseases": 6601,
  "\u2581importe": 6602,
  "\u2581j\u00f3venes": 6603,
  "vu": 6604,
  "valu": 6605,
  "\u2581sections": 6606,
  "point": 6607,
  "\u2581agosto": 6608,
  "\u2581Products": 6609,
  "\u2581north": 6610,
  "\u2581Corte": 6611,
  "\u2581launched": 6612,
  "mie": 6613,
  "\u2581succ\u00e8s": 6614,
  "table": 6615,
  "cou": 6616,
  "\u2581perhaps": 6617,
  "assurer": 6618,
  "\u25811997,": 6619,
  "\u2581sugar": 6620,
  "\u2581star": 6621,
  "\u2581poner": 6622,
  "\u2581telling": 6623,
  "\u2581Book": 6624,
  "\u2581locale": 6625,
  "lly": 6626,
  "\u2581courts": 6627,
  "\u2581establecimiento": 6628,
  "\u258167": 6629,
  "\u2581examiner": 6630,
  "\u2581facilitar": 6631,
  "\u2581provinces": 6632,
  "\u2581alcuni": 6633,
  "\u2581Panel": 6634,
  "\u2581sold": 6635,
  "\u2581Iran": 6636,
  "\u2581buildings": 6637,
  "activit\u00e9": 6638,
  "\u2581Covenant": 6639,
  "\u2581arrive": 6640,
  "\u2581Er": 6641,
  "\u2581spend": 6642,
  "\u2581assess": 6643,
  "\u25812010.": 6644,
  "\u2581announced": 6645,
  "\u2581penal": 6646,
  "\u25811987": 6647,
  "\u2581Long": 6648,
  "\u2581interne": 6649,
  "\u2581indeed": 6650,
  "\u2581technologie": 6651,
  "\u2581mouth": 6652,
  "\u2581bord": 6653,
  "\u2581Pat": 6654,
  "\u2581representantes": 6655,
  "\u2581p\u00e8re": 6656,
  "\u2581organes": 6657,
  "\u2581\u00e9tude": 6658,
  "\u2581verso": 6659,
  "\u2581manage": 6660,
  "\u2581mostrar": 6661,
  "\u2581pobreza": 6662,
  "NI": 6663,
  "\u2581suitable": 6664,
  "\u258114.": 6665,
  "\u2581oficial": 6666,
  "\u2581milk": 6667,
  "\u2581Santo": 6668,
  "\u2581Miembros": 6669,
  "\u2581Op": 6670,
  "-6": 6671,
  "tifs": 6672,
  "4)": 6673,
  "\u2581refer": 6674,
  "\u2581object": 6675,
  "dal": 6676,
  "\u2581postes": 6677,
  "\u015fti": 6678,
  "\u2581Roman": 6679,
  "\u2581r\u00e9gional": 6680,
  "\u2581pensa": 6681,
  "\u2581ratio": 6682,
  "\u2581Max": 6683,
  "zar": 6684,
  "\u2581missing": 6685,
  "\u2581correspondiente": 6686,
  "\u2581cool": 6687,
  "\u2581express": 6688,
  "\u2581identity": 6689,
  "\u2581gal": 6690,
  "\u2581Sun": 6691,
  "\u2581chapitre": 6692,
  "\u2581represented": 6693,
  "\u2581jurisdiction": 6694,
  "\u2581File": 6695,
  "rin": 6696,
  "\u2581Would": 6697,
  "\u2581sexo": 6698,
  "\u2581categor\u00eda": 6699,
  "\u2581prova": 6700,
  "\u2581Nunca": 6701,
  "\u2581Ki": 6702,
  "\u2581periodic": 6703,
  "\u2581num\u00e9ro": 6704,
  "\u2581appears": 6705,
  "\u2581define": 6706,
  "\u25812003.": 6707,
  "\u2581preuve": 6708,
  "ndre": 6709,
  "\u2581modification": 6710,
  "\u2581immediate": 6711,
  "h\u00e9": 6712,
  "LO": 6713,
  "6,": 6714,
  "\u2581an\u00e1lisis": 6715,
  "\u2581marriage": 6716,
  "\u2581comfort": 6717,
  "\u2581expertise": 6718,
  "\u2581audio": 6719,
  "\u2581disco": 6720,
  "not": 6721,
  "\u2581urgent": 6722,
  "82": 6723,
  "\u00e9ration": 6724,
  "EX": 6725,
  "\u2581chat": 6726,
  "DO": 6727,
  "\u2581messages": 6728,
  "n\u0163\u0103": 6729,
  "tr": 6730,
  "\u2581cose": 6731,
  "\u2581Ram": 6732,
  "OJ": 6733,
  "\u2581igualdad": 6734,
  "\u2581d\u00e9finition": 6735,
  "cade": 6736,
  "cord": 6737,
  "\u2581crazy": 6738,
  "\u2581Administration": 6739,
  "cteur": 6740,
  "v\u0103": 6741,
  "\u2581pictures": 6742,
  "\u2581lor": 6743,
  "bilit\u00e9": 6744,
  "\u2581inspection": 6745,
  "\u2581pr\u00e1cticas": 6746,
  "xe": 6747,
  "\u2581archivo": 6748,
  "\u2581prot\u00e9ger": 6749,
  "\u2581c\u00f4t\u00e9": 6750,
  "burg": 6751,
  "\u2581neste": 6752,
  "bb": 6753,
  "\u2581accessible": 6754,
  "\u2581historical": 6755,
  "\u2581books": 6756,
  "\u2581detention": 6757,
  "\u2581Radio": 6758,
  "\u2581giorni": 6759,
  "\u2581entreprise": 6760,
  "\u2581banks": 6761,
  "\u2581formes": 6762,
  "\u2581raz\u00f3n": 6763,
  "\u2581citoyens": 6764,
  "\u2581provisoire": 6765,
  "\u2581avea": 6766,
  "OP": 6767,
  "\u2581faisant": 6768,
  "\u2581250": 6769,
  "\u2581unui": 6770,
  "\u2581prop": 6771,
  "\u2581nuova": 6772,
  "\u2581applicant": 6773,
  "\u2581rapidement": 6774,
  "\u2581hate": 6775,
  "\u2581vice": 6776,
  "\u2581charg\u00e9": 6777,
  "\u2581espacio": 6778,
  "\u2581corruption": 6779,
  "\u2581Essa": 6780,
  "mission": 6781,
  "\u2581coup": 6782,
  "\u2581ES": 6783,
  "\u2581Their": 6784,
  "\u2581contenido": 6785,
  "\u2581Photo": 6786,
  "\u2581Local": 6787,
  "\u25811985": 6788,
  "ball": 6789,
  "\u2581poss\u00edvel": 6790,
  "itate": 6791,
  "\u2581\u00e1gua": 6792,
  "\u2581gouvernementale": 6793,
  "\u2581fl": 6794,
  "tain": 6795,
  "\u2581cele": 6796,
  "\u2581blog": 6797,
  "\u2581servi\u00e7os": 6798,
  "\u2581mark": 6799,
  "\u2581relacionadas": 6800,
  "\u00f1o": 6801,
  "MS": 6802,
  "\u2581confirmed": 6803,
  "pens": 6804,
  "\u25812009.": 6805,
  "\u2581employ\u00e9s": 6806,
  "\u2581ama": 6807,
  "\u2581puesto": 6808,
  "\u2581cat": 6809,
  "\u2581matar": 6810,
  "\u2581combined": 6811,
  "\u2581grounds": 6812,
  "\u2581ci\u00f2": 6813,
  "\u2581financiaci\u00f3n": 6814,
  "\u2581fil": 6815,
  "\u2581illegal": 6816,
  "\u25811996,": 6817,
  "\u2581innovative": 6818,
  "\u2581Mc": 6819,
  "\u2581completamente": 6820,
  "turi": 6821,
  "iera": 6822,
  "\u2581determinar": 6823,
  "\u2581dark": 6824,
  "\u2581plut\u00f4t": 6825,
  "\u2581Spirit": 6826,
  "\u2581served": 6827,
  "san": 6828,
  "\u2581businesses": 6829,
  "\u2581Communities": 6830,
  "\u25812:": 6831,
  "\u2581cop": 6832,
  "\u2581chemical": 6833,
  "\u2581Cependant": 6834,
  "\u2581Cro": 6835,
  "\u2581cra": 6836,
  "\u2581veut": 6837,
  "but": 6838,
  "mba": 6839,
  "\u2581M\u00e9": 6840,
  "\u2581qualit\u00e0": 6841,
  "\u2581\u00b7": 6842,
  "\u2581stations": 6843,
  "\u2581cou": 6844,
  "\u2581Europeu": 6845,
  "\u2581pres": 6846,
  "\u2581numerous": 6847,
  "\u2581Esse": 6848,
  "\u2581alguien": 6849,
  "at\u0103": 6850,
  "\u2581Chief": 6851,
  "stin": 6852,
  "\u2581approche": 6853,
  "\u2581sean": 6854,
  "\u2581derniers": 6855,
  "\u2581soci\u00e9t\u00e9s": 6856,
  "\u2581peuple": 6857,
  "\u2581Test": 6858,
  "\u2581reforma": 6859,
  "\u2581membro": 6860,
  "\u2581contar": 6861,
  "\u2581cliente": 6862,
  "\u2581dispose": 6863,
  "trice": 6864,
  "/1": 6865,
  "\u2581seria": 6866,
  "\u2581dog": 6867,
  "\u2581learned": 6868,
  "ias": 6869,
  "jar": 6870,
  "yn": 6871,
  "\u2581sister": 6872,
  "dere": 6873,
  "\u2581(4)": 6874,
  "\u2581represents": 6875,
  "\u2581sell": 6876,
  "\u2581Han": 6877,
  "\u2581luego": 6878,
  "\u2581update": 6879,
  "\u2581forum": 6880,
  "\u2581Live": 6881,
  "\u258193": 6882,
  "\u2581vente": 6883,
  "gal": 6884,
  "\u2581conflit": 6885,
  "und": 6886,
  "\u2581faciliter": 6887,
  "imento": 6888,
  "\u2581motion": 6889,
  "\u258189": 6890,
  "\u2581secr\u00e9tariat": 6891,
  "\u2581proteger": 6892,
  "\u2581Police": 6893,
  "\u2581mani": 6894,
  "\u2581Personal": 6895,
  "\u2581Depuis": 6896,
  "\u2581Give": 6897,
  "\u2581norma": 6898,
  "\u2581procedimientos": 6899,
  "\u2581mantenimiento": 6900,
  "ray": 6901,
  "\u2581Case": 6902,
  "\u2581UK": 6903,
  "\u258111,": 6904,
  "\u25811995,": 6905,
  "\u2581semaine": 6906,
  "\u2581contribuer": 6907,
  "www": 6908,
  "\u2581participar": 6909,
  "uso": 6910,
  "\u2581alguna": 6911,
  "\u2581structural": 6912,
  "\u2581publiques": 6913,
  "\u2581remained": 6914,
  "\u2581rispetto": 6915,
  ":30": 6916,
  "anza": 6917,
  "\u2581pr\u00e9sence": 6918,
  "\u2581previously": 6919,
  "\u2581panel": 6920,
  "analyse": 6921,
  "\u2581duration": 6922,
  "\u2581todav\u00eda": 6923,
  "\u2581residence": 6924,
  "\u2581posibilidad": 6925,
  "\u2581speaking": 6926,
  "\u2581consumers": 6927,
  "\u2581pregunta": 6928,
  "\u2581185": 6929,
  "\u2581meno": 6930,
  "\u0219": 6931,
  "ONU": 6932,
  "\u2581Summit": 6933,
  "\u2581James": 6934,
  "\u2581Chile": 6935,
  "\u2581Israeli": 6936,
  "Si": 6937,
  "matic": 6938,
  "Ex": 6939,
  "\u2581latter": 6940,
  "\u2581miss": 6941,
  "\u2581Sra": 6942,
  "\u2581Votre": 6943,
  "\u25812000.": 6944,
  "yo": 6945,
  "\u2581cred": 6946,
  "uma": 6947,
  "\u2581sp\u00e9ciale": 6948,
  "\u2581diverses": 6949,
  "\u2581fichier": 6950,
  "\u2581master": 6951,
  "\u2581sick": 6952,
  "\u2581examination": 6953,
  "Office": 6954,
  "\u2581reducing": 6955,
  "\u2581trei": 6956,
  "\u00e9tablissement": 6957,
  "\u2581e\u015fti": 6958,
  "\u2581introduce": 6959,
  "\u258199": 6960,
  "\u2581li\u00e9s": 6961,
  "\u2581consultatif": 6962,
  "\u2581powerful": 6963,
  "\u2581neither": 6964,
  "\u2581nova": 6965,
  "cco": 6966,
  "\u2581considers": 6967,
  "\u2581breve": 6968,
  "\u2581trouv\u00e9": 6969,
  "olo": 6970,
  "\u2581park": 6971,
  "nha": 6972,
  "\u2581detail": 6973,
  "\u2581tableau": 6974,
  "\u2581grands": 6975,
  "stan": 6976,
  "\u2581Bay": 6977,
  "\u2581\u00e9crit": 6978,
  "bon": 6979,
  "\u2581posts": 6980,
  "char": 6981,
  "\u2581comercio": 6982,
  "\u2581fourth": 6983,
  "\u2581previsto": 6984,
  "\u2581globale": 6985,
  "ric": 6986,
  "\u2581justicia": 6987,
  "\u2581looked": 6988,
  "rias": 6989,
  "\u2581propri\u00e9t\u00e9": 6990,
  "\u2581tratta": 6991,
  "\u2581filho": 6992,
  "\u2581Bro": 6993,
  "\u2581comprar": 6994,
  "\u2581termine": 6995,
  "\u2581figures": 6996,
  "\u2581\u00e1mbito": 6997,
  "l\u0103": 6998,
  "vul": 6999,
  "lation": 7000,
  "\u2581ning\u00fan": 7001,
  "\u2581equivalent": 7002,
  "\u2581receiving": 7003,
  "\u2581bois": 7004,
  "\u2581jeu": 7005,
  "\u2581revised": 7006,
  "room": 7007,
  "\u2581Technical": 7008,
  "\u2581UNDP": 7009,
  "\u2581Start": 7010,
  "\u2581acho": 7011,
  "\u2581pronto": 7012,
  "\u2581contacto": 7013,
  "\u2581sang": 7014,
  "\u2581respectively": 7015,
  "\u2581handle": 7016,
  "\u2581p\u00e2n\u0103": 7017,
  "\u2581cells": 7018,
  "ites": 7019,
  "\u2581governo": 7020,
  "\u2581classes": 7021,
  "\u2581examinar": 7022,
  "\u2581Vai": 7023,
  "ford": 7024,
  "\u00e1veis": 7025,
  "\u2581gratuit": 7026,
  "ku": 7027,
  "\u258196": 7028,
  "\u2581riguarda": 7029,
  "\u2581carrying": 7030,
  "pia": 7031,
  "\u2581weather": 7032,
  "\u2581taxes": 7033,
  "\u2581acting": 7034,
  "\u2581flat": 7035,
  "\u2581element": 7036,
  "n\u0163a": 7037,
  "uf": 7038,
  "\u2581Cur": 7039,
  "\u2581component": 7040,
  "\u2581Ger": 7041,
  "\u2581meilleure": 7042,
  "lho": 7043,
  "\u2581deste": 7044,
  "\u2581fais": 7045,
  "\u2581Parece": 7046,
  "\u2581sendo": 7047,
  "\u2581Sp": 7048,
  "\u2581transformation": 7049,
  "r\u00ed": 7050,
  "\u2581Science": 7051,
  "\u2581ser\u00eda": 7052,
  "ular": 7053,
  "\u2581holiday": 7054,
  "\u2581suggested": 7055,
  "\u2581d\u00e9lai": 7056,
  "\u2581declaration": 7057,
  "\u2581cons\u00e9quent": 7058,
  "\u2581deliver": 7059,
  ".10": 7060,
  "\u2581m\u00e8re": 7061,
  "star": 7062,
  "\u2581Foundation": 7063,
  "\u2581screen": 7064,
  "\u2581surtout": 7065,
  "(3)": 7066,
  "\u2581negli": 7067,
  "\u2581ait": 7068,
  "eva": 7069,
  "\u2581\u00f3rganos": 7070,
  "mus": 7071,
  "back": 7072,
  "mico": 7073,
  "\u2581territorial": 7074,
  "\u2581grandi": 7075,
  "\u2581significantly": 7076,
  "\u25812020": 7077,
  "\u2581election": 7078,
  "\u2581anymore": 7079,
  "\u2581statistiques": 7080,
  "\u2581marque": 7081,
  "\u2581discriminaci\u00f3n": 7082,
  "Po": 7083,
  "\u2581Ac": 7084,
  "\u2581involvement": 7085,
  "\u2581volte": 7086,
  "almente": 7087,
  "\u2581Ber": 7088,
  "\u2581\u00e9lev\u00e9": 7089,
  "\u2581demanda": 7090,
  "\u2581suffering": 7091,
  "\u2581Belgium": 7092,
  "\u2581quiere": 7093,
  "\u258168": 7094,
  "\u2581Monsieur": 7095,
  "\u2581Entonces": 7096,
  "tron": 7097,
  "\u2581\u00c3": 7098,
  "\u2581r\u00e9glementation": 7099,
  "\u2581circulation": 7100,
  "\u2581transparency": 7101,
  "\u2581%)": 7102,
  "\u2581sostenible": 7103,
  "\u2581Tur": 7104,
  "\u2581YOU": 7105,
  "\u2581conto": 7106,
  "\u2581tenha": 7107,
  "ega": 7108,
  "\u00e8rent": 7109,
  "\u2581union": 7110,
  "\u2581defini": 7111,
  "\u2581oggi": 7112,
  "eri": 7113,
  "bia": 7114,
  "\u2581bou": 7115,
  "\u2581val": 7116,
  "\u2581atr\u00e1s": 7117,
  "cep": 7118,
  "\u2581Dad": 7119,
  "gne": 7120,
  "\u2581older": 7121,
  "\u2581occur": 7122,
  "\u2581Unit": 7123,
  "\u2581alive": 7124,
  "\u2581crecimiento": 7125,
  "\u2581stupid": 7126,
  "\u2581aplica": 7127,
  "\u2581marchandises": 7128,
  "\u2581ourselves": 7129,
  "\u2581Family": 7130,
  "\u2581chosen": 7131,
  "\u2581escala": 7132,
  "\u2581Technology": 7133,
  "\u2581soul": 7134,
  "\u2581Notre": 7135,
  "\u2581Safety": 7136,
  "\u2581supports": 7137,
  "\u2581Royal": 7138,
  "\u2581testing": 7139,
  "\u2581twenty": 7140,
  "\u2581dinner": 7141,
  "\u2581hum": 7142,
  "\u2581Out": 7143,
  "\u2581Talvez": 7144,
  "NO": 7145,
  "\u2581li\u00e9es": 7146,
  "\u2581Questa": 7147,
  "BA": 7148,
  "\u2581faites": 7149,
  "\u2581exposure": 7150,
  "ight": 7151,
  "\u2581Gre": 7152,
  "eira": 7153,
  "\u2581Make": 7154,
  "What": 7155,
  "\u2581wrote": 7156,
  "\u2581reasonable": 7157,
  "\u2581industries": 7158,
  "\u2581ran": 7159,
  "\u2581FR": 7160,
  "\u2581v\u00e9rification": 7161,
  "\u258187": 7162,
  "\u2581ethnic": 7163,
  "\u2581resta": 7164,
  "sivo": 7165,
  "dro": 7166,
  "\u2581Which": 7167,
  "\u2581gratis": 7168,
  "\u2581ensuite": 7169,
  "\u2581m\u00e9canismes": 7170,
  "\u2581mostra": 7171,
  "\u2581Cosa": 7172,
  "ides": 7173,
  "\u2581gruppo": 7174,
  "\u2581genre": 7175,
  "\u25812002.": 7176,
  "c\u00eda": 7177,
  "\u2581Ch": 7178,
  "-12": 7179,
  "Que": 7180,
  "\u2581agency": 7181,
  "\u2581semanas": 7182,
  "az": 7183,
  "\u2581tratamento": 7184,
  "ign": 7185,
  "\u2581pr\u00e9vu": 7186,
  "\u2581ajudar": 7187,
  "\u2581helped": 7188,
  "\u2581vise": 7189,
  "\u2581Greek": 7190,
  "\u2581Lei": 7191,
  "\u2581principalmente": 7192,
  "\u2581direito": 7193,
  "\u2581guests": 7194,
  "gues": 7195,
  "igo": 7196,
  "ci\u00f3": 7197,
  "\u2581remaining": 7198,
  "\u2581achieving": 7199,
  "\u2581Ministers": 7200,
  "\u25811994,": 7201,
  "bl\u00e9": 7202,
  "\u2581Romania": 7203,
  "\u2581taille": 7204,
  "tare": 7205,
  "\u2581ami": 7206,
  "\u2581generation": 7207,
  "idos": 7208,
  "bit": 7209,
  "\u2581terreno": 7210,
  "hr": 7211,
  "\u2581m\u00e9dias": 7212,
  "\u2581eran": 7213,
  "num": 7214,
  "\u2581participantes": 7215,
  "\u2581remove": 7216,
  "rup": 7217,
  "\u2581juegos": 7218,
  "\u2581fondo": 7219,
  "\u2581qualcosa": 7220,
  "-8": 7221,
  "\u2581marcha": 7222,
  "\u2581Democratic": 7223,
  "\u2581pilot": 7224,
  "ving": 7225,
  "\u2581coin": 7226,
  "\u2581focused": 7227,
  "\u2581presentation": 7228,
  "TI": 7229,
  "pen": 7230,
  "\u2581Agenda": 7231,
  "\u2581perform": 7232,
  "\u2581forced": 7233,
  "\u2581Order": 7234,
  "it\u00e9s": 7235,
  "ius": 7236,
  "\u2581comigo": 7237,
  "lina": 7238,
  "\u2581Mini": 7239,
  "\u2581M\u0103": 7240,
  "\u2581Map": 7241,
  "cie": 7242,
  "\u2581identification": 7243,
  "-19": 7244,
  "\u2581m\u00e1ximo": 7245,
  "\u2581mid": 7246,
  "\u2581meat": 7247,
  "\u2581pace": 7248,
  "PP": 7249,
  "Su": 7250,
  "\u2581exp\u00e9rience": 7251,
  "\u2581directrices": 7252,
  "\u2581mesma": 7253,
  "\u2581decisione": 7254,
  "urilor": 7255,
  "\u2581Washington": 7256,
  "\u2581pues": 7257,
  "\u2581ment": 7258,
  "2011": 7259,
  "\u2581PNUD": 7260,
  "\u2581severe": 7261,
  "\u2581consommation": 7262,
  "\u2581meilleur": 7263,
  "\u2581Rica": 7264,
  "\u2581comprendre": 7265,
  "\u2581prote": 7266,
  "\u00e9tat": 7267,
  "\u2581gun": 7268,
  "\u2581utilis\u00e9s": 7269,
  "\u2581Cat": 7270,
  "uni": 7271,
  "\u2581Name": 7272,
  "\u2581giu": 7273,
  "\u2581S\u00e3o": 7274,
  "cr\u00e9": 7275,
  "\u2581profile": 7276,
  "\u2581title": 7277,
  "\u2581humana": 7278,
  "\u2581verifica": 7279,
  "\u2581visual": 7280,
  "\u2581tip": 7281,
  "\u2581ME": 7282,
  "\u2581D\u00e9claration": 7283,
  "\u2581sp\u00e9cifiques": 7284,
  "phi": 7285,
  "\u2581cat\u00e9gorie": 7286,
  "\u258102": 7287,
  "\u2581trabajadores": 7288,
  "\u2581comercial": 7289,
  "\u2581bisogno": 7290,
  "\u2581lugares": 7291,
  "\u2581indispensable": 7292,
  "\u2581creo": 7293,
  "\u2581applies": 7294,
  "\u2581sentiment": 7295,
  "Ro": 7296,
  "pl": 7297,
  "\u2581exclusive": 7298,
  "\u2581Egypt": 7299,
  "\u2581orders": 7300,
  "\u2581deixar": 7301,
  "\u2581visited": 7302,
  "\u2581Monday": 7303,
  "\u25812014,": 7304,
  "\u2581counter": 7305,
  "\u2581helping": 7306,
  "\u2581migration": 7307,
  "\u2581teachers": 7308,
  "\u2581pr\u00e9voit": 7309,
  "\u2581fils": 7310,
  "\u2581reducir": 7311,
  "\u2581constant": 7312,
  "\u2581alia": 7313,
  "\u2581nuestras": 7314,
  "z\u0103": 7315,
  "\u2581pr\u00e9sentation": 7316,
  "\u258184": 7317,
  "\u2581officer": 7318,
  "mann": 7319,
  "\u2581somos": 7320,
  "\u2581anno": 7321,
  "\u2581correspond": 7322,
  "\u2581Common": 7323,
  "\u2581unei": 7324,
  "\u2581firma": 7325,
  "\u2581gift": 7326,
  "\u2581directeur": 7327,
  "importance": 7328,
  "1)": 7329,
  "\u2581v\u00e9hicules": 7330,
  "\u2581\u00e9ducation": 7331,
  "lier": 7332,
  "\u2581cuisine": 7333,
  "\u2581chacun": 7334,
  "\u2581pessoa": 7335,
  "\u2581meant": 7336,
  "\u2581huge": 7337,
  "\u2581presentar": 7338,
  "\u2581tenue": 7339,
  "\u2581vale": 7340,
  "\u2581realidad": 7341,
  "\u2581devono": 7342,
  "\u2581wonderful": 7343,
  "\u2581superficie": 7344,
  "gger": 7345,
  "\u2581managed": 7346,
  "rons": 7347,
  "\u2581foot": 7348,
  "\u2581advanced": 7349,
  "ef": 7350,
  "\u2581explo": 7351,
  "\u2581deja": 7352,
  "nces": 7353,
  "\u2581Espa\u00f1a": 7354,
  "\u2581cr\u00e9\u00e9": 7355,
  "\u2581wind": 7356,
  "pond": 7357,
  "\u2581integral": 7358,
  "uv": 7359,
  "\u2581tecnolog\u00eda": 7360,
  "\u2581Montr\u00e9al": 7361,
  "\u2581sharing": 7362,
  "\u2581Up": 7363,
  "\u2581Bri": 7364,
  "ANT": 7365,
  "dll": 7366,
  "\u2581signature": 7367,
  "iones": 7368,
  "\u2581violent": 7369,
  "\u2581teu": 7370,
  "\u2581signal": 7371,
  "\u2581plein": 7372,
  "\u2581Point": 7373,
  "\u2581grow": 7374,
  "\u2581Ora": 7375,
  "\u2581Site": 7376,
  "\u2581dream": 7377,
  "\u258173": 7378,
  "\u2581torna": 7379,
  "lea": 7380,
  "fin": 7381,
  "\u2581bear": 7382,
  "\u2581gain": 7383,
  "DR": 7384,
  "\u2581Blog": 7385,
  "ee": 7386,
  "lum": 7387,
  "forme": 7388,
  "\u2581Onde": 7389,
  "field": 7390,
  "\u2581utile": 7391,
  "vali": 7392,
  "\u258176": 7393,
  "\u2581heat": 7394,
  "\u2581properties": 7395,
  "\u2581ACP": 7396,
  "/5": 7397,
  "\u2581z": 7398,
  "\u2581television": 7399,
  "boli": 7400,
  "ex\u00e9cution": 7401,
  "\u2581Lake": 7402,
  "\u2581vrai": 7403,
  "\u2581Protocolo": 7404,
  "\u2581cuales": 7405,
  "dora": 7406,
  "nier": 7407,
  "\u2581niveles": 7408,
  "\u2581fan": 7409,
  "t\u00e9s": 7410,
  "\u2581Secr\u00e9tariat": 7411,
  "\u258116.": 7412,
  "\u2581Muito": 7413,
  "oni": 7414,
  "\u2581\u00e9tablissements": 7415,
  "grad": 7416,
  "\u2581Sweden": 7417,
  "mark": 7418,
  "\u2581nine": 7419,
  "\u2581molti": 7420,
  "\u2581desta": 7421,
  "\u2581villa": 7422,
  "\u2581named": 7423,
  "\u2581relat\u00f3rio": 7424,
  "So": 7425,
  "\u2581nostri": 7426,
  "\u2581recommends": 7427,
  "\u2581pression": 7428,
  "EP": 7429,
  "\u2581quota": 7430,
  "\u2581Society": 7431,
  "\u2581facteurs": 7432,
  "\u2581rock": 7433,
  "\u2581flexible": 7434,
  "\u2581eficaz": 7435,
  "\u2581bastante": 7436,
  "\u2581signs": 7437,
  "guer": 7438,
  "ziona": 7439,
  "\u2581Following": 7440,
  "\u2581Jes\u00fas": 7441,
  "\u2581ali": 7442,
  "\u258191": 7443,
  "\u2581migrants": 7444,
  "\u2581aire": 7445,
  "\u2581activit\u00e9": 7446,
  "PT": 7447,
  "exploitation": 7448,
  "\u2581Bosnia": 7449,
  "cular": 7450,
  "gono": 7451,
  "\u2581cr\u00e9dit": 7452,
  "2000": 7453,
  "\u2581Strategy": 7454,
  "\u2581everybody": 7455,
  "\u2581arre": 7456,
  "\u2581Marco": 7457,
  "\u2581compl\u00e8te": 7458,
  "ngo": 7459,
  "\u2581consent": 7460,
  "\u2581certeza": 7461,
  "\u2581murder": 7462,
  "\u2581declaraci\u00f3n": 7463,
  "\u2581Framework": 7464,
  "HO": 7465,
  "\u2581Quebec": 7466,
  "\u2581concurrence": 7467,
  "row": 7468,
  "\u2581gi": 7469,
  "\u2581connaissances": 7470,
  "\u2581langues": 7471,
  "els": 7472,
  "\u2581mapa": 7473,
  "\u2581Video": 7474,
  "\u2581http": 7475,
  "\u2581sede": 7476,
  "\u2581chapter": 7477,
  "\u2581Bol": 7478,
  "\u2581lived": 7479,
  "\u2581pr\u00e9vues": 7480,
  "\u258150%": 7481,
  "\u2581soumis": 7482,
  "\u2581mulher": 7483,
  "\u2581nimic": 7484,
  "\u2581controls": 7485,
  "\u2581Todo": 7486,
  "\u2581reuniones": 7487,
  "\u2581environnemental": 7488,
  "\u2581Pacific": 7489,
  "\u2581energia": 7490,
  "\u2581Peace": 7491,
  "\u258186": 7492,
  "\u2581interesse": 7493,
  "\u2581d\u00e9mocratique": 7494,
  "\u2581returned": 7495,
  "\u2581petite": 7496,
  "\u2581palabras": 7497,
  "\u2581Middle": 7498,
  "\u2581eres": 7499,
  "1999": 7500,
  "\u2581participating": 7501,
  "\u2581imposed": 7502,
  "\u00eet": 7503,
  "\u2581di\u00e1logo": 7504,
  "\u2581professionals": 7505,
  "tives": 7506,
  "\u2581medicine": 7507,
  "Ar": 7508,
  "\u2581properly": 7509,
  "ature": 7510,
  "\u2581statistical": 7511,
  "\u2581Sierra": 7512,
  "til": 7513,
  "\u2581stra": 7514,
  "\u2581piu": 7515,
  "venu": 7516,
  "damente": 7517,
  "\u2581Tim": 7518,
  "\u2581settlement": 7519,
  "well": 7520,
  "ys": 7521,
  "\u2581unemployment": 7522,
  "\u2581findings": 7523,
  "\u2581Juan": 7524,
  "\u2581standing": 7525,
  "\u2581Chine": 7526,
  "\u2581condi\u00e7\u00f5es": 7527,
  "\u2581accords": 7528,
  "\u2581explained": 7529,
  "yan": 7530,
  "\u2581societ\u00e0": 7531,
  "\u2581humaines": 7532,
  "\u2581becoming": 7533,
  "\u00e9cu": 7534,
  "\u2581Cho": 7535,
  "\u0103ri": 7536,
  "\u2581desire": 7537,
  "\u2581Gas": 7538,
  "\u2581financier": 7539,
  "\u2581actes": 7540,
  "\u2581houses": 7541,
  "dessous": 7542,
  "fil": 7543,
  "\u2581voluntary": 7544,
  "\u2581conventions": 7545,
  "\u2581coraz\u00f3n": 7546,
  ".30": 7547,
  "\u2581planification": 7548,
  "\u2581players": 7549,
  "media": 7550,
  "\u2581Grazie": 7551,
  "\u2581career": 7552,
  "isse": 7553,
  "\u2581g\u00e9nero": 7554,
  "\u2581concentra": 7555,
  "\u2581all\u00ed": 7556,
  "\u2581r\u00e9fugi\u00e9s": 7557,
  "\u2581raisons": 7558,
  "\u2581mati\u00e8res": 7559,
  "cimiento": 7560,
  "\u2581brain": 7561,
  "wan": 7562,
  "\u2581Ser": 7563,
  "\u2581Ukraine": 7564,
  "\u2581estudios": 7565,
  "\u2581gr": 7566,
  "\u2581pois": 7567,
  "\u2581healthy": 7568,
  "\u2581vulnerable": 7569,
  "\u2581delegations": 7570,
  "\u2581ads": 7571,
  "\u2581Solo": 7572,
  "occasion": 7573,
  "appui": 7574,
  "\u2581Click": 7575,
  "\u2581Multi": 7576,
  "\u2581generale": 7577,
  "\u2581allo": 7578,
  "\u2581technological": 7579,
  "\u2581treat": 7580,
  "\u2581Bull": 7581,
  "/3": 7582,
  "tergovernmental": 7583,
  "\u2581qualidade": 7584,
  "\u2581Puerto": 7585,
  "\u2581ST": 7586,
  "\u2581possibilit\u00e9s": 7587,
  "\u2581paese": 7588,
  "\u2581obstante": 7589,
  "\u2581Puede": 7590,
  "\u2581estime": 7591,
  "\u2581fica": 7592,
  "\u2581heavy": 7593,
  "\u258197": 7594,
  "\u2581Suite": 7595,
  "ably": 7596,
  "\u2581retour": 7597,
  "6%": 7598,
  "\u2581Three": 7599,
  "\u2581amending": 7600,
  "RS": 7601,
  "\u2581Prix": 7602,
  "enda": 7603,
  "\u2581a\u00ed": 7604,
  "\u2581binding": 7605,
  "\u2581actividad": 7606,
  "\u2581plano": 7607,
  "\u2581worse": 7608,
  "\u2581command": 7609,
  "\u2581keeping": 7610,
  "\u2581crian\u00e7as": 7611,
  "\u2581fuori": 7612,
  "\u2581comfortable": 7613,
  "\u2581locaux": 7614,
  "\u2581Carta": 7615,
  "\u2581pagar": 7616,
  "\u2581dry": 7617,
  "PO": 7618,
  "\u2581produzione": 7619,
  "\u2581bringing": 7620,
  "\u2581puedan": 7621,
  "\u25811993,": 7622,
  "\u2581precio": 7623,
  "pas": 7624,
  "VE": 7625,
  "\u2581Really": 7626,
  "\u2581vino": 7627,
  "\u2581nici": 7628,
  "\u2581conception": 7629,
  "rus": 7630,
  "an\u00e7a": 7631,
  "RES": 7632,
  "\u2581huh": 7633,
  "\u2581river": 7634,
  "\u2581judge": 7635,
  "\u2581costa": 7636,
  "\u2581allocation": 7637,
  "\u2581lumi\u00e8re": 7638,
  "\u2581Sai": 7639,
  "\u2581recognize": 7640,
  "\u2581imagine": 7641,
  "\u2581thousand": 7642,
  "\u2581geo": 7643,
  "\u2581importants": 7644,
  "TP": 7645,
  "nea": 7646,
  "\u2581Rules": 7647,
  "\u2581engage": 7648,
  "\u2581undertaking": 7649,
  "isant": 7650,
  "\u2581mentre": 7651,
  "istic": 7652,
  "\u2581quiet": 7653,
  "\u2581\u00ee": 7654,
  "\u25812011.": 7655,
  "\u2581recommend": 7656,
  "rc": 7657,
  "\u2581rose": 7658,
  "\u2581dura": 7659,
  "\u2581feed": 7660,
  "\u2581Dal": 7661,
  "\u2581Tro": 7662,
  "\u2581funciones": 7663,
  "\u25812001.": 7664,
  "FI": 7665,
  "az\u0103": 7666,
  "EUR": 7667,
  "\u2581travailler": 7668,
  "\u2581sco": 7669,
  "\u00edas": 7670,
  "\u2581enqu\u00eate": 7671,
  "\u2581mejores": 7672,
  "\u00e2ncia": 7673,
  "\u2581\u00e9tablir": 7674,
  "\u2581an\u00e1lise": 7675,
  "\u2581eligible": 7676,
  "ev": 7677,
  "\u2581Accueil": 7678,
  "\u2581failed": 7679,
  "\u2581exemplo": 7680,
  "\u2581ON": 7681,
  "\u2581opini\u00f3n": 7682,
  "fri": 7683,
  "\u2581compatible": 7684,
  "Pre": 7685,
  "imi": 7686,
  "\u2581updated": 7687,
  "\u2581propos\u00e9": 7688,
  "\u2581approaches": 7689,
  "ologia": 7690,
  "\u2581Bio": 7691,
  "SO": 7692,
  "4%": 7693,
  "\u2581Implementation": 7694,
  "including": 7695,
  "\u2581drop": 7696,
  "\u2581Festival": 7697,
  "\u2581funcionarios": 7698,
  "\u2581combina": 7699,
  "flu": 7700,
  "\u2581controllo": 7701,
  "\u2581conversion": 7702,
  "\u2581sets": 7703,
  "\u2581cumplimiento": 7704,
  "\u2581welcomed": 7705,
  "GA": 7706,
  "\u2581dance": 7707,
  "\u2581aren": 7708,
  "km": 7709,
  "\u2581investments": 7710,
  "g\u00e9n": 7711,
  "\u2581\u00e9missions": 7712,
  "\u2581journey": 7713,
  "act": 7714,
  "\u258194": 7715,
  "\u2581t\u00e9l\u00e9": 7716,
  "\u2581r\u00e9forme": 7717,
  "\u2581resulta": 7718,
  "\u2581Fort": 7719,
  "\u2581Does": 7720,
  "\u2581gobiernos": 7721,
  "\u2581comer": 7722,
  "\u2581necess\u00e1rio": 7723,
  "\u2581defence": 7724,
  "\u2581tales": 7725,
  "\u2581www": 7726,
  "\u2581augmentation": 7727,
  "\u2581assi": 7728,
  "7,": 7729,
  "\u25812012.": 7730,
  "\u2581prestar": 7731,
  "\u2581Pr\u00e9": 7732,
  "\u2581periods": 7733,
  "ath": 7734,
  "\u2581febrero": 7735,
  "\u2581indirect": 7736,
  "\u258117.": 7737,
  "\u2581certification": 7738,
  "\u2581toutefois": 7739,
  "\u2581andare": 7740,
  "\u258169": 7741,
  "5)": 7742,
  "\u2581Articolo": 7743,
  "\u2581temas": 7744,
  "rina": 7745,
  "\u2581feliz": 7746,
  "\u2581restaurants": 7747,
  "l\u00e1": 7748,
  "\u2581Toronto": 7749,
  "\u2581Sabe": 7750,
  "\u2581suivre": 7751,
  "\u2581stocks": 7752,
  "\u2581Jos\u00e9": 7753,
  "\u2581theme": 7754,
  "\u2581s\u00e9jour": 7755,
  "vam": 7756,
  "\u2581interventions": 7757,
  "\u2581examin\u00e9": 7758,
  "2010": 7759,
  "\u2581somebody": 7760,
  "\u2581muestra": 7761,
  "\u2581secondary": 7762,
  "sser": 7763,
  "\u2581Protocole": 7764,
  "\u2581mol": 7765,
  "\u2581acceptable": 7766,
  "wood": 7767,
  "tus": 7768,
  "\u2581DO": 7769,
  "\u2581menor": 7770,
  "\u2581Team": 7771,
  "\u2581iniciativas": 7772,
  "7%": 7773,
  "\u2581chambres": 7774,
  "\u2581v\u00edctimas": 7775,
  "\u2581sola": 7776,
  "ben": 7777,
  "\u2581industria": 7778,
  "\u2581Sunday": 7779,
  "\u2581student": 7780,
  "\u2581centros": 7781,
  "\u2581rare": 7782,
  "\u2581increasingly": 7783,
  "\u2581si\u00e8cle": 7784,
  "\u2581background": 7785,
  "\u2581chambre": 7786,
  "\u2581memory": 7787,
  "\u2581peaceful": 7788,
  "\u2581transports": 7789,
  "efficacit\u00e9": 7790,
  "\u2581exclu": 7791,
  "\u2581farm": 7792,
  "\u2581larger": 7793,
  "\u2581Light": 7794,
  "\u2581greatest": 7795,
  "\u2581aplica\u00e7\u00e3o": 7796,
  "\u2581Deve": 7797,
  "\u0219ti": 7798,
  "\u00e9conomie": 7799,
  "\u2581Kar": 7800,
  "\u2581directamente": 7801,
  "\u2581Mira": 7802,
  "\u2581boat": 7803,
  "\u2581cur": 7804,
  "enseignement": 7805,
  "cum": 7806,
  "\u2581fazendo": 7807,
  "\u2581direcci\u00f3n": 7808,
  "\u2581compra": 7809,
  "\u2581diffusion": 7810,
  "ever": 7811,
  "\u2581Jan": 7812,
  "\u2581lignes": 7813,
  "\u2581Call": 7814,
  "\u2581diritto": 7815,
  "\u2581jur": 7816,
  "\u2581mecanismos": 7817,
  "rac": 7818,
  "\u2581encouraged": 7819,
  "\u2581sole": 7820,
  "nato": 7821,
  "8,": 7822,
  "\u2581termos": 7823,
  "\u2581seat": 7824,
  "\u2581Terra": 7825,
  "\u2581evil": 7826,
  "\u2581changing": 7827,
  "\u2581usage": 7828,
  "mand": 7829,
  "cap": 7830,
  "\u2581Ministerio": 7831,
  "\u2581Lorsque": 7832,
  "tempo": 7833,
  "\u2581(4": 7834,
  "\u2581seeing": 7835,
  "\u2581privado": 7836,
  "\u2581mutual": 7837,
  "\u2581jouer": 7838,
  "\u2581Junta": 7839,
  "\u2581ejercicio": 7840,
  "\u2581lettre": 7841,
  "\u2581diferente": 7842,
  "\u2581departments": 7843,
  "\u2581soluci\u00f3n": 7844,
  "\u2581fonctionnaires": 7845,
  "\u2581sports": 7846,
  "gel": 7847,
  "rne": 7848,
  "\u2581800": 7849,
  "\u2581driving": 7850,
  "ified": 7851,
  "FA": 7852,
  "\u2581varias": 7853,
  "far": 7854,
  "ration": 7855,
  "\u2581caract\u00e9ristique": 7856,
  "\u00e9laboration": 7857,
  "\u2581t\u00eate": 7858,
  "\u2581confiance": 7859,
  "FP": 7860,
  "\u2581Watch": 7861,
  "book": 7862,
  "mmer": 7863,
  "right": 7864,
  "\u2581CH": 7865,
  "\u2581corresponding": 7866,
  "\u2581Aqui": 7867,
  "top": 7868,
  "sas": 7869,
  "mentos": 7870,
  "\u2581dossier": 7871,
  "\u2581Hall": 7872,
  "\u2581Thursday": 7873,
  "\u2581dispuesto": 7874,
  "\u2581tonnes": 7875,
  "\u2581racial": 7876,
  "5,": 7877,
  "\u2581Christmas": 7878,
  "\u2581facto": 7879,
  "aries": 7880,
  "\u2581\u00e9lectronique": 7881,
  "\u2581oportunidad": 7882,
  "DP": 7883,
  "cora": 7884,
  "\u2581PDF": 7885,
  "\u2581fol": 7886,
  "\u2581wear": 7887,
  "\u2581Rec": 7888,
  "\u2581S\u00f3lo": 7889,
  "\u2581Departamento": 7890,
  "\u2581homens": 7891,
  "ami": 7892,
  "\u021be": 7893,
  "\u2581faits": 7894,
  "AB": 7895,
  "\u2581fuerte": 7896,
  "\u2581Games": 7897,
  "\u2581juntos": 7898,
  "\u2581municipal": 7899,
  "\u2581priorit\u00e9s": 7900,
  "\u2581straight": 7901,
  "\u2581th": 7902,
  "\u00e9gard": 7903,
  "\u2581specialized": 7904,
  "\u2581ia": 7905,
  "LI": 7906,
  "\u2581destino": 7907,
  "\u2581hundred": 7908,
  "\u2581elected": 7909,
  "\u2581sitting": 7910,
  "\u2581meus": 7911,
  "\u2581bande": 7912,
  "\u2581recon": 7913,
  "\u2581seeking": 7914,
  "sos": 7915,
  "\u2581competitive": 7916,
  "\u2581carbon": 7917,
  "\u2581Resources": 7918,
  "\u2581LORD": 7919,
  "\u2581Quer": 7920,
  "\u2581experienced": 7921,
  "NE": 7922,
  "\u2581objet": 7923,
  "\u2581administraci\u00f3n": 7924,
  "\u2581guarda": 7925,
  "\u2581sup": 7926,
  "\u2581Cred": 7927,
  "\u258171": 7928,
  "MENT": 7929,
  "ien": 7930,
  "\u2581declared": 7931,
  "\u2581song": 7932,
  "\u2581occurred": 7933,
  "\u2581int\u00e9r\u00eats": 7934,
  "\u2581Pres": 7935,
  "\u2581Reg": 7936,
  "\u2581Cultural": 7937,
  "\u2581disarmament": 7938,
  "\u2581Industrial": 7939,
  "\u2581requisitos": 7940,
  "\u2581\u00e9xito": 7941,
  "\u2581studi": 7942,
  "\u2581f\u00e9d\u00e9ral": 7943,
  "\u2581opposition": 7944,
  "\u2581siano": 7945,
  "\u2581comptes": 7946,
  "\u2581Availability": 7947,
  "\u2581libro": 7948,
  "\u2581~": 7949,
  "\u2581Mom": 7950,
  "\u2581Tel": 7951,
  "\u2581costi": 7952,
  "\u2581at\u00e2t": 7953,
  "\u2581necessario": 7954,
  "rebbe": 7955,
  "\u2581Word": 7956,
  "\u2581parent": 7957,
  "\u2581removed": 7958,
  "\u2581electoral": 7959,
  "\u2581Ottawa": 7960,
  "\u2581S\u00e9": 7961,
  "\u2581operate": 7962,
  "objectif": 7963,
  "\u2581namely": 7964,
  "\u2581List": 7965,
  "\u2581Peru": 7966,
  "\u2581relaciones": 7967,
  "\u2581servizio": 7968,
  "\u2581Matt": 7969,
  "\u2581Bruxelles": 7970,
  "\u2581transfert": 7971,
  "\u2581Bur": 7972,
  "\u2581propone": 7973,
  "\u2581actuelle": 7974,
  "200": 7975,
  "\u2581anglais": 7976,
  "\u2581queria": 7977,
  "put": 7978,
  "\u2581fill": 7979,
  "\u2581finding": 7980,
  "\u2581Im": 7981,
  "==": 7982,
  "\u00e9tude": 7983,
  "\u2581obra": 7984,
  "\u2581ma\u00f1ana": 7985,
  "sal": 7986,
  "\u2581Pays": 7987,
  "\u2581Shi": 7988,
  "\u2581constitute": 7989,
  "\u2581Rose": 7990,
  "\u2581driver": 7991,
  "\u2581MP": 7992,
  "\u2581Acuerdo": 7993,
  "\u2581peacekeeping": 7994,
  "\u2581cuidado": 7995,
  "\u2581coordinaci\u00f3n": 7996,
  "ik": 7997,
  "\u2581hist\u00f3ria": 7998,
  "\u2581primarily": 7999,
  "\u2581Prime": 8000,
  "\u2581subsequent": 8001,
  "2003": 8002,
  "low": 8003,
  "\u2581sec": 8004,
  "\u2581Standard": 8005,
  "\u2581showing": 8006,
  "\u2581Penal": 8007,
  "pone": 8008,
  "\u258110%": 8009,
  "\u2581profession": 8010,
  "\u2581dec\u00e2t": 8011,
  "SD": 8012,
  "\u2581CEE": 8013,
  "VA": 8014,
  "\u2581forth": 8015,
  "\u2581diversos": 8016,
  "\u2581pedir": 8017,
  "rul": 8018,
  "\u2581Jerusalem": 8019,
  "IV": 8020,
  "\u2581alcohol": 8021,
  "abord": 8022,
  "\u25811984": 8023,
  "\u2581est\u00e9": 8024,
  "\u2581sabes": 8025,
  "n\u00e9e": 8026,
  "lev": 8027,
  "\u2581suggest": 8028,
  "\u2581demasiado": 8029,
  "\u2581profesional": 8030,
  "\u2581sweet": 8031,
  "ological": 8032,
  "\u2581Banque": 8033,
  "\u2581senior": 8034,
  "\u2581tratar": 8035,
  "ill": 8036,
  "veni": 8037,
  "\u2581Model": 8038,
  "ibles": 8039,
  "\u2581comuni": 8040,
  "\u2581Sorry": 8041,
  "\u2581senso": 8042,
  "\u2581substantial": 8043,
  "].": 8044,
  "\u2581ski": 8045,
  "\u2581discover": 8046,
  "-7": 8047,
  "\u2581Posso": 8048,
  "\u2581Stop": 8049,
  "labor": 8050,
  "\u2581nossos": 8051,
  "\u2581Training": 8052,
  "\u258178": 8053,
  "\u2581summary": 8054,
  "\u2581m\u00e9thode": 8055,
  "\u2581tenga": 8056,
  "\u2581catch": 8057,
  "\u2581juridiques": 8058,
  "sar": 8059,
  "\u2581Charles": 8060,
  "ow": 8061,
  "\u2581vero": 8062,
  "\u2581manual": 8063,
  "ifier": 8064,
  "\u2581cards": 8065,
  "itatea": 8066,
  "tiche": 8067,
  "\u2581heading": 8068,
  "\u2581chemin": 8069,
  "\u2581Ur": 8070,
  "aj": 8071,
  "\u2581\u00eentre": 8072,
  "\u2581dare": 8073,
  "dade": 8074,
  "\u2581aceast\u0103": 8075,
  "\u2581buen": 8076,
  "\u2581bat": 8077,
  "\u2581produ": 8078,
  "\u2581Soy": 8079,
  "\u2581Pakistan": 8080,
  "\u2581tension": 8081,
  "\u2581certificate": 8082,
  "\u2581fat": 8083,
  "\u2581transparent": 8084,
  "\u2581Cre": 8085,
  "cien": 8086,
  "\u2581n\u00e9gociations": 8087,
  "late": 8088,
  "2012": 8089,
  "bilit\u00e0": 8090,
  "rono": 8091,
  "\u2581iar": 8092,
  "-20": 8093,
  "\u2581opinions": 8094,
  "\u2581controlled": 8095,
  "\u2581presse": 8096,
  "\u2581Whereas": 8097,
  "\u2581Nice": 8098,
  "\u2581parle": 8099,
  "\u2581t\u0103u": 8100,
  "Ho": 8101,
  "law": 8102,
  "\u2581multe": 8103,
  "\u2581vessels": 8104,
  "\u258179": 8105,
  "c\u00e7\u00e3o": 8106,
  "\u2581petits": 8107,
  "nny": 8108,
  "\u2581Seu": 8109,
  "vole": 8110,
  "\u2581propuestas": 8111,
  "\u2581SP": 8112,
  "\u2581Sala": 8113,
  "\u2581m\u00ednimo": 8114,
  "\u2581communaut\u00e9s": 8115,
  "\u2581subjects": 8116,
  "\u2581DU": 8117,
  "iano": 8118,
  "\u2581EESC": 8119,
  "\u2581Quand": 8120,
  "\u00e9galit\u00e9": 8121,
  "\u2581Isto": 8122,
  "euses": 8123,
  "\u2581decis\u00e3o": 8124,
  "\u2581Care": 8125,
  "\u2581Blue": 8126,
  "\u2581Further": 8127,
  "\u015fte": 8128,
  "\u2581Ainsi": 8129,
  "\u2581telephone": 8130,
  "\u2581avantages": 8131,
  "\u2581shape": 8132,
  "rant": 8133,
  "\u2581California": 8134,
  "\u2581USD": 8135,
  "vre": 8136,
  "\u2581plastic": 8137,
  "\u2581conseils": 8138,
  "\u2581risco": 8139,
  "\u2581ain": 8140,
  "\u2581paga": 8141,
  "\u2581database": 8142,
  "\u2581Bou": 8143,
  "\u2581Poland": 8144,
  "\u2581rela": 8145,
  "\u2581Korea": 8146,
  "\u2581Adam": 8147,
  "\u2581pr\u00f3ximo": 8148,
  "\u2581sos": 8149,
  "\u2581ancient": 8150,
  "\u2581sair": 8151,
  "\u2581cita": 8152,
  "\u2581Market": 8153,
  "\u2581rou": 8154,
  "hn": 8155,
  "coli": 8156,
  "\u2581Mediterranean": 8157,
  "\u2581totalmente": 8158,
  "\u2581cars": 8159,
  "\u2581m\u00fasica": 8160,
  "\u2581pic": 8161,
  "\u2581pied": 8162,
  "\u2581especiales": 8163,
  "\u2581anual": 8164,
  "\u2581delay": 8165,
  "eth": 8166,
  "\u2581relief": 8167,
  "\u2581lesquelles": 8168,
  "\u2581qualsiasi": 8169,
  "\u2581Travel": 8170,
  "\u2581IS": 8171,
  "\u2581targets": 8172,
  "6)": 8173,
  "\u2581feature": 8174,
  "\u2581refiere": 8175,
  "phy": 8176,
  "\u2581trafic": 8177,
  "\u2581Northern": 8178,
  "\u2581dates": 8179,
  "\u2581sup\u00e9rieur": 8180,
  "jas": 8181,
  "r\u00f2": 8182,
  "\u2581Caribbean": 8183,
  "ibi": 8184,
  "\u2581lie": 8185,
  "\u2581symptoms": 8186,
  "fen": 8187,
  "\u2581contacts": 8188,
  "\u2581quick": 8189,
  "\u258104": 8190,
  "\u2581Louis": 8191,
  "\u2581shower": 8192,
  "\u2581witness": 8193,
  "\u2581increases": 8194,
  "\u2581$2": 8195,
  "\u2581attitude": 8196,
  "\u2581extend": 8197,
  "\u2581supplies": 8198,
  "\u2581planes": 8199,
  "\u2581limites": 8200,
  "\u2581CESE": 8201,
  "\u2581cazul": 8202,
  "sson": 8203,
  "ude": 8204,
  "mpe": 8205,
  "\u2581Nova": 8206,
  "\u2581operators": 8207,
  "\u2581escrito": 8208,
  "\u2581posici\u00f3n": 8209,
  "\u2581consists": 8210,
  "tten": 8211,
  "\u2581ah\u00ed": 8212,
  "\u2581actos": 8213,
  "\u2581p\u00e9nale": 8214,
  "\u2581utili": 8215,
  "\u2581asegurar": 8216,
  "long": 8217,
  "\u2581quantity": 8218,
  "\u2581promise": 8219,
  "\u2581propia": 8220,
  "\u2581Big": 8221,
  "\u2581trabajar": 8222,
  "\u2581strat\u00e9gies": 8223,
  "\u2581Questions": 8224,
  "\u2581permitir": 8225,
  "\u2581army": 8226,
  "\u2581Cet": 8227,
  "vide": 8228,
  "nant": 8229,
  "sky": 8230,
  "\u2581valid": 8231,
  "\u2581funciona": 8232,
  "\u2581expansion": 8233,
  "\u2581prepara": 8234,
  "\u2581tree": 8235,
  "\u2581Mur": 8236,
  "\u2581pol\u00edtico": 8237,
  "\u2581abrir": 8238,
  "\u00bf": 8239,
  "\u2581caracter\u00edsticas": 8240,
  "\u2581avut": 8241,
  "\u2581hacerlo": 8242,
  "\u2581Far": 8243,
  "voca": 8244,
  "\u2581gubernamentales": 8245,
  "\u2581argument": 8246,
  "\u2581respeito": 8247,
  "igu": 8248,
  "\u2581enfoque": 8249,
  "\u2581enquanto": 8250,
  "\u2581cumplir": 8251,
  "\u2581pasa": 8252,
  "\u2581interpretation": 8253,
  "\u2581ii": 8254,
  "\u2581visa": 8255,
  "\u2581oltre": 8256,
  "\u2581poderia": 8257,
  "ncias": 8258,
  "\u2581diversity": 8259,
  "\u2581collected": 8260,
  "\u2581mountain": 8261,
  "\u2581favore": 8262,
  "\u2581pi\u00e8ces": 8263,
  "\u2581beauty": 8264,
  "pus": 8265,
  "\u2581considering": 8266,
  "gge": 8267,
  "\u2581Unido": 8268,
  "\u2581reducci\u00f3n": 8269,
  "AIDS": 8270,
  "\u2581sectores": 8271,
  "mpi": 8272,
  "\u2581solar": 8273,
  "\u2581Labour": 8274,
  "\u2581strat\u00e9gique": 8275,
  "FC": 8276,
  "\u2581disabilities": 8277,
  "\u2581covering": 8278,
  "\u2581luogo": 8279,
  "\u2581repr\u00e9sente": 8280,
  "\u2581inferior": 8281,
  "\u2581Char": 8282,
  "\u2581climat": 8283,
  "\u2581registro": 8284,
  "\u2581relax": 8285,
  "tribu": 8286,
  "produ": 8287,
  "\u2581bur": 8288,
  "\u2581realize": 8289,
  "\u2581independence": 8290,
  "\u2581elegir": 8291,
  "\u2581currency": 8292,
  "\u2581maintained": 8293,
  "\u2581Skip": 8294,
  "a\u0163i": 8295,
  "\u2581submission": 8296,
  "\u2581cable": 8297,
  "\u2581Canadians": 8298,
  "ateur": 8299,
  "\u2581adults": 8300,
  "\u2581algum": 8301,
  "\u2581bor": 8302,
  "\u2581promoci\u00f3n": 8303,
  "\u2581nucl\u00e9aires": 8304,
  "\u2581Figure": 8305,
  "\u2581Both": 8306,
  "\u2581M\u00e9xico": 8307,
  "\u2581fell": 8308,
  "\u2581origine": 8309,
  "\u2581lesquels": 8310,
  "\u2581termina": 8311,
  "\u2581Comunidade": 8312,
  "\u2581vent": 8313,
  "\u2581employee": 8314,
  "aggio": 8315,
  "\u2581DI": 8316,
  "\u2581Micro": 8317,
  "\u2581diversas": 8318,
  "\u2581porter": 8319,
  "\u2581cam": 8320,
  "\u2581Rico": 8321,
  "dom": 8322,
  "\u2581ID": 8323,
  "\u2581pleasure": 8324,
  "\u2581proporcionar": 8325,
  "\u2581Mel": 8326,
  "ising": 8327,
  "\u2581fr": 8328,
  "\u2581manufacturer": 8329,
  "\u2581estima": 8330,
  "\u2581Ajouter": 8331,
  "ound": 8332,
  "cule": 8333,
  "\u2581mur": 8334,
  "\u2581invitation": 8335,
  "\u2581nou": 8336,
  "\u2581sembra": 8337,
  "\u2581alte": 8338,
  "\u2581algumas": 8339,
  "\u2581ciudadanos": 8340,
  "\u25812013.": 8341,
  "\u2581Ana": 8342,
  "\u2581electric": 8343,
  "\u2581golf": 8344,
  "\u2581d\u00fb": 8345,
  "\u2581assez": 8346,
  "quer": 8347,
  "puesta": 8348,
  "\u00e9t\u00e9": 8349,
  "\u2581ellas": 8350,
  "illo": 8351,
  "\u2581supervision": 8352,
  "\u2581fuerza": 8353,
  "box": 8354,
  "\u2581Ku": 8355,
  "CT": 8356,
  "\u2581verde": 8357,
  "\u2581Bulgaria": 8358,
  "\u2581mulheres": 8359,
  "\u2581pose": 8360,
  "\u2581vom": 8361,
  "gy": 8362,
  "\u2581queda": 8363,
  "\u2581g\u00e9n\u00e9ralement": 8364,
  "\u2581f\u00edsica": 8365,
  "\u2581souhaite": 8366,
  "\u2581homo": 8367,
  "fini": 8368,
  "\u2581situated": 8369,
  "\u2581partenariat": 8370,
  "MC": 8371,
  "\u2581finished": 8372,
  "light": 8373,
  "ition": 8374,
  "\u2581electricity": 8375,
  "\u2581bill": 8376,
  "\u2581Budget": 8377,
  "\u2581cantidad": 8378,
  "\u2581embora": 8379,
  "\u2581\u00eenc\u0103": 8380,
  "\u2581therapy": 8381,
  "\u2581nearly": 8382,
  "tei": 8383,
  "\u2581terrible": 8384,
  "\u2581cultures": 8385,
  "\u2581peine": 8386,
  "\u2581engaged": 8387,
  "Les": 8388,
  "\u2581vostro": 8389,
  "\u2581terrorismo": 8390,
  "\u2581agentes": 8391,
  "\u2581supra": 8392,
  "\u2581actors": 8393,
  "\u2581lay": 8394,
  "\u25813)": 8395,
  "\u2581Cop": 8396,
  "\u2581Gri": 8397,
  "\u2581Allah": 8398,
  "\u2581assume": 8399,
  "\u2581champ": 8400,
  "prov": 8401,
  "\u2581adverse": 8402,
  "\u2581budgetary": 8403,
  "\u2581attraverso": 8404,
  "\u2581Bom": 8405,
  "\u2581capaz": 8406,
  "\u2581Tar": 8407,
  "\u2581membership": 8408,
  "verse": 8409,
  "\u2581acquis": 8410,
  "\u2581waters": 8411,
  "\u25811970": 8412,
  "\u2581worldwide": 8413,
  "\u2581Four": 8414,
  "\u2581regulamento": 8415,
  "7)": 8416,
  "\u2581finish": 8417,
  "wer": 8418,
  "\u2581Line": 8419,
  "\u2581correspondant": 8420,
  "\u2581inclusion": 8421,
  "\u2581pol\u00edticos": 8422,
  "\u2581Gaza": 8423,
  "\u2581tens": 8424,
  "\u2581Natural": 8425,
  "cimento": 8426,
  "\u2581potencial": 8427,
  "\u2581attacks": 8428,
  "\u2581appointment": 8429,
  "\u2581dimensions": 8430,
  "\u2581CI": 8431,
  "etti": 8432,
  "/2006": 8433,
  "\u2581r\u00e9gimen": 8434,
  "\u2581Win": 8435,
  "\u2581continuar": 8436,
  "\u2581capitale": 8437,
  "1.": 8438,
  "\u2581Key": 8439,
  "\u2581J\u00e9sus": 8440,
  "\u2581cine": 8441,
  "\u2581r\u00e9gionales": 8442,
  "nor": 8443,
  "\u2581genera": 8444,
  "\u2581Joseph": 8445,
  "\u2581colour": 8446,
  "\u2581maritime": 8447,
  "\u25811982": 8448,
  "win": 8449,
  "\u2581traite": 8450,
  "\u2581redes": 8451,
  "n\u021b\u0103": 8452,
  "sum": 8453,
  "\u2581passion": 8454,
  "ulation": 8455,
  "\u258108": 8456,
  "\u2581wi": 8457,
  "\u2581culpa": 8458,
  "r\u00e3o": 8459,
  "\u2581pago": 8460,
  "\u2581directiva": 8461,
  "\u2581Points": 8462,
  "\u25811.2": 8463,
  "altro": 8464,
  "\u2581jud": 8465,
  "\u2581ocupa": 8466,
  "\u2581ISO": 8467,
  "\u2581examples": 8468,
  "tario": 8469,
  "\u2581helps": 8470,
  "\u2581prea": 8471,
  "\u2581ice": 8472,
  "\u2581humano": 8473,
  "exp\u00e9rience": 8474,
  "\u2581allowing": 8475,
  "\u2581prezzo": 8476,
  "\u2581estrategia": 8477,
  "\u2581Beach": 8478,
  "\u2581MA": 8479,
  "\u2581Wednesday": 8480,
  "\u2581codes": 8481,
  "\u2581garanti": 8482,
  "\u2581loved": 8483,
  "hen": 8484,
  "\u2581conven": 8485,
  "-9": 8486,
  "\u2581ill": 8487,
  "\u2581presents": 8488,
  "WP": 8489,
  "\u2581conflits": 8490,
  "\u2581truly": 8491,
  "\u2581Tengo": 8492,
  "\u2581Class": 8493,
  "\u2581sought": 8494,
  "\u25811.3": 8495,
  "lot": 8496,
  "gou": 8497,
  "\u2581taste": 8498,
  "uc": 8499,
  "/11": 8500,
  "\u2581Head": 8501,
  "\u2581activa": 8502,
  "\u25813:": 8503,
  "\u2581easier": 8504,
  "g\u00f3": 8505,
  "\u2581index": 8506,
  "\u2581tourism": 8507,
  "dge": 8508,
  "\u2581neuro": 8509,
  "\u2581interview": 8510,
  "ert": 8511,
  "\u2581CC": 8512,
  "tat": 8513,
  "\u2581totally": 8514,
  "\u2581permette": 8515,
  "\u2581competencia": 8516,
  "\u2581none": 8517,
  "\u2581EL": 8518,
  "\u2581warm": 8519,
  "\u2581leaves": 8520,
  "Un": 8521,
  "\u2581Welcome": 8522,
  "\u2581poids": 8523,
  "\u2581Software": 8524,
  "0.00": 8525,
  "Qui\u00e9n": 8526,
  "\u2581AT": 8527,
  "\u2581perder": 8528,
  "\u2581appreciate": 8529,
  "FF": 8530,
  "\u2581d\u00e9part": 8531,
  "\u2581UNCTAD": 8532,
  "\u2581cau": 8533,
  "\u2581esposa": 8534,
  "plica": 8535,
  "\u2581130": 8536,
  "\u2581llama": 8537,
  "\u2581impression": 8538,
  "\u2581fuerzas": 8539,
  "\u2581ge": 8540,
  "\u2581Usted": 8541,
  "\u2581esperar": 8542,
  "\u2581ONG": 8543,
  "\u2581password": 8544,
  "\u2581facing": 8545,
  "arte": 8546,
  "\u2581Sport": 8547,
  "assurance": 8548,
  "\u2581toward": 8549,
  "\u2581offrir": 8550,
  "Mar": 8551,
  "itaire": 8552,
  "\u2581installed": 8553,
  "\u2581reflected": 8554,
  "\u2581bloc": 8555,
  "\u2581biennium": 8556,
  "moni": 8557,
  "\u2581uniquement": 8558,
  "\u2581edition": 8559,
  "\u2581designated": 8560,
  "\u2581utilizaci\u00f3n": 8561,
  "\u2581dix": 8562,
  "\u2581Pai": 8563,
  "\u2581tel\u00e9fono": 8564,
  "rla": 8565,
  "\u2581for\u00e7a": 8566,
  "\u2581paiement": 8567,
  "\u2581progetto": 8568,
  "\u2581Mis": 8569,
  "\u2581authorized": 8570,
  "Bo": 8571,
  "\u2581acuerdos": 8572,
  "is\u00e9": 8573,
  "\u2581slow": 8574,
  "ento": 8575,
  "rna": 8576,
  "\u2581familles": 8577,
  "\u2581r\u00e9seaux": 8578,
  "\u2581diferencia": 8579,
  "\u2581comunidades": 8580,
  "Or": 8581,
  "\u2581mot": 8582,
  "\u2581pri": 8583,
  "\u258182": 8584,
  "\u2581Eco": 8585,
  "BC": 8586,
  "\u2581Tor": 8587,
  "date": 8588,
  "\u2581Forces": 8589,
  "\u2581button": 8590,
  "\u2581ambos": 8591,
  "\u2581modifier": 8592,
  "\u2581festival": 8593,
  "\u2581obligaciones": 8594,
  "\u2581Source": 8595,
  "\u2581incluye": 8596,
  "gada": 8597,
  "\u2581sangue": 8598,
  "\u2581delegaci\u00f3n": 8599,
  "ska": 8600,
  "economic": 8601,
  "PL": 8602,
  "\u2581closer": 8603,
  "\u2581inform\u00e9": 8604,
  "\u2581nucleares": 8605,
  "\u2581privacy": 8606,
  "\u2581assure": 8607,
  "\u2581facts": 8608,
  "\u2581mat\u00e9ria": 8609,
  "\u2581Deci": 8610,
  "\u2581facility": 8611,
  "\u2581inoltre": 8612,
  "\u2581posizione": 8613,
  "\u2581ratification": 8614,
  "rap": 8615,
  "\u2581Tan": 8616,
  "\u2581formato": 8617,
  "posto": 8618,
  "\u2581s\u00e9lection": 8619,
  "\u2581acciones": 8620,
  "curr": 8621,
  "\u2581adaptation": 8622,
  "\u2581pedido": 8623,
  "\u2581presentaci\u00f3n": 8624,
  "\u2581player": 8625,
  "\u2581devo": 8626,
  "\u2581doute": 8627,
  "\u2581pieces": 8628,
  "ume": 8629,
  "\u2581milh\u00f5es": 8630,
  "\u2581Ter": 8631,
  "quis": 8632,
  "\u2581inicial": 8633,
  "\u2581fotos": 8634,
  "accordo": 8635,
  "\u2581entendu": 8636,
  "\u2581fui": 8637,
  "\u2581Follow": 8638,
  "\u2581majorit\u00e9": 8639,
  "\u2581dovrebbe": 8640,
  "sent": 8641,
  "\u2581m\u00e9todos": 8642,
  "ete": 8643,
  "\u2581PA": 8644,
  "tem": 8645,
  "\u2581quasi": 8646,
  "lage": 8647,
  "\u2581determination": 8648,
  "\u2581situa\u00e7\u00e3o": 8649,
  "\u2581trends": 8650,
  "\u2581europ\u00e9ennes": 8651,
  "JO": 8652,
  "\u2581fifty": 8653,
  "\u2581count": 8654,
  "\u2581dor": 8655,
  "\u2581functioning": 8656,
  "\u2581entender": 8657,
  "\u2581height": 8658,
  "\u2581\u00eel": 8659,
  "\u2581Hostel": 8660,
  "\u2581gentlemen": 8661,
  "\u2581sentence": 8662,
  "\u2581preso": 8663,
  "\u2581iniciativa": 8664,
  "\u2581display": 8665,
  "\u2581DLL": 8666,
  "\u2581organis\u00e9": 8667,
  "\u0163e": 8668,
  "\u2581programming": 8669,
  "\u2581procura": 8670,
  "\u2581conscience": 8671,
  "\u2581m\u00eames": 8672,
  "\u2581impacto": 8673,
  "ios": 8674,
  "\u2581CA": 8675,
  "\u2581pueblos": 8676,
  "\u2581filles": 8677,
  "\u2581COMMISSION": 8678,
  "illes": 8679,
  "\u2581atunci": 8680,
  "\u2581Var": 8681,
  "\u2581simples": 8682,
  "\u2581preparar": 8683,
  "\u2581volver": 8684,
  "sha": 8685,
  "\u2581\u015ftiu": 8686,
  "\u2581Employment": 8687,
  "\u2581stone": 8688,
  "\u2581atteindre": 8689,
  "\u2581generate": 8690,
  "\u258181": 8691,
  "\u2581devons": 8692,
  "\u2581Millennium": 8693,
  "\u2581pr\u00e9paration": 8694,
  "\u2581judgment": 8695,
  "\u2581compare": 8696,
  "\u2581Rwanda": 8697,
  "\u2581gros": 8698,
  "dina": 8699,
  "\u2581fighting": 8700,
  "\u2581construcci\u00f3n": 8701,
  "\u2581employed": 8702,
  "\u2581Vienna": 8703,
  "ional": 8704,
  "\u2581garde": 8705,
  "\u2581seconds": 8706,
  "\u2581inclusive": 8707,
  "\u2581acquisition": 8708,
  "\u2581acid": 8709,
  "\u2581baja": 8710,
  "\u2581Sous": 8711,
  "\u2581militaire": 8712,
  "\u2581establecido": 8713,
  "ucci": 8714,
  "\u2581senti": 8715,
  "\u2581Crime": 8716,
  "\u2581quest\u00e3o": 8717,
  "-01": 8718,
  "\u2581v\u00e3o": 8719,
  "\u2581applying": 8720,
  "\u2581propio": 8721,
  "\u2581problemi": 8722,
  "toire": 8723,
  "\u2581loin": 8724,
  "\u2581whereas": 8725,
  "\u2581approuv\u00e9": 8726,
  "\u2581autant": 8727,
  "\u2581bueno": 8728,
  "\u2581Porto": 8729,
  "\u2581padres": 8730,
  "dan": 8731,
  "\u2581peuples": 8732,
  "\u2581ultra": 8733,
  "\u2581quieres": 8734,
  "\u2581candidates": 8735,
  "\u2581secci\u00f3n": 8736,
  "\u2581relatively": 8737,
  "\u2581Fue": 8738,
  "\u2581guarantees": 8739,
  "\u2581connu": 8740,
  "rich": 8741,
  "\u2581Political": 8742,
  "\u2581aveva": 8743,
  "\u2581alma": 8744,
  "bilidade": 8745,
  "\u2581rent": 8746,
  "\u2581pointed": 8747,
  "\u2581(18": 8748,
  "\u2581montre": 8749,
  "\u2581110": 8750,
  "\u2581clairement": 8751,
  "\u2581continu": 8752,
  "\u2581soft": 8753,
  "cker": 8754,
  "\u00e2t": 8755,
  "\u2581Document": 8756,
  "As": 8757,
  "\u2581ye": 8758,
  "AF": 8759,
  "\u2581Road": 8760,
  "\u2581difficult\u00e9s": 8761,
  "\u2581Canadiens": 8762,
  "\u2581cambios": 8763,
  "\u2581Gold": 8764,
  "\u2581subparagraph": 8765,
  "\u2581contient": 8766,
  "\u258174": 8767,
  "\u2581cul": 8768,
  "\u2581vei": 8769,
  "\u2581Was": 8770,
  "\u2581Secretar\u00eda": 8771,
  "\u2581spe": 8772,
  "\u2581Keep": 8773,
  "\u2581accompanied": 8774,
  "iana": 8775,
  "\u2581Cada": 8776,
  "\u2581marked": 8777,
  "\u25811.1": 8778,
  "ich": 8779,
  "specific": 8780,
  "\u2581humains": 8781,
  "\u2581VII": 8782,
  "uga": 8783,
  "\u2581compa": 8784,
  "\u2581GR": 8785,
  "\u2581agricole": 8786,
  "ello": 8787,
  "\u2581exterior": 8788,
  "\u2581Nombre": 8789,
  "\u2581conflicts": 8790,
  "nement": 8791,
  "zu": 8792,
  "\u2581petites": 8793,
  "\u2581esca": 8794,
  "\u2581Quero": 8795,
  "\u2581economies": 8796,
  "\u2581produ\u00e7\u00e3o": 8797,
  "trans": 8798,
  "auto": 8799,
  "\u2581Norte": 8800,
  "\u00f1e": 8801,
  "ced": 8802,
  "\u2581Wall": 8803,
  "\u2581mercados": 8804,
  "\u2581dispone": 8805,
  "\u2581corso": 8806,
  "\u2581pou": 8807,
  "tons": 8808,
  "\u2581consecuencia": 8809,
  "\u2581potrebbe": 8810,
  "\u2581Voi": 8811,
  "\u2581till": 8812,
  "\u2581happening": 8813,
  "\u2581farmers": 8814,
  "\u2581corte": 8815,
  "e\u015fti": 8816,
  "nique": 8817,
  "ene": 8818,
  "\u2581puisse": 8819,
  "\u2581menores": 8820,
  "\u2581Everything": 8821,
  "\u2581administra": 8822,
  "\u2581flights": 8823,
  "\u2581r\u0103u": 8824,
  "\u2581Dor": 8825,
  "\u2581Catholic": 8826,
  "\u2581meglio": 8827,
  "\u2581dear": 8828,
  "\u2581glad": 8829,
  "\u2581significativa": 8830,
  "\u2581undertakings": 8831,
  "tice": 8832,
  "\u2581automatically": 8833,
  "\u2581incident": 8834,
  "\u258106": 8835,
  "\u258109": 8836,
  "\u2581gene": 8837,
  "ige": 8838,
  "\u2581vient": 8839,
  "\u2581Quel": 8840,
  "\u2581attempt": 8841,
  "\u2581informa\u00e7\u00e3o": 8842,
  "\u2581Estas": 8843,
  "fr": 8844,
  "\u2581concepto": 8845,
  "\u2581\u00f3": 8846,
  "\u2581Without": 8847,
  "\u2581expertos": 8848,
  "rile": 8849,
  "zze": 8850,
  "\u2581alimentos": 8851,
  "\u2581strict": 8852,
  "\u2581Spe": 8853,
  "\u2581connaissance": 8854,
  ".1.": 8855,
  "\u2581pleinement": 8856,
  "\u2581Mother": 8857,
  "\u2581mix": 8858,
  "\u2581addressing": 8859,
  "\u2581mou": 8860,
  "\u2581formed": 8861,
  "af": 8862,
  "\u2581Malta": 8863,
  "\u2581t\u00e9cnicas": 8864,
  "heure": 8865,
  "\u2581constituent": 8866,
  "\u2581implications": 8867,
  "RM": 8868,
  "\u2581maladie": 8869,
  "\u2581engagements": 8870,
  "\u2581mus": 8871,
  "\u2581entity": 8872,
  "\u2581understood": 8873,
  "\u2581burden": 8874,
  "ava": 8875,
  "\u2581venta": 8876,
  "issant": 8877,
  "\u2581trees": 8878,
  "uti": 8879,
  "zz": 8880,
  "\u2581pos": 8881,
  "\u2581tor": 8882,
  "\u258103": 8883,
  "\u2581plate": 8884,
  "\u2581Wien": 8885,
  "\u2581acord": 8886,
  "\u2581eram": 8887,
  "\u2581successfully": 8888,
  "\u2581(5": 8889,
  "\u2581commerciale": 8890,
  "\u2581expenses": 8891,
  "chu": 8892,
  "3.": 8893,
  "\u2581Temos": 8894,
  "\u2581Press": 8895,
  "\u2581camere": 8896,
  "\u2581contrary": 8897,
  "\u2581confi": 8898,
  "\u2581libera": 8899,
  "\u2581representante": 8900,
  "\u2581fees": 8901,
  "\u2581speech": 8902,
  "\u2581reforms": 8903,
  "\u2581C\u00f3digo": 8904,
  "\u2581conserva": 8905,
  "AG": 8906,
  "\u2581pesar": 8907,
  "\u2581Color": 8908,
  "\u2581AL": 8909,
  "\u2581Aunque": 8910,
  "\u2581atmosphere": 8911,
  "\u2581pouvoirs": 8912,
  "\u2581Place": 8913,
  "\u2581letters": 8914,
  "\u2581platform": 8915,
  "\u2581v\u00e9hicule": 8916,
  "\u2581Environmental": 8917,
  "\u2581r\u00e9aliser": 8918,
  "\u2581register": 8919,
  "\u2581comunitario": 8920,
  "cios": 8921,
  "\u2581communautaires": 8922,
  "\u2581Tag": 8923,
  "ppo": 8924,
  "\u2581Info": 8925,
  "\u2581Saturday": 8926,
  "\u2581module": 8927,
  "\u2581diga": 8928,
  "\u2581covers": 8929,
  "\u2581Administrative": 8930,
  "\u2581arrival": 8931,
  "\u2581fruits": 8932,
  "\u2581shop": 8933,
  "head": 8934,
  "\u2581Creo": 8935,
  "\u2581Czech": 8936,
  "\u25811000": 8937,
  "\u0163": 8938,
  "\u2581Luc": 8939,
  "investissement": 8940,
  "\u2581Apartment": 8941,
  "\u2581port\u00e9e": 8942,
  "more": 8943,
  "cel": 8944,
  "\u2581Sau": 8945,
  "\u2581reviewed": 8946,
  "\u2581Love": 8947,
  "\u2581alg\u00fan": 8948,
  "\u2581habla": 8949,
  "Car": 8950,
  "\u2581r\u00e9gionaux": 8951,
  "sca": 8952,
  "\u2581bought": 8953,
  "\u2581maneira": 8954,
  "\u2581Asuntos": 8955,
  "\u00e9quipe": 8956,
  "\u2581prop\u00f3sito": 8957,
  "\u2581arrest": 8958,
  "cchi": 8959,
  "\u2581siglo": 8960,
  "\u2581Haut": 8961,
  "rat": 8962,
  "\u2581Send": 8963,
  "TT": 8964,
  "\u2581Russie": 8965,
  "\u2581terrorist": 8966,
  "\u2581salva": 8967,
  "\u2581vrei": 8968,
  "\u00a1": 8969,
  "tile": 8970,
  "\u2581territories": 8971,
  "\u2581investissements": 8972,
  "nc": 8973,
  "\u2581parc": 8974,
  "ency": 8975,
  "\u2581Pin": 8976,
  "\u2581puestos": 8977,
  "\u2581Sus": 8978,
  "\u2581Countries": 8979,
  "\u2581Swiss": 8980,
  "\u2581fault": 8981,
  "\u2581Guinea": 8982,
  "\u2581estilo": 8983,
  "\u2581testa": 8984,
  "\u2581infra": 8985,
  "\u25811.4": 8986,
  "\u25811992,": 8987,
  "\u2581deals": 8988,
  "\u2581Among": 8989,
  "\u2581calculated": 8990,
  "\u2581Declaraci\u00f3n": 8991,
  "\u2581Ob": 8992,
  "\u2581palabra": 8993,
  "\u2581Papa": 8994,
  "\u2581norte": 8995,
  "-11": 8996,
  "\u2581\u00eenainte": 8997,
  "\u2581collect": 8998,
  "\u2581[2]": 8999,
  "\u2581procurement": 9000,
  "\u2581celebrada": 9001,
  "r\u00edan": 9002,
  "\u2581conna\u00eetre": 9003,
  "\u2581owner": 9004,
  "\u2581AC": 9005,
  "................": 9006,
  "\u2581origen": 9007,
  "\u2581veiller": 9008,
  "gun": 9009,
  "\u2581d\u00e9velopper": 9010,
  "\u2581annuel": 9011,
[...]
