{
  "</s>": 0,
  "<unk>": 1,
  ",": 2,
  ".": 3,
  "\u2581sa": 4,
  "\u2581ng": 5,
  "\u2581na": 6,
  "\u2581ang": 7,
  "\u2581the": 8,
  "\u2581mga": 9,
  "\u2581of": 10,
  "\u2581to": 11,
  "\u2581at": 12,
  "\u2581-": 13,
  "\u2581ay": 14,
  "\u2581and": 15,
  "\u2581\u201d": 16,
  "\u2581\u201c": 17,
  "\u2581a": 18,
  "\u2581in": 19,
  "s": 20,
  "ng": 21,
  "?": 22,
  "\u2019": 23,
  "\u2581that": 24,
  ":": 25,
  "\u2581isang": 26,
  "\u2581\u2014": 27,
  "\u2581is": 28,
  "\u2581ni": 29,
  "g": 30,
  "\u2581ito": 31,
  "\u2581Ang": 32,
  "\u2581for": 33,
  "\u2581I": 34,
  "y": 35,
  "\u2581hindi": 36,
  "\u2581kaniyang": 37,
  "\u2581may": 38,
  "\u2581be": 39,
  "\u2581with": 40,
  "\u2581was": 41,
  "\u2581you": 42,
  "\u2581The": 43,
  "\u2581his": 44,
  "\u2581on": 45,
  "\u2581not": 46,
  "\u2581as": 47,
  "\u2581are": 48,
  "\u2581it": 49,
  "\u2581God": 50,
  "\u2581Diyos": 51,
  "\u2581have": 52,
  ";": 53,
  "\u2581si": 54,
  "\u2581Jesus": 55,
  "\u2581Jehova": 56,
  "t": 57,
  "\u2581Jehovah": 58,
  "\u2581nang": 59,
  "\u2581he": 60,
  "\u2581": 61,
  "\u2581kung": 62,
  "\u2581will": 63,
  "\u2581pag": 64,
  "\u2581we": 65,
  "\u2581by": 66,
  "!": 67,
  "\u2581Sa": 68,
  "\u2581from": 69,
  "\u2581kanilang": 70,
  "\u2581pa": 71,
  "\u2581niya": 72,
  "'": 73,
  "\u2581\u2019": 74,
  "\u2581they": 75,
  "\u2581their": 76,
  "\u2581[": 77,
  "\u2581siya": 78,
  "\u2581(": 79,
  "\u2581o": 80,
  "\u2581ko": 81,
  "\u2581this": 82,
  "\u2581upang": 83,
  "\u2581or": 84,
  "\u2581tao": 85,
  "\u2581para": 86,
  "\u2581who": 87,
  "\u2581ako": 88,
  "\u2581can": 89,
  "\u2581all": 90,
  "\u2581were": 91,
  "\u2581\u2018": 92,
  ")": 93,
  "\u2581one": 94,
  "\u2581mo": 95,
  "\u2581Bible": 96,
  "\u2581your": 97,
  "\u2581lahat": 98,
  "\u2581sila": 99,
  "\u2581them": 100,
  "\u2581had": 101,
  "\u2581our": 102,
  "\u2581an": 103,
  "ing": 104,
  "\u2581Bibliya": 105,
  "\u2581At": 106,
  "\u2581isa": 107,
  "\u2581my": 108,
  "\u2581do": 109,
  "\u2581him": 110,
  "\u2581what": 111,
  "\u2581nito": 112,
  "\u2581has": 113,
  "\u2581aking": 114,
  "\u2581iyong": 115,
  "]": 116,
  "\u2581people": 117,
  "\u2581In": 118,
  "\u2581us": 119,
  "\u2581kay": 120,
  "\u2581bagay": 121,
  "\u2581iba": 122,
  "\u2581lamang": 123,
  "\u2581walang": 124,
  "\u2581man": 125,
  "\u2581when": 126,
  "\u2581What": 127,
  "\u2581ka": 128,
  "\u2581mula": 129,
  "\u2581but": 130,
  "\u2581about": 131,
  "\u2581natin": 132,
  "\u2581ating": 133,
  "\u2581me": 134,
  "\u2581nila": 135,
  "\u2581A": 136,
  "\u2581would": 137,
  "\u2581tungkol": 138,
  "\u2581anak": 139,
  "\u2581time": 140,
  "\u2581iyon": 141,
  "\u2581bilang": 142,
  "\u2581noong": 143,
  "\u2581buhay": 144,
  "\u2581ba": 145,
  "\u2581araw": 146,
  "\u2581pang": 147,
  "\u2581so": 148,
  "\u2581out": 149,
  "\u2581more": 150,
  "\u2581tayo": 151,
  "\u2581naman": 152,
  "\u25811": 153,
  "\u2581life": 154,
  "\u2581dahil": 155,
  "\u2581kaniya": 156,
  "\u2581up": 157,
  "\u2581some": 158,
  "\u2581It": 159,
  "\u2581been": 160,
  "\u2581panahon": 161,
  "\u2581also": 162,
  "\u2581did": 163,
  "\u2581her": 164,
  "\u2581there": 165,
  "\u2581Hindi": 166,
  "\u2581said": 167,
  "\u2581He": 168,
  "\u2581maaaring": 169,
  "\u2581which": 170,
  "\u2581taon": 171,
  "an": 172,
  "\u2581Kung": 173,
  "a": 174,
  "\u2581maging": 175,
  "\u2581rin": 176,
  "\u2581How": 177,
  "\u2581ilang": 178,
  "\u2581pamamagitan": 179,
  "\u2581those": 180,
  "\u2581But": 181,
  "\u2581many": 182,
  "\u2581dapat": 183,
  "\u2581ngayon": 184,
  "\u2581nag": 185,
  "\u2581di": 186,
  "\u2581mag": 187,
  "\u2581no": 188,
  "\u2581And": 189,
  "\u2581such": 190,
  "\u2581into": 191,
  "\u2581loob": 192,
  "\u2581ma": 193,
  "\u2581gaya": 194,
  "\u2581Ano": 195,
  "\u2581Saksi": 196,
  "\u2581than": 197,
  "\u2581buong": 198,
  "\u2581other": 199,
  "\u2581maraming": 200,
  "\u2581lupa": 201,
  "\u2581kanila": 202,
  "\u2581Kristiyano": 203,
  "\u2581if": 204,
  "d": 205,
  "\u2581these": 206,
  "\u2581even": 207,
  "\u201c": 208,
  "\u2581mas": 209,
  "\u2581world": 210,
  "\u2581Israel": 211,
  "\u2581pahina": 212,
  "\u2581nasa": 213,
  "\u2581Witnesses": 214,
  "\u2581years": 215,
  "\u2581how": 216,
  "ed": 217,
  "ang": 218,
  "\u2581din": 219,
  "\u2581nga": 220,
  "\u2581paraan": 221,
  "\u2581sinabi": 222,
  "...": 223,
  "\u2581sabi": 224,
  "\u2581day": 225,
  "\u2581good": 226,
  "\u2581page": 227,
  "\u2581way": 228,
  "\u2581things": 229,
  "\u2581children": 230,
  "\u2581ibang": 231,
  "\u2581For": 232,
  "\u2581Kaya": 233,
  "\u2581This": 234,
  "\u2581ano": 235,
  "\u2581should": 236,
  "\u2581akin": 237,
  "\u2581work": 238,
  "\u2581They": 239,
  "\u2581hanggang": 240,
  "\u2581help": 241,
  "\u2581its": 242,
  "\u2581sarili": 243,
  "\u2581bansa": 244,
  "\u2581could": 245,
  "\u2581We": 246,
  "\u2581Nang": 247,
  "\u2581babae": 248,
  "in": 249,
  "\u2581Na": 250,
  "\u2581over": 251,
  "\u2581she": 252,
  "\u2581ibig": 253,
  "\u2581make": 254,
  "\u2581only": 255,
  "\u2581does": 256,
  "\u2581earth": 257,
  "\u2581first": 258,
  "\u2581Panginoon": 259,
  "\u2581made": 260,
  "\u2581When": 261,
  "\u2581because": 262,
  "\u2581atin": 263,
  "\u2581shall": 264,
  "\u2581says": 265,
  "\u2581/": 266,
  "\u2581siyang": 267,
  "\u2581kami": 268,
  "\u2581taong": 269,
  "\u2581naging": 270,
  "\u2581Paul": 271,
  "\u2581bayan": 272,
  "\u2581like": 273,
  "\u2581Subalit": 274,
  "\u2581love": 275,
  "\u2581B": 276,
  "\u2581Paano": 277,
  "\u2581Kingdom": 278,
  "\u2581David": 279,
  "\u2581Christian": 280,
  "\u2581inyong": 281,
  "\u2581lalaki": 282,
  "\u2581kapag": 283,
  "ly": 284,
  "\u2581magulang": 285,
  "\u2581As": 286,
  "\u2581being": 287,
  "\u2581asawa": 288,
  "\u2581Christ": 289,
  "\u2581gayon": 290,
  "\u2581then": 291,
  "E": 292,
  "\u2581bahagi": 293,
  "\u2581Isang": 294,
  "\u2581Gayunman": 295,
  "\u2581iyo": 296,
  "\u2581kaya": 297,
  "\u2581Why": 298,
  "\u2581Bakit": 299,
  "\u2581Pablo": 300,
  "\u2581gayong": 301,
  "\u2581kayo": 302,
  "\u2581before": 303,
  "\u2581bahay": 304,
  "\u2581You": 305,
  "\u2581If": 306,
  "\u2581see": 307,
  "\u2581come": 308,
  "\u2581ayon": 309,
  "\u2581Si": 310,
  "\u2581now": 311,
  "\u2581pamilya": 312,
  "\u2581tunay": 313,
  "\u2581bawat": 314,
  "\u2581Kristo": 315,
  "\u2581just": 316,
  "\u2581two": 317,
  "\u2581family": 318,
  "\u2581aming": 319,
  "\u2581after": 320,
  "\u2581know": 321,
  "\u2581others": 322,
  "-": 323,
  "\u2581Mga": 324,
  "\u2581dalawang": 325,
  "\u2581kapatid": 326,
  "\u2581must": 327,
  "\u2581namin": 328,
  "the": 329,
  "\u2581gawain": 330,
  "\u2581C": 331,
  "\u2581well": 332,
  "\u2581men": 333,
  "\u2581kasama": 334,
  "\u25812": 335,
  "\u2581unang": 336,
  "\u2581higit": 337,
  "\u2581b": 338,
  "\u2581Ito": 339,
  "\u2581any": 340,
  "\u2581take": 341,
  "\u2581paano": 342,
  "\u2581niyang": 343,
  "\u2581Christians": 344,
  "\u2581kong": 345,
  "\u2581need": 346,
  "\u2581Picture": 347,
  "\u2581bata": 348,
  "\u2581So": 349,
  "\u2581aklat": 350,
  "\u2581new": 351,
  "Ang": 352,
  "\u2581daigdig": 353,
  "\u2581kundi": 354,
  "\u2581bagong": 355,
  "\u2581dito": 356,
  "\u2581ninyo": 357,
  "\u2581year": 358,
  "\u2581%": 359,
  "\u2581own": 360,
  "\u2581puso": 361,
  "\u2581iyan": 362,
  "\u2581example": 363,
  "\u2581New": 364,
  "\u2581much": 365,
  "\u2581wala": 366,
  "\u2581most": 367,
  "I": 368,
  "\u2581very": 369,
  "S": 370,
  "\u2581through": 371,
  "\u2581akong": 372,
  "\u2581faith": 373,
  "\u2581gawin": 374,
  "\u2581spirit": 375,
  "\u2581dako": 376,
  "\u2581dahilan": 377,
  "\u2581name": 378,
  "\u2581become": 379,
  "\u2581mong": 380,
  "\u2581nating": 381,
  "\u2581kailangan": 382,
  "\u2581another": 383,
  "\u2581Pero": 384,
  "\u2581Jerusalem": 385,
  "\u2581May": 386,
  "\u2581heart": 387,
  "\u2581Noo": 388,
  "\u2581daan": 389,
  "\u2581parents": 390,
  "\u2581pangalan": 391,
  "\u2581death": 392,
  "\u2581aaral": 393,
  "\u2581kalagayan": 394,
  "\u2581against": 395,
  "\u2581came": 396,
  "e": 397,
  "\u2581espirituwal": 398,
  "\u2581where": 399,
  "\u2581say": 400,
  "\u2581malaking": 401,
  "\u2581salita": 402,
  "\u2581Ma": 403,
  "\u2581found": 404,
  "\u2581words": 405,
  "\u2581kaysa": 406,
  "\u2581sapagkat": 407,
  "\u2581magiging": 408,
  "\u2581saan": 409,
  "\u25813:": 410,
  "\u2581marami": 411,
  "\u2581Kaharian": 412,
  "\u2581give": 413,
  "\u2581true": 414,
  "\u2581sinasabi": 415,
  "\u2581tubig": 416,
  "\u2581ilan": 417,
  "\u2581great": 418,
  "\u2581go": 419,
  "\u2581mabuting": 420,
  "\u2581katotohanan": 421,
  "er": 422,
  "\u2581pananampalataya": 423,
  "\u2581down": 424,
  "\u2581lugar": 425,
  "\u258115": 426,
  "\u2581bago": 427,
  "\u2581times": 428,
  "\u2581home": 429,
  "o": 430,
  "\u2581One": 431,
  "\u2581John": 432,
  "\u2581panahong": 433,
  "\u2581congregation": 434,
  "\u2581hari": 435,
  "\u2581kongregasyon": 436,
  "\u2581anupat": 437,
  "\u2581pagkatapos": 438,
  "\u25812:": 439,
  "\u2581silang": 440,
  "\u2581That": 441,
  "\u2581spiritual": 442,
  "\u2581book": 443,
  "\u2581i": 444,
  "\u2581Pagkatapos": 445,
  "\u2581part": 446,
  "\u2581ones": 447,
  "\u2581ginawa": 448,
  "\u2581young": 449,
  "\u2581espiritu": 450,
  "\u2581Larawan": 451,
  "\u2581every": 452,
  "\u2581get": 453,
  "\u2581house": 454,
  "\u2581put": 455,
  "\u2581study": 456,
  "\u2581upon": 457,
  "\u2581Anong": 458,
  "\u2581person": 459,
  "\u2581called": 460,
  "\u2581each": 461,
  "\u2581anumang": 462,
  "\u2581To": 463,
  "\u2581huwag": 464,
  "\u2581use": 465,
  "\u2581might": 466,
  "\u2581pagkain": 467,
  "\u25a1": 468,
  "\u2581'%": 469,
  "\u2581bang": 470,
  "\u2581away": 471,
  "\u2581today": 472,
  "\u2581used": 473,
  "\u2581long": 474,
  "\u2581same": 475,
  "\u2581kailangang": 476,
  "\u2581laban": 477,
  "\u2581apostol": 478,
  "\u2581find": 479,
  "\u25814:": 480,
  "\u258120": 481,
  "\u2581place": 482,
  "\u2581alang": 483,
  "n": 484,
  "\u2581patuloy": 485,
  "\u2581human": 486,
  "\u2581sanlibutan": 487,
  "\u2581lang": 488,
  "\u2581O": 489,
  "\u2581among": 490,
  "\u2581Pag": 491,
  "\u2581problema": 492,
  "m": 493,
  "\u2581nilang": 494,
  "\u2581often": 495,
  "\u2581personal": 496,
  "\u2581ngunit": 497,
  "\u2581kahit": 498,
  "\u2581halimbawa": 499,
  "\u2581tapat": 500,
  "\u2581days": 501,
  "\u2581Some": 502,
  "\u2581Sinabi": 503,
  "\u2581old": 504,
  "\u2581Para": 505,
  "\u2581Isa": 506,
  "\u2581ikaw": 507,
  "\u2581bakit": 508,
  "\u2581P": 509,
  "\u2581am": 510,
  "\u2581back": 511,
  "\u2581noon": 512,
  "\u2581inyo": 513,
  "al": 514,
  "\u2581feel": 515,
  "\u2581relihiyon": 516,
  "\u2581truth": 517,
  "\u2581under": 518,
  "\u2581However": 519,
  "\u2581too": 520,
  "\u2581uri": 521,
  "\u25811:": 522,
  "\u2581kamatayan": 523,
  "\u2581siglo": 524,
  "\u2581Then": 525,
  "\u2581lupain": 526,
  "\u25815:": 527,
  "\u2581three": 528,
  "it": 529,
  "\u2581end": 530,
  "\u2581habang": 531,
  "th": 532,
  "\u2581himself": 533,
  "\u2581never": 534,
  "\u2581Dahil": 535,
  "\u2581Halimbawa": 536,
  "\u2581gumawa": 537,
  "\u2581h": 538,
  "\u2581langit": 539,
  "\u2581right": 540,
  "\u2581hand": 541,
  "\u2581though": 542,
  "\u2581unto": 543,
  "\u2581pagiging": 544,
  "\u2581Do": 545,
  "\u2581let": 546,
  "C": 547,
  "\u2581alam": 548,
  "\u2581son": 549,
  "\u2581still": 550,
  "sa": 551,
  "\u25816:": 552,
  "\u2581There": 553,
  "\u2581keep": 554,
  "\u2581gawa": 555,
  "\u2581read": 556,
  "\u2581sabihin": 557,
  "\u2581Kapag": 558,
  "\u2581ginagawa": 559,
  "\u2581ulat": 560,
  "\u2581subalit": 561,
  "\u2581water": 562,
  "na": 563,
  "\u2581tayong": 564,
  "\u2581muli": 565,
  "\u2581halos": 566,
  "\u2581kamay": 567,
  "r": 568,
  "\u2581wika": 569,
  "\u2581dugo": 570,
  "\u2581means": 571,
  "\u2581Dios": 572,
  "\u2581mahigit": 573,
  "),": 574,
  "\u2581sakit": 575,
  "\u2581pagka": 576,
  "\u2581Is": 577,
  "re": 578,
  "\u2581king": 579,
  "\u2581child": 580,
  "\u2581why": 581,
  "\u2581*": 582,
  "\u2581became": 583,
  "\u2581word": 584,
  "\u2581World": 585,
  "\u2581Bagaman": 586,
  "\u2581minsan": 587,
  "\u2581baka": 588,
  "\u2581T": 589,
  "\u2581magkaroon": 590,
  "\u2581kapuwa": 591,
  "\u2581without": 592,
  "\u2581during": 593,
  "\u2581set": 594,
  "\u2581After": 595,
  "\u2581banal": 596,
  "\u2581maaari": 597,
  "\u2581Juan": 598,
  "\u2581tulong": 599,
  "\u2581land": 600,
  "\u2581tatlong": 601,
  "\u2581want": 602,
  "\u2581brothers": 603,
  "\u2581S": 604,
  "\u2581mabuti": 605,
  "A": 606,
  "\u2581halip": 607,
  "\u2581live": 608,
  "\u2581itong": 609,
  "\u2581kaibigan": 610,
  "\u2581father": 611,
  "\u2581sariling": 612,
  "\u2581themselves": 613,
  "\u2581given": 614,
  "inggil": 615,
  "\u2581blood": 616,
  "\u2581United": 617,
  "\u2581doon": 618,
  "\u2581wife": 619,
  "\u2581maka": 620,
  "\u2581rito": 621,
  "\u2581article": 622,
  "\u2581began": 623,
  "\u2581ina": 624,
  "\u2581century": 625,
  "\u2581lingkod": 626,
  "\u2581\u201d?": 627,
  "\u2581Oo": 628,
  "ma": 629,
  "\u2581while": 630,
  "\u2581buwan": 631,
  "\u2581karamihan": 632,
  "\u2581wrote": 633,
  "\u2581city": 634,
  "\u2581ama": 635,
  "\u2581isip": 636,
  "\u2581course": 637,
  "\u2581trabaho": 638,
  "The": 639,
  "\u2581told": 640,
  "\u25818": 641,
  "\u25811,": 642,
  "\u2581Word": 643,
  "\u2581kabataan": 644,
  "\u2581hayop": 645,
  "\u2581went": 646,
  "\u258112": 647,
  "\u2581show": 648,
  "\u2581later": 649,
  "i": 650,
  "\u2581taga": 651,
  "\u2581between": 652,
  "\u2581kang": 653,
  "\u2581Peter": 654,
  "\u2581Abraham": 655,
  "\u2581apostle": 656,
  "\u2581ilalim": 657,
  "\u25813": 658,
  "\u2581lalo": 659,
  "\u2581peace": 660,
  "\u2581E": 661,
  "\u2581Salita": 662,
  "\u2581took": 663,
  "c": 664,
  "\u2581My": 665,
  "\u2581however": 666,
  "\u2581Satanas": 667,
  "\u2581off": 668,
  "\u2581both": 669,
  "\u2581katawan": 670,
  "\u2581\"": 671,
  "\u2581number": 672,
  "\u2581Ka": 673,
  "\u2581living": 674,
  "\u2581kaugnayan": 675,
  "\u2581malapit": 676,
  "\u2581By": 677,
  "\u2581Satan": 678,
  "\u2581important": 679,
  "\u2581kasalanan": 680,
  "\u2581She": 681,
  "\u2581On": 682,
  "\u2022": 683,
  "\u2581able": 684,
  "\u2581little": 685,
  "\u2581power": 686,
  "\u2581anong": 687,
  "\u2581mother": 688,
  "\u2581With": 689,
  "\u2581learn": 690,
  "\u2581gave": 691,
  "\u2581fact": 692,
  "\u2581Line": 693,
  "\u2581yaong": 694,
  "....": 695,
  "\u2581saying": 696,
  "\u2581mind": 697,
  "\u2581talagang": 698,
  "\u2581tulad": 699,
  "\u2581Ganito": 700,
  "\u2581Ngunit": 701,
  "\u2581high": 702,
  "ba": 703,
  "\u2581hope": 704,
  "\u2581asa": 705,
  "k": 706,
  "\u2581Father": 707,
  "\u2581worship": 708,
  "\u2581alagad": 709,
  "\u2581ring": 710,
  "\u2581tanong": 711,
  "\u2581larawan": 712,
  "\u2581balita": 713,
  "\u258110": 714,
  "\u2581really": 715,
  "\u2581news": 716,
  "\u2581tahanan": 717,
  "\u2581Yahweh": 718,
  "\u2581pinag": 719,
  "\u2581few": 720,
  "\u2581whom": 721,
  "\u2581Estado": 722,
  "\u2581again": 723,
  "\u2581Siya": 724,
  "\u2581naka": 725,
  "\u2581view": 726,
  "\u2581oras": 727,
  "\u2581U": 728,
  "\u258111": 729,
  "\u2581food": 730,
  "\u2581Pedro": 731,
  "\u2581No": 732,
  "\u2581Walang": 733,
  "\u2581religious": 734,
  "\u2581harap": 735,
  "\u2581s": 736,
  "\u2581kapangyarihan": 737,
  "\u2581porsiyento": 738,
  "\u2581pansin": 739,
  "\u2581gusto": 740,
  "\u258119": 741,
  "\u2581mismo": 742,
  "\u2581paggawa": 743,
  "\u2581full": 744,
  "\u2581buhat": 745,
  "\u2581Job": 746,
  "\u2581nagsabi": 747,
  "\u2581knowledge": 748,
  "\u2581service": 749,
  "\u2581payo": 750,
  "\u2581Many": 751,
  "\u2581artikulo": 752,
  "\u2581LORD": 753,
  "\u2581lunsod": 754,
  "\u2581matuwid": 755,
  "\u2581Awit": 756,
  "\u258118": 757,
  "\u2581kaalaman": 758,
  "\u2581Yet": 759,
  "\u2581together": 760,
  "\u2581having": 761,
  "\u2581always": 762,
  "\u2581ta\u00f3ng": 763,
  "\u2581kapayapaan": 764,
  "\u2581doing": 765,
  "\u2581woman": 766,
  "\u2581women": 767,
  "\u2581Jesu": 768,
  "\u2581holy": 769,
  "\u2581Ako": 770,
  "\u2581These": 771,
  "\u2581mata": 772,
  "\u2581ginagamit": 773,
  "\u2581since": 774,
  "\u2581Judio": 775,
  "\u2581digmaan": 776,
  "l": 777,
  "\u2581left": 778,
  "\u2581lubhang": 779,
  "\u258130": 780,
  "\u2581school": 781,
  "\u2581Kristiyanong": 782,
  "\u2581bring": 783,
  "\u2581asked": 784,
  "\u2581sapagka": 785,
  "\u2581layunin": 786,
  "mga": 787,
  "\u2581making": 788,
  "\u2581His": 789,
  "\u2581done": 790,
  "U": 791,
  "\u2581problems": 792,
  "\u2581Matthew": 793,
  "\u2581From": 794,
  "\u2581think": 795,
  "\u2581Ama": 796,
  "\u2581percent": 797,
  "\u2581pero": 798,
  "\u2581brother": 799,
  "\u2581mayroon": 800,
  "\u2581sistema": 801,
  "\u25814": 802,
  "\u2581salitang": 803,
  "\u2581known": 804,
  "\u2581pangangailangan": 805,
  "\u2581something": 806,
  "\u2581roon": 807,
  "\u2581Lord": 808,
  "\u2581gabi": 809,
  "\u2581Our": 810,
  "\u2581system": 811,
  "\u2581result": 812,
  "\u2581makita": 813,
  "\u2581lakas": 814,
  "\u2581parang": 815,
  "\u2581wakas": 816,
  "\u2581look": 817,
  "\u2581last": 818,
  "\u2581amin": 819,
  "\u2581serve": 820,
  "\u2581Kasulatan": 821,
  "\u2581toward": 822,
  "\u2581pangunahing": 823,
  "\u2581faithful": 824,
  "\u2581Mateo": 825,
  "\u2581Even": 826,
  "\u2581paglilingkod": 827,
  "\u2581nations": 828,
  "\u2581lubusan": 829,
  "\u2581brought": 830,
  "\u258117": 831,
  "\u2581sinauna": 832,
  "\u2581body": 833,
  "\u2581nagsasabi": 834,
  "\u2581Unidos": 835,
  "\u2581preaching": 836,
  "\u2581order": 837,
  "\u2581ministry": 838,
  "\u2581dumating": 839,
  "\u2581de": 840,
  "alang": 841,
  "b": 842,
  "\u2581Anak": 843,
  "\u2581Yes": 844,
  "\u25815": 845,
  "\u2581kailanman": 846,
  "\u258116": 847,
  "\u2581States": 848,
  "\u2581gitna": 849,
  "\u2581ever": 850,
  "\u2581around": 851,
  "\u2581reason": 852,
  "yon": 853,
  "\u2581tinatawag": 854,
  "\u2581King": 855,
  "\u2581until": 856,
  "\u2581aral": 857,
  "\u2581nakita": 858,
  "\u2581usap": 859,
  "\u2581ways": 860,
  "\u2581Bilang": 861,
  "\u2581Daniel": 862,
  "\u2581Solomon": 863,
  "\u2581war": 864,
  "\u2581Thus": 865,
  "\u2581nor": 866,
  "\u2581Psalm": 867,
  "\u2581grupo": 868,
  "\u2581Moses": 869,
  "es": 870,
  "\u2581eyes": 871,
  "\u2581care": 872,
  "\u2581Mula": 873,
  "\u2581Moises": 874,
  "\u2581disciples": 875,
  "\u2581resulta": 876,
  "\u2581mahalagang": 877,
  "\u2581cannot": 878,
  "\u2581apat": 879,
  "\u2581nagbibigay": 880,
  "\u2581different": 881,
  "\u2581pagsamba": 882,
  "\u2581All": 883,
  "\u2581regular": 884,
  "\u2581better": 885,
  "\u2581Hari": 886,
  "\u2581far": 887,
  "\u2581katulad": 888,
  "\u2581taglay": 889,
  "\u2581face": 890,
  "\u2581gayundin": 891,
  "\u2581labis": 892,
  "\u25818,": 893,
  "\u2581mankind": 894,
  "\u2581namatay": 895,
  "\u2581servants": 896,
  "\u25814.": 897,
  "\u2581pagkakataon": 898,
  "\u2581sin": 899,
  "\u2581sumulat": 900,
  "\u25816": 901,
  "\u2581katunayan": 902,
  "\u2581yet": 903,
  "\u2581katangian": 904,
  "\u2581asawang": 905,
  "\u2581edad": 906,
  "\u2581nangyari": 907,
  "\u2581thought": 908,
  "\u2581totoo": 909,
  "\u2581according": 910,
  "\u2581fear": 911,
  "\u2581husband": 912,
  "\u2581tiyak": 913,
  "\u2581Scriptures": 914,
  "\u2581ministeryo": 915,
  "\u2581York": 916,
  "\u2581cause": 917,
  "\u2581Genesis": 918,
  "\u2581Now": 919,
  "\u2581ibinigay": 920,
  "\u2581panalangin": 921,
  "\u2581lalaking": 922,
  "\u2581pagbabago": 923,
  "\u2581lives": 924,
  "\u2581mahalaga": 925,
  "\u2581future": 926,
  "\u2581small": 927,
  "\u2581gulang": 928,
  "\u2581saw": 929,
  "\u2581Di": 930,
  "\u258112:": 931,
  "\u2581following": 932,
  "\u2581karanasan": 933,
  "\u2581pina": 934,
  "\u2581four": 935,
  "\u2581religion": 936,
  "p": 937,
  "\u2581Error": 938,
  "\u2581law": 939,
  "\u2581samantalang": 940,
  "\u2581ika": 941,
  "\u2581age": 942,
  "\u2581money": 943,
  "\u2581pagsisikap": 944,
  "\u2581impormasyon": 945,
  "le": 946,
  "\u258125": 947,
  "\u2581free": 948,
  "\u2581believe": 949,
  "\u2581batang": 950,
  "\u2581Your": 951,
  "\u2581miyembro": 952,
  "\u2581marriage": 953,
  "\u2581humans": 954,
  "\u2581Pa": 955,
  "\u2581Son": 956,
  "\u2581million": 957,
  "\u2581Upang": 958,
  "\u2581light": 959,
  "\u2581lalong": 960,
  "\u25817": 961,
  "\u2581pangangaral": 962,
  "\u2581Hebreo": 963,
  "\u2581going": 964,
  "\u2581pangyayari": 965,
  "\u2581experience": 966,
  "\u2581H": 967,
  "\u2581Roma": 968,
  "\u2581sangkatauhan": 969,
  "\u25819": 970,
  "to": 971,
  "\u2581heaven": 972,
  "\u2581Isaias": 973,
  "\u2581possible": 974,
  "\u2581utos": 975,
  "\u2581Nag": 976,
  "\u2581nais": 977,
  "\u2581kabilang": 978,
  "\u2581loving": 979,
  "\u2581dating": 980,
  "\u2581Isaiah": 981,
  "\u2581early": 982,
  "u": 983,
  "\u2581someone": 984,
  "\u2581gumagawa": 985,
  "\u2581babaing": 986,
  "\u2581nagkaroon": 987,
  "\u2581Hall": 988,
  "li": 989,
  "\u2581questions": 990,
  "\u2581kagalakan": 991,
  "\u2581purpose": 992,
  "\u2581felt": 993,
  "\u2581next": 994,
  "\u2581Sila": 995,
  "\u2581ganitong": 996,
  "\u2581kalooban": 997,
  "\u2581along": 998,
  "\u2581Gaya": 999,
  "\u2581pati": 1000,
  "\u2581Sinasabi": 1001,
  "\u258110:": 1002,
  "ka": 1003,
  "\u2581friends": 1004,
  "\u2581needed": 1005,
  "\u2581matter": 1006,
  "\u2581sent": 1007,
  "\u258111:": 1008,
  "\u2581best": 1009,
  "\u2581thing": 1010,
  "\u2581nagiging": 1011,
  "\u2581thus": 1012,
  "te": 1013,
  "\u2581Watchtower": 1014,
  "\u258114": 1015,
  "\u2581moral": 1016,
  "\u2581Can": 1017,
  "\u2581consider": 1018,
  "\u2581hard": 1019,
  "\u2581Huwag": 1020,
  "\u2581Let": 1021,
  "\u2581pagitan": 1022,
  "\u2581karaniwang": 1023,
  "\u2581thou": 1024,
  "\u2581huling": 1025,
  "\u2581kayong": 1026,
  "\u2581learned": 1027,
  "ic": 1028,
  "\u2581pulong": 1029,
  "\u2581health": 1030,
  "\u258113": 1031,
  "\u2581nakalipas": 1032,
  "\u2581dead": 1033,
  "\u2581malamang": 1034,
  "\u2581paggamit": 1035,
  "\u2581joy": 1036,
  "\u2581propeta": 1037,
  "\u2581kaming": 1038,
  "\u2581sons": 1039,
  "\u2581kaluluwa": 1040,
  "\u2581here": 1041,
  "\u2581helped": 1042,
  "\u2581ganito": 1043,
  "\u2581Because": 1044,
  "\u2581Mo": 1045,
  "\u2581damdamin": 1046,
  "\u2581yourself": 1047,
  "\u258122": 1048,
  "\u25817:": 1049,
  "\u2581nakikita": 1050,
  "\u2581taken": 1051,
  "\u2581kabataang": 1052,
  "\u2581certain": 1053,
  "\u2581close": 1054,
  "han": 1055,
  "\u2581form": 1056,
  "\u2581gagawin": 1057,
  "\u2581problem": 1058,
  "\u2581Haba": 1059,
  "\u2581present": 1060,
  "\u2581yamang": 1061,
  "P": 1062,
  "\u2581Corinto": 1063,
  "\u2581night": 1064,
  "\u2581seen": 1065,
  "\u2581fellow": 1066,
  "\u2581masama": 1067,
  "G": 1068,
  "\u2581bato": 1069,
  "\u2581heard": 1070,
  "\u2581G": 1071,
  "\u2581malaman": 1072,
  "\u2581ancient": 1073,
  "\u2581answer": 1074,
  "\u2581whole": 1075,
  "\u2581reading": 1076,
  "\u2581self": 1077,
  "\u2581milyong": 1078,
  "\u25815.": 1079,
  "\u2581kaharian": 1080,
  "ro": 1081,
  "\u2581especially": 1082,
  "\u2581speak": 1083,
  "\u2581marahil": 1084,
  "\u2581wisdom": 1085,
  "\u258110.": 1086,
  "\u2581According": 1087,
  "\u2581Who": 1088,
  "or": 1089,
  "\u2581fine": 1090,
  "\u2581pakinabang": 1091,
  "\u2581Of": 1092,
  "\u2581karunungan": 1093,
  "\u2581states": 1094,
  "\u2581waring": 1095,
  "\u2581SA": 1096,
  "\u2581therefore": 1097,
  "\u25812.": 1098,
  "\u2581mahirap": 1099,
  "\u2581hula": 1100,
  "\u2581turn": 1101,
  "\u2581dagat": 1102,
  "\u2581laging": 1103,
  "ri": 1104,
  "\u2581prayer": 1105,
  "\u2581Since": 1106,
  "\u2581country": 1107,
  "\u2581happy": 1108,
  "\u2581died": 1109,
  "la": 1110,
  "\u2581matatanda": 1111,
  "\u2581thy": 1112,
  "ni": 1113,
  "\u2581epekto": 1114,
  "\u2581counsel": 1115,
  "\u2581large": 1116,
  "\u2581information": 1117,
  "\u2581Tingnan": 1118,
  "\u2581sumunod": 1119,
  "\u2581bad": 1120,
  "\u2581maibigin": 1121,
  "\u2581elders": 1122,
  "\u2581Ngayon": 1123,
  "\u2581batas": 1124,
  "\u2581makikita": 1125,
  "\u2581Kawikaan": 1126,
  "\u258113:": 1127,
  "\u2581Israelita": 1128,
  "\u2581Proverbs": 1129,
  "\u2581anghel": 1130,
  "\u2581special": 1131,
  "\u258150": 1132,
  "\u2581report": 1133,
  "\u2581soon": 1134,
  "\u2581bagaman": 1135,
  "\u2581wicked": 1136,
  "\u258122,": 1137,
  "\u258123": 1138,
  "\u2581meetings": 1139,
  "\u2581tungo": 1140,
  "\u2581members": 1141,
  "on": 1142,
  "\u2581control": 1143,
  "\u2581ANG": 1144,
  "\u2581Be": 1145,
  "\u2581bunga": 1146,
  "\u2581understand": 1147,
  "\u2581ask": 1148,
  "\u2581continue": 1149,
  "\u2581real": 1150,
  "\u2581Kailangan": 1151,
  "\u2581An": 1152,
  "\u2581case": 1153,
  "\u2581Catholic": 1154,
  "\u25817.": 1155,
  "\u2581point": 1156,
  "\u2581teaching": 1157,
  "si": 1158,
  "\u2581Not": 1159,
  "\u2581tell": 1160,
  "\u2581situation": 1161,
  "\u2581Although": 1162,
  "\u2581enjoy": 1163,
  "\u2581mean": 1164,
  "\u2581group": 1165,
  "\u2581kind": 1166,
  "\u2581talk": 1167,
  "\u2581received": 1168,
  "\u2581magazine": 1169,
  "\u2581Jews": 1170,
  "\u2581language": 1171,
  "\u2581support": 1172,
  "\u2581M": 1173,
  "\u2581five": 1174,
  "\u2581righteous": 1175,
  "\u2581magagawa": 1176,
  "\u2581change": 1177,
  "\u2581Tower": 1178,
  "\u2581maliit": 1179,
  "\u2581Maaaring": 1180,
  "\u2581Watch": 1181,
  "\u2581nothing": 1182,
  "\u2581aasawa": 1183,
  "\u2581sagot": 1184,
  "\u25818.": 1185,
  "ers": 1186,
  "\u2581including": 1187,
  "\u2581katuwiran": 1188,
  "\u2581paaralan": 1189,
  "\u2581kabila": 1190,
  "\u2581simbahan": 1191,
  "\u2581kasaysayan": 1192,
  "\u2581matinding": 1193,
  "\u2581Dapat": 1194,
  "\u258114.": 1195,
  "\u258140": 1196,
  "\u2581don": 1197,
  "\u2581madaling": 1198,
  "\u2581ulo": 1199,
  "\u2581Greek": 1200,
  "\u2581ulit": 1201,
  "no": 1202,
  "\u2581countries": 1203,
  "\u2581Dr": 1204,
  "\u2581Saul": 1205,
  "\u2581near": 1206,
  "\u2581panganib": 1207,
  "\u2581artikulong": 1208,
  "\u2581muling": 1209,
  "\u2581ding": 1210,
  "\u2581sakdal": 1211,
  "\u2581Apocalipsis": 1212,
  "\u2581church": 1213,
  "\u2581feet": 1214,
  "\u25813.": 1215,
  "\u2581share": 1216,
  "\u2581Maraming": 1217,
  "\u2581Credit": 1218,
  "\u2581isinulat": 1219,
  "':": 1220,
  "\u2581isipan": 1221,
  "\u2581pagpapala": 1222,
  "\u2581alipin": 1223,
  "\u2581AIDS": 1224,
  "\u2581m": 1225,
  "\u2581sister": 1226,
  "\u2581K": 1227,
  "\u2581ipinakikita": 1228,
  "\u2581makes": 1229,
  "pa": 1230,
  "\u2581iisip": 1231,
  "\u2581Revelation": 1232,
  "\u2581attention": 1233,
  "\u2581message": 1234,
  "\u2581labas": 1235,
  "\u2581ginamit": 1236,
  "ra": 1237,
  "\u2581relationship": 1238,
  "lu": 1239,
  "\u2581Are": 1240,
  "\u258111.": 1241,
  "\u2581question": 1242,
  "\u2581niyaon": 1243,
  "\u258115,": 1244,
  "\u2581Jacob": 1245,
  "\u2581kalusugan": 1246,
  "\u2581takot": 1247,
  "\u2581giving": 1248,
  "\u2581Today": 1249,
  "\u2581naming": 1250,
  "\u2581Cred": 1251,
  "\u258131": 1252,
  "\u2581halaga": 1253,
  "\u2581While": 1254,
  "\u2581Yamang": 1255,
  "\u2581Aprika": 1256,
  "\u2581desire": 1257,
  "\u2581pinaka": 1258,
  "\u2581talaksan": 1259,
  "\u2581saserdote": 1260,
  "\u2581difficult": 1261,
  "\u2581Sino": 1262,
  "\u2581forth": 1263,
  "\u2581strong": 1264,
  "\u2581kahulugan": 1265,
  "Sa": 1266,
  "\u2581second": 1267,
  "\u2581liwanag": 1268,
  "\u2581patay": 1269,
  "\u2581Corinthians": 1270,
  "\u2581anyo": 1271,
  "\u2581needs": 1272,
  "\u2581feelings": 1273,
  "\u2581once": 1274,
  "\u2581baga": 1275,
  "\u2581doktor": 1276,
  "\u2581libong": 1277,
  "\u2581sana": 1278,
  "\u2581Society": 1279,
  "\u2581angkop": 1280,
  "\u2581binanggit": 1281,
  "\u2581limang": 1282,
  "\u2581pamantayan": 1283,
  "\u25819.": 1284,
  "\u2581laman": 1285,
  "\u2581wrong": 1286,
  "\u2581reports": 1287,
  "\u2581baptized": 1288,
  "\u2581avoid": 1289,
  "\u2581ninyong": 1290,
  "\u2581mataas": 1291,
  "\u2581suliranin": 1292,
  "\u258112.": 1293,
  "\u2581James": 1294,
  "\u2581Kaniyang": 1295,
  "\u2581receive": 1296,
  "\u2581People": 1297,
  "\u2581sense": 1298,
  "O": 1299,
  "\u2581lead": 1300,
  "\u2581simply": 1301,
  "us": 1302,
  "\u2581soul": 1303,
  "\u2581wise": 1304,
  "\u2581open": 1305,
  "\u2581comes": 1306,
  "\u2581Creator": 1307,
  "\u2581heavenly": 1308,
  "\u2581try": 1309,
  "\u258113.": 1310,
  "\u2581sanggol": 1311,
  "\u2581Awake": 1312,
  "\u2581sina": 1313,
  "\u2581Bethel": 1314,
  "\u2581Timothy": 1315,
  "\u2581galit": 1316,
  "\u258116.": 1317,
  "\u25818:": 1318,
  "\u2581nation": 1319,
  "\u2581thee": 1320,
  "\u258124": 1321,
  "\u2581Australia": 1322,
  "\u2581kingdom": 1323,
  "\u2581call": 1324,
  "\u2581tingnan": 1325,
  "\u2581die": 1326,
  "\u2581whether": 1327,
  "\u25816.": 1328,
  "\u2581agad": 1329,
  "\u2581Footnote": 1330,
  "\u2581past": 1331,
  "\u2581months": 1332,
  "\u25813,": 1333,
  "\u2581huli": 1334,
  "\u2581respect": 1335,
  "\u2581provide": 1336,
  "\u2581involved": 1337,
  "\u2581knew": 1338,
  "\u2581works": 1339,
  "\u2581head": 1340,
  "\u2581within": 1341,
  "\u2581Timoteo": 1342,
  "\u2581ye": 1343,
  "\u2581templo": 1344,
  "\u2581likely": 1345,
  "\u2581wanted": 1346,
  "\u2581una": 1347,
  "\u2581already": 1348,
  "\u2581Samuel": 1349,
  "\u2581elder": 1350,
  "\u2581linggo": 1351,
  "\u2581hands": 1352,
  "\u2581local": 1353,
  "\u2581sea": 1354,
  "\u2581taking": 1355,
  "\u2581anointed": 1356,
  "\u258115:": 1357,
  "\u2581sure": 1358,
  "ne": 1359,
  "\u2581natural": 1360,
  "\u2581hinaharap": 1361,
  "\u258117.": 1362,
  "\u2581kaso": 1363,
  "\u2581ago": 1364,
  "\u2581Papaano": 1365,
  "\u2581gaanong": 1366,
  "\u2581sino": 1367,
  "\u2581moved": 1368,
  "Kahit": 1369,
  "\u2581salapi": 1370,
  "\u2581history": 1371,
  "\u2581account": 1372,
  "\u2581malaki": 1373,
  "\u2581tupa": 1374,
  "\u2581paanong": 1375,
  "B": 1376,
  "at": 1377,
  "\u2581magasing": 1378,
  "h": 1379,
  "\u2581pangmalas": 1380,
  "\u2581sapat": 1381,
  "\u2581mang": 1382,
  "\u2581ukol": 1383,
  "\u2581Sapagka": 1384,
  "\u2581stand": 1385,
  "\u2581susunod": 1386,
  "\u2581magandang": 1387,
  "\u2581tumanggap": 1388,
  "\u2581gamitin": 1389,
  "\u2581tulungan": 1390,
  "\u2581D": 1391,
  "\u2581lalake": 1392,
  ".\"": 1393,
  "\u2581Israelites": 1394,
  "\u2581coming": 1395,
  "\u2581mensahe": 1396,
  "\u2581follow": 1397,
  "\u2581eat": 1398,
  "\u2581hangin": 1399,
  "ukod": 1400,
  "\u2581saloobin": 1401,
  "\u2581conduct": 1402,
  "\u2581pananagutan": 1403,
  "\u258115.": 1404,
  "\u2581Such": 1405,
  "\u2581ten": 1406,
  "\u2581ibabaw": 1407,
  "\u2581less": 1408,
  "\u2581pagsubok": 1409,
  "\u2581hanggan": 1410,
  "\u258117:": 1411,
  "\u25819:": 1412,
  "\u2581Dur": 1413,
  "de": 1414,
  "\u2581pamumuhay": 1415,
  "\u2581namang": 1416,
  "\u2581relihiyosong": 1417,
  "\u2581kaaway": 1418,
  "\u2581pioneer": 1419,
  "\u258124:": 1420,
  "\u2581alone": 1421,
  "\u2581nagbigay": 1422,
  "\u2581government": 1423,
  "\u2581started": 1424,
  "\u2581tamang": 1425,
  "\u2581estudyante": 1426,
  "\u2581magkakaroon": 1427,
  "\u2581public": 1428,
  "isang": 1429,
  "\u2581muna": 1430,
  "\u2581maglaon": 1431,
  "\u2581Those": 1432,
  "\u2581neither": 1433,
  "\u2581Their": 1434,
  "\u2581longer": 1435,
  "\u2581common": 1436,
  "\u2581righteousness": 1437,
  "\u2581Box": 1438,
  "\u2581guro": 1439,
  "\u2581return": 1440,
  "\u2581using": 1441,
  "\u2581Oh": 1442,
  "\u2581disease": 1443,
  "\u2581nagtagal": 1444,
  "\u2581hear": 1445,
  "\u2581rather": 1446,
  "\u2581temple": 1447,
  "\u2581Luke": 1448,
  "\u2581area": 1449,
  "\u2581ourselves": 1450,
  "\u2581written": 1451,
  "\u2581suffering": 1452,
  "\u2581anim": 1453,
  "\u2581further": 1454,
  "\u2581turo": 1455,
  "\u258121": 1456,
  "\u2581tanging": 1457,
  "\u2581indibiduwal": 1458,
  "\u2581Gawa": 1459,
  "\u2581mamatay": 1460,
  "\u2581leave": 1461,
  "\u2581above": 1462,
  "\u2581malakas": 1463,
  "\u2581Times": 1464,
  "\u2581totoong": 1465,
  "\u2581got": 1466,
  "is": 1467,
  "\u2581taught": 1468,
  "\u2581nangangailangan": 1469,
  "\u2581mismong": 1470,
  "\u2581similar": 1471,
  "\u2581interest": 1472,
  "\u2581pakikipag": 1473,
  "\u2581ipina": 1474,
  "\u2581file": 1475,
  "\u2581kasamaan": 1476,
  "\u2581po": 1477,
  "\u2581Canada": 1478,
  "\u2581naniniwala": 1479,
  "\u2581Life": 1480,
  "\u2581Does": 1481,
  "\u2581simulain": 1482,
  "\u2581Church": 1483,
  "\u2581field": 1484,
  "\u2581false": 1485,
  "\u2581awtoridad": 1486,
  "\u2581side": 1487,
  "\u2581yaon": 1488,
  "D": 1489,
  "\u2581bundok": 1490,
  "\u2581lost": 1491,
  "T": 1492,
  "f": 1493,
  "\u2581maliwanag": 1494,
  "\u2581Marami": 1495,
  "\u2581fire": 1496,
  "\u2581half": 1497,
  "\u2581maliliit": 1498,
  "\u2581nilalang": 1499,
  "\u2581trust": 1500,
  "\u2581Lahat": 1501,
  "\u2581kautusan": 1502,
  "\u2581material": 1503,
  "\u2581evidence": 1504,
  "\u2581hanga": 1505,
  "\u2581napakarami": 1506,
  "\u2581six": 1507,
  "\u2581thinking": 1508,
  "\u2581benefit": 1509,
  "\u2581kakayahan": 1510,
  "\u2581katapatan": 1511,
  "\u2581patungo": 1512,
  "ve": 1513,
  "\u2581ganiyan": 1514,
  "\u2581siyentipiko": 1515,
  "bi": 1516,
  "\u2581Katoliko": 1517,
  "\u2581Tunay": 1518,
  "\u2581kilometro": 1519,
  "\u2581talaga": 1520,
  "\u2581Adam": 1521,
  "\u2581maingat": 1522,
  "\u2581nitong": 1523,
  "\u2581San": 1524,
  "\u2581Gumising": 1525,
  "\u2581See": 1526,
  "\u2581miles": 1527,
  "st": 1528,
  "\u2581serving": 1529,
  "\u2581II": 1530,
  "\u2581paniniwala": 1531,
  "mpung": 1532,
  "\u2581certainly": 1533,
  "\u258114:": 1534,
  "\u2581divine": 1535,
  "\u2581itself": 1536,
  "\u2581kept": 1537,
  "\u2581married": 1538,
  "\u2581prophet": 1539,
  "\u2581Maging": 1540,
  "\u2581karaniwan": 1541,
  "\u2581organisasyon": 1542,
  "\u2581Africa": 1543,
  "\u2581Maaari": 1544,
  "\u2581pananalita": 1545,
  "\u2581clear": 1546,
  "\u2581THE": 1547,
  "en": 1548,
  "\u2581Brother": 1549,
  "\u2581enough": 1550,
  "\u2581sinuman": 1551,
  "\u2581paggawi": 1552,
  "di": 1553,
  "\u2581Lucas": 1554,
  "\u2581Totoo": 1555,
  "\u2581pamahalaan": 1556,
  "5": 1557,
  "ay": 1558,
  "\u2581ipinakita": 1559,
  "\u2581makapag": 1560,
  "\u2581pahayagan": 1561,
  "\u258121:": 1562,
  "\u2581gaano": 1563,
  "\u2581kayamanan": 1564,
  "\u2581sanhi": 1565,
  "\u2581hukbo": 1566,
  "\u2581perhaps": 1567,
  "\u2581kaisipan": 1568,
  "\u2581greater": 1569,
  "\u2581modern": 1570,
  "\u2581likas": 1571,
  "\u2581kawalang": 1572,
  "\u2581Consider": 1573,
  "el": 1574,
  "\u2581physical": 1575,
  "\u2581Law": 1576,
  "\u2581Alam": 1577,
  "\u2581born": 1578,
  "\u2581principles": 1579,
  "\u2581based": 1580,
  "\u2581attitude": 1581,
  "\u2581gives": 1582,
  "ness": 1583,
  "\u2581pangako": 1584,
  "\u2581sumusunod": 1585,
  "\u2581Acts": 1586,
  "\u2581kulay": 1587,
  "\u2581Egypt": 1588,
  "\u2581matters": 1589,
  "\u2581nagpapakita": 1590,
  "\u2581India": 1591,
  "\u2581Juda": 1592,
  "\u2581kalayaan": 1593,
  "\u2581milyon": 1594,
  "\u2581lived": 1595,
  "\u2581act": 1596,
  "\u2581sheep": 1597,
  "\u2581km": 1598,
  "\u2581allow": 1599,
  "\u2581makatutulong": 1600,
  "\u2581issue": 1601,
  "\u2581seven": 1602,
  "ong": 1603,
  "\u25819,": 1604,
  "\u2581basta": 1605,
  "ta": 1606,
  "\u2581shows": 1607,
  "hin": 1608,
  "\u2581Romans": 1609,
  "\u00b7": 1610,
  "\u2581Joseph": 1611,
  "\u2581Will": 1612,
  "\u2581serious": 1613,
  "\u2581matapos": 1614,
  "\u2581teach": 1615,
  "\u2581anyone": 1616,
  "\u2581friend": 1617,
  "\u2581maunawaan": 1618,
  "\u2581whose": 1619,
  "\u2581mainam": 1620,
  "\u2581Europa": 1621,
  "\u2581organization": 1622,
  "\u2581several": 1623,
  "\u2581L": 1624,
  "\u2581showed": 1625,
  "\u2581madalas": 1626,
  "\u2581ibon": 1627,
  "\u2581F": 1628,
  "\u2581Adan": 1629,
  "\u2581sacrifice": 1630,
  "\u2581maling": 1631,
  "\u2581Re": 1632,
  "\u2581remain": 1633,
  "\u2581value": 1634,
  "\u2581Roman": 1635,
  "man": 1636,
  "\u2581Baka": 1637,
  "\u2581masamang": 1638,
  "\u2581anything": 1639,
  "\u2581mabilis": 1640,
  "\u2581makipag": 1641,
  "\u2581held": 1642,
  "\u2581nadarama": 1643,
  "\u2581pasimula": 1644,
  "\u2581J": 1645,
  "\u2581NG": 1646,
  "\u2581kindness": 1647,
  "\u2581makalangit": 1648,
  "\u258118.": 1649,
  "\u2581pray": 1650,
  "\u25816,": 1651,
  "\u2581perfect": 1652,
  "\u2581Judah": 1653,
  "\u2581fully": 1654,
  "\u2581niyaong": 1655,
  "\u2581tama": 1656,
  "\u2581tagasunod": 1657,
  "\u2581Pictures": 1658,
  "\u2581apoy": 1659,
  "\u2581naglilingkod": 1660,
  "\u2581Maliwanag": 1661,
  "\u2581kilala": 1662,
  "\u2581Brazil": 1663,
  "\u2581hours": 1664,
  "\u2581strength": 1665,
  "\u2581Mag": 1666,
  "able": 1667,
  "\u2581maglingkod": 1668,
  "\u258133": 1669,
  "\u2581kombensiyon": 1670,
  "\u2581Or": 1671,
  "\u2581nangangahulugan": 1672,
  "\u2581effect": 1673,
  "lo": 1674,
  "\u2581Sapagkat": 1675,
  "\u2581Tiyak": 1676,
  "M": 1677,
  "\u2581evil": 1678,
  "\u2581truly": 1679,
  "\u258126": 1680,
  "You": 1681,
  "\u2581rest": 1682,
  "\u2581explains": 1683,
  "\u2581manggagawa": 1684,
  "\u2581thousands": 1685,
  "\u2581hold": 1686,
  "\u2581kita": 1687,
  "\u25814,": 1688,
  "ation": 1689,
  "\u2581gayo": 1690,
  "\u2581families": 1691,
  "\u2581ikalawa": 1692,
  "\u2581pagtuturo": 1693,
  "\u2581least": 1694,
  "\u2581understanding": 1695,
  "\u2581balakyot": 1696,
  "\u2581Therefore": 1697,
  "\u2581everlasting": 1698,
  "\u2581dalawa": 1699,
  "\u2581tin": 1700,
  "\u2581deep": 1701,
  "\u2581tunguhin": 1702,
  "\u2581rule": 1703,
  "\u2581sinumang": 1704,
  "\u2581explained": 1705,
  "\u2581happiness": 1706,
  "\u2581malalaking": 1707,
  "\u258160": 1708,
  "\u2581almost": 1709,
  "\u2581poor": 1710,
  "\u2581misyonero": 1711,
  "\u2581puno": 1712,
  "\u2581kaligayahan": 1713,
  "\u258170": 1714,
  "\u2581Maria": 1715,
  "\u2581glory": 1716,
  "\u2581spoke": 1717,
  "\u2581atas": 1718,
  "\u2581American": 1719,
  "\u2581lipunan": 1720,
  "\u2581La": 1721,
  "\u2581anyos": 1722,
  "\u2581Ba": 1723,
  "\u2581gawing": 1724,
  "pi": 1725,
  "\u2581opisyal": 1726,
  "\u2581Griego": 1727,
  "\u2581popular": 1728,
  "\u2581nagawa": 1729,
  "\u2581millions": 1730,
  ").": 1731,
  "\u2581loved": 1732,
  "\u2581sun": 1733,
  "\u2581mahal": 1734,
  "\u2581dakilang": 1735,
  "\u2581tree": 1736,
  "\u2581materyal": 1737,
  "\u2581happened": 1738,
  "\u2581programa": 1739,
  "ha": 1740,
  "\u258118:": 1741,
  "\u258127": 1742,
  "\u2581Kahon": 1743,
  "\u2581Witness": 1744,
  "\u2581pisikal": 1745,
  "\u2581Jewish": 1746,
  "\u2581ari": 1747,
  "\u2581flesh": 1748,
  "\u2581meaning": 1749,
  "\u2581Iyo": 1750,
  "\u2581normal": 1751,
  "\u25815,": 1752,
  "\u2581provided": 1753,
  "\u2581mentioned": 1754,
  "\u2581punong": 1755,
  "\u2581Wala": 1756,
  "\u2581c": 1757,
  "\u2581inaasahan": 1758,
  "\u2581darating": 1759,
  "ya": 1760,
  "\u2581followers": 1761,
  "\u2581turned": 1762,
  "\u2581War": 1763,
  "\u2581resurrection": 1764,
  "\u2581deal": 1765,
  "\u2581lahi": 1766,
  "\u2581buh\u00e1y": 1767,
  "\u2581seem": 1768,
  "\u2581\u25cf": 1769,
  "\u2581TV": 1770,
  "\u2581working": 1771,
  "\u2581forever": 1772,
  "\u2581tumulong": 1773,
  "\u2581Rather": 1774,
  "\u2581Samantala": 1775,
  "\u2581air": 1776,
  "\u2581computer": 1777,
  "\u2581malinis": 1778,
  "\u2581animals": 1779,
  "\u2581karahasan": 1780,
  "\u2581kinalaman": 1781,
  "\u2581visit": 1782,
  "\u2581authority": 1783,
  "\u2581papel": 1784,
  "\u2581mai": 1785,
  "ch": 1786,
  "as": 1787,
  "\u2581myself": 1788,
  "\u2581youths": 1789,
  "\u2581continued": 1790,
  "\u2581paa": 1791,
  "z": 1792,
  "\u2581binigyan": 1793,
  "\u2581Most": 1794,
  "0": 1795,
  "\u2581violence": 1796,
  "\u2581Hebrew": 1797,
  "\u2581remember": 1798,
  "\u25812,": 1799,
  "\u2581University": 1800,
  "\u2581effort": 1801,
  "\u2581Mary": 1802,
  "\u2581nabubuhay": 1803,
  "\u2581pitong": 1804,
  "\u2581pribilehiyo": 1805,
  "\u2581judgment": 1806,
  "\u2581available": 1807,
  "\u2581alak": 1808,
  "\u2581diyos": 1809,
  "\u2581named": 1810,
  "\u2581London": 1811,
  "\u2581nalalaman": 1812,
  "\u258137": 1813,
  "\u2581True": 1814,
  "\u2581period": 1815,
  "\u2581offer": 1816,
  "\u2581voice": 1817,
  "\u2581individuals": 1818,
  "\u2581meeting": 1819,
  "\u2581pagsunod": 1820,
  "\u2581everything": 1821,
  "\u2581prophecy": 1822,
  "\u2581droga": 1823,
  "\u2581karapatan": 1824,
  "\u2581pain": 1825,
  "\u2581heavens": 1826,
  "\u2581nawa": 1827,
  "\u2581\u25aa": 1828,
  "\u2581accept": 1829,
  "\u2581stated": 1830,
  "\u2581mahusay": 1831,
  "\u2581places": 1832,
  "\u2581daughter": 1833,
  "\u2581led": 1834,
  "\u2581nagsimula": 1835,
  "\u2581liham": 1836,
  "\u2581Buhay": 1837,
  "\u2581speaking": 1838,
  "\u2581walk": 1839,
  "ia": 1840,
  "\u2581Ipinakikita": 1841,
  "\u2581pumasok": 1842,
  "\u2581Gilead": 1843,
  "\u2581priest": 1844,
  "\u2581panig": 1845,
  "\u2581madali": 1846,
  "\u2581move": 1847,
  "\u2581morning": 1848,
  "\u2581kabanata": 1849,
  "\u2581kabaitan": 1850,
  "\u258132": 1851,
  "\u2581ini": 1852,
  "\u2581text": 1853,
  "\u2581Mexico": 1854,
  "ga": 1855,
  "\u258116:": 1856,
  "\u2581mapa": 1857,
  "\u2581birth": 1858,
  "\u2581un": 1859,
  "\u2581100": 1860,
  "\u2581interes": 1861,
  "\u2581metro": 1862,
  "\u2581pamamahala": 1863,
  "\u2581simple": 1864,
  "\u2581tinanggap": 1865,
  "\u2581pagtitiwala": 1866,
  "\u2581clean": 1867,
  "\u2581gumagamit": 1868,
  "\u25aa": 1869,
  "\u02b9": 1870,
  "\u2581older": 1871,
  "\u2581hearts": 1872,
  "\u2581thousand": 1873,
  "ll": 1874,
  "\u2581witness": 1875,
  "\u2581efforts": 1876,
  "\u2581covenant": 1877,
  "\u2581publikasyon": 1878,
  "\u2581considered": 1879,
  "\u2581sama": 1880,
  "\u2581nangyayari": 1881,
  "\u2581kahanga": 1882,
  "\u2581letter": 1883,
  "\u2581South": 1884,
  "\u258120:": 1885,
  "\u2581easy": 1886,
  "\u2581pagbasa": 1887,
  "\u2581apostles": 1888,
  "\u2581Another": 1889,
  "\u2581Indeed": 1890,
  "\u2581pagkakaroon": 1891,
  "\u2581kamakailan": 1892,
  "\u2581various": 1893,
  "\u2581cities": 1894,
  "\u2581matatag": 1895,
  "\u2581priests": 1896,
  "\u2581nina": 1897,
  "\u2581biktima": 1898,
  "\u2581line": 1899,
  "\u2581mangha": 1900,
  "\u2581hundred": 1901,
  "\u2581pagbibigay": 1902,
  "\u2581seek": 1903,
  "\u2581source": 1904,
  "\u2581mangyayari": 1905,
  "\u2581start": 1906,
  "\u2581pera": 1907,
  ",...": 1908,
  "\u2581building": 1909,
  "\u2581itaas": 1910,
  "\u2581magpakailanman": 1911,
  "\u2581tagapangasiwa": 1912,
  "\u258119.": 1913,
  "\u2581re": 1914,
  "\u258129": 1915,
  "\u258120.": 1916,
  "\u2581caused": 1917,
  "\u2581month": 1918,
  "\u2581paningin": 1919,
  "\u2581kapaligiran": 1920,
  "\u2581paliwanag": 1921,
  "\u2581wonderful": 1922,
  "\u2581Ko": 1923,
  "\u2581Mas": 1924,
  "\u2581dumalo": 1925,
  "\u2581English": 1926,
  "\u2581tinig": 1927,
  "\u2581please": 1928,
  "\u2581Asia": 1929,
  "\u2581Read": 1930,
  "\u2581regarding": 1931,
  "\u2581students": 1932,
  "\u2581katao": 1933,
  "\u2581Jose": 1934,
  "\u2581katarungan": 1935,
  "me": 1936,
  "un": 1937,
  "Kung": 1938,
  "\u2581activity": 1939,
  "\u2581Did": 1940,
  "\u2581actually": 1941,
  "\u2581promise": 1942,
  "\u2581throughout": 1943,
  "\u2581Babylon": 1944,
  "\u2581Japan": 1945,
  "\u2581bibig": 1946,
  "\u2581getting": 1947,
  "\u2581ground": 1948,
  "\u2581lubos": 1949,
  "\u2581Devil": 1950,
  "\u2581mabuhay": 1951,
  "\u2581sound": 1952,
  "\u2581class": 1953,
  "\u2581powerful": 1954,
  "\u2581Una": 1955,
  "\u2581door": 1956,
  "\u2581single": 1957,
  "ko": 1958,
  "\u258114,": 1959,
  "\u2581cut": 1960,
  "\u2581itinuturin": 1961,
  "\u2581parts": 1962,
  "\u2581bumalik": 1963,
  "\u2581articles": 1964,
  "\u2581write": 1965,
  "\u2581Diyablo": 1966,
  "\u2581tried": 1967,
  "\u2581usually": 1968,
  "\u2581kaluwalhatian": 1969,
  "\u2581Gayundin": 1970,
  "\u2581W": 1971,
  "\u2581state": 1972,
  "\u2581doubt": 1973,
  "\u2581served": 1974,
  "\u2581spiritually": 1975,
  "\u258121.": 1976,
  "\u2581pahayag": 1977,
  "\u2581worldwide": 1978,
  "yo": 1979,
  "\u2581offering": 1980,
  "\u2581gain": 1981,
  "ce": 1982,
  "\u2581husto": 1983,
  "\u2581Pagka": 1984,
  "\u2581events": 1985,
  "\u2581legal": 1986,
  "\u2581indeed": 1987,
  "\u2581sexual": 1988,
  "\u2581Great": 1989,
  "\u2581dekada": 1990,
  "\u2581interesado": 1991,
  "w": 1992,
  "\u2581pagkabuhay": 1993,
  "il": 1994,
  "\u2581pagpapahalaga": 1995,
  "\u2581sisters": 1996,
  "\u2581malinaw": 1997,
  "\u2581everyone": 1998,
  "\u2581Europe": 1999,
  "\u2581unti": 2000,
  "\u2581matanda": 2001,
  "hambing": 2002,
  "\u2581Would": 2003,
  "\u2581ginto": 2004,
  "\u2581qualities": 2005,
  "\u2581Ikaw": 2006,
  "\u2581gift": 2007,
  "\u2581katapusan": 2008,
  "\u2581short": 2009,
  "\u2581circumstances": 2010,
  "\u2581Talaba": 2011,
  "\u2581kaligtasan": 2012,
  "\u2581servant": 2013,
  "\u2581pantanging": 2014,
  "co": 2015,
  "\u2581Basahin": 2016,
  "\u2581books": 2017,
  "\u2581kayang": 2018,
  "\u2581changed": 2019,
  "\u2581nakatira": 2020,
  "\u258128": 2021,
  "\u2581isipin": 2022,
  "\u2581paggalang": 2023,
  "eth": 2024,
  "\u2581patotoo": 2025,
  "\u2581meet": 2026,
  "R": 2027,
  "\u2581lands": 2028,
  "\u2581political": 2029,
  "\u2581hakbang": 2030,
  "hi": 2031,
  "\u2581inspired": 2032,
  "\u2581published": 2033,
  "\u2581nararapat": 2034,
  "\u2581anger": 2035,
  "\u2581kailan": 2036,
  "\u2581takes": 2037,
  "\u2581branch": 2038,
  "\u2581kaloob": 2039,
  "\u2581kasalukuyang": 2040,
  "\u2581described": 2041,
  "\u2581recent": 2042,
  "\u258111,": 2043,
  "\u2581kotse": 2044,
  "\u2581reported": 2045,
  "\u2581else": 2046,
  "\u2581listen": 2047,
  "\u2581social": 2048,
  "\u2581sex": 2049,
  "\u2581kahoy": 2050,
  "do": 2051,
  "\u2581congregations": 2052,
  "\u2581Bantayan": 2053,
  "\u2581built": 2054,
  "\u2581edyer": 2055,
  "\u2581idea": 2056,
  "\u258116,": 2057,
  "ar": 2058,
  "\u2581newspaper": 2059,
  "\u25817,": 2060,
  "\u2581job": 2061,
  "\u2581Hebrews": 2062,
  "\u2581centuries": 2063,
  "\u2581seems": 2064,
  "ur": 2065,
  "\u2581returned": 2066,
  "\u2581freedom": 2067,
  "\u2581magbigay": 2068,
  "\u2581medical": 2069,
  "Hindi": 2070,
  "\u2581Like": 2071,
  "\u2581musika": 2072,
  "\u2581Ezekiel": 2073,
  "\u2581masusumpungan": 2074,
  "\u2581subject": 2075,
  "\u2581tanggapin": 2076,
  "\u2581Santiago": 2077,
  "\u2581proved": 2078,
  "\u2581paglalakbay": 2079,
  "\u2581carry": 2080,
  "H": 2081,
  "\u2581mabubuti": 2082,
  "da": 2083,
  "\u2581matibay": 2084,
  "\u2581kasali": 2085,
  "\u2581bawa": 2086,
  "\u2581former": 2087,
  "\u2581size": 2088,
  "\u2581tinawag": 2089,
  "\u2581Marahil": 2090,
  "\u2581narito": 2091,
  "mi": 2092,
  "\u2581fall": 2093,
  "\u2581mapanganib": 2094,
  "\u2581pagsulong": 2095,
  "\u2581makapangyarihan": 2096,
  "\u2581nasumpungan": 2097,
  "\u2581accepted": 2098,
  "\u2581met": 2099,
  "\u2581Just": 2100,
  "\u2581Palibhasa": 2101,
  "\u2581ability": 2102,
  "\u2581build": 2103,
  "\u2581mouth": 2104,
  "\u2581magkagayo": 2105,
  "\u2581influence": 2106,
  "\u2581kapaki": 2107,
  "\u2581office": 2108,
  "ti": 2109,
  "\u2581car": 2110,
  "\u2581comfort": 2111,
  "\u2581daily": 2112,
  "\u2581sign": 2113,
  "\u2581slave": 2114,
  "\u2581position": 2115,
  "\u2581Romano": 2116,
  "\u2581ministro": 2117,
  "\u2581tutulong": 2118,
  "\u2581palagay": 2119,
  "\u2581didn": 2120,
  "\u2581behind": 2121,
  "\u2581force": 2122,
  "\u2581blessing": 2123,
  "\u2581pass": 2124,
  "\u2581Maylalang": 2125,
  "\u2581added": 2126,
  "\u2581created": 2127,
  "\u2581papaano": 2128,
  "\u2581entire": 2129,
  "\u2581reach": 2130,
  "\u2581role": 2131,
  "\u2581First": 2132,
  "\u2581magasin": 2133,
  "\u2581decision": 2134,
  "\u258110,": 2135,
  "\u2581grow": 2136,
  "\u2581mangyari": 2137,
  "\u2581impluwensiya": 2138,
  "\u2581mukha": 2139,
  "\u2581opportunity": 2140,
  "\u2581hamon": 2141,
  "4": 2142,
  "\u2581Hence": 2143,
  "\u2581prove": 2144,
  "\u2581pressure": 2145,
  "\u2581minister": 2146,
  "\u2581vital": 2147,
  "\u2581beses": 2148,
  "\u2581areas": 2149,
  "\u2581room": 2150,
  "\u2581answered": 2151,
  "\u2581offered": 2152,
  "\u2581taun": 2153,
  "\u2581Pina": 2154,
  "\u2581stop": 2155,
  "\u2581answers": 2156,
  "\u2581beginning": 2157,
  "\u2581pagkilos": 2158,
  "\u2581payunir": 2159,
  "\u2581program": 2160,
  "\u2581cases": 2161,
  "\u2581tanda": 2162,
  "\u2581ayaw": 2163,
  "\u2581St": 2164,
  "\u2581couple": 2165,
  "\u2581tinapay": 2166,
  "2": 2167,
  "\u2581tipan": 2168,
  "\u2581Kautusan": 2169,
  "\u2581handog": 2170,
  "\u2581destruction": 2171,
  "\u2581pasiya": 2172,
  "\u2581third": 2173,
  "\u2581beautiful": 2174,
  "\u2581anuman": 2175,
  "\u2581bigyan": 2176,
  "\u2581tagumpay": 2177,
  "\u2581kawan": 2178,
  "\u2581taimtim": 2179,
  "\u2581results": 2180,
  "\u2581mental": 2181,
  "\u2581pamamaraan": 2182,
  "\u2581mapag": 2183,
  "\u2581music": 2184,
  "\u2581patnubay": 2185,
  "\u2581learning": 2186,
  "\u2581libu": 2187,
  "\u2581Iyan": 2188,
  "\u2581binhi": 2189,
  "\u2581rich": 2190,
  "\u2581sins": 2191,
  "\u2581Amerika": 2192,
  "\u2581decided": 2193,
  "\u2581pagbabasa": 2194,
  "\u2581School": 2195,
  "\u2581drink": 2196,
  "\u2581killed": 2197,
  "\u2581sometimes": 2198,
  "\u2581week": 2199,
  "\u2581gold": 2200,
  "\u2581isyu": 2201,
  "\u2581prayers": 2202,
  "\u2581lider": 2203,
  "\u2581balat": 2204,
  "\u2581ideya": 2205,
  "\u2581kopya": 2206,
  "\u2581advice": 2207,
  "\u2581confidence": 2208,
  "\u2581kaarawan": 2209,
  "\u2581tanggapan": 2210,
  "\u2581teksto": 2211,
  "\u2581changes": 2212,
  "\u2581kilalang": 2213,
  "\u2581malubha": 2214,
  "\u2581aktuwal": 2215,
  "\u258122:": 2216,
  "\u2581nguni": 2217,
  "\u2581tumutulong": 2218,
  "\u2581larangan": 2219,
  "\u2581Instead": 2220,
  "\u2581helps": 2221,
  "\u2581complete": 2222,
  "\u2581gamot": 2223,
  "\u2581kaayusan": 2224,
  "\u2581R": 2225,
  "\u2581pandaigdig": 2226,
  "\u2581manunulat": 2227,
  "\u2581necessary": 2228,
  "\u2581activities": 2229,
  "\u2581honor": 2230,
  "\u2581either": 2231,
  "\u2581kakayahang": 2232,
  "\u2581p": 2233,
  "\u2581punungkahoy": 2234,
  "\u2581increase": 2235,
  "\u2581standards": 2236,
  "\u2581More": 2237,
  "\u2581bear": 2238,
  "K": 2239,
  "\u2581pay": 2240,
  "\u2581Have": 2241,
  "\u2581Noe": 2242,
  "\u2581clearly": 2243,
  "\u2581gusali": 2244,
  "\u2581antas": 2245,
  "\u2581develop": 2246,
  "\u2581pagsusuri": 2247,
  "Tungkol": 2248,
  "\u2581lokal": 2249,
  "\u2581Narito": 2250,
  "\u2581instance": 2251,
  "\u2581willing": 2252,
  "\u2581gamit": 2253,
  "\u2581Aaron": 2254,
  "L": 2255,
  "\u2581manatiling": 2256,
  "\u2581nagsimulang": 2257,
  "\u2581hath": 2258,
  "\u2581persons": 2259,
  "\u2581damit": 2260,
  "\u2581matalino": 2261,
  "\u2581Germany": 2262,
  "\u2581Jeremias": 2263,
  "\u2581angels": 2264,
  "\u2581shown": 2265,
  "\u2581Tayo": 2266,
  "\u2581affect": 2267,
  "\u2581raised": 2268,
  "\u258123.": 2269,
  "\u2581major": 2270,
  "\u2581ugnayan": 2271,
  "\u2581wonder": 2272,
  "\u2581Jeremiah": 2273,
  "\u2581awit": 2274,
  "\u2581practice": 2275,
  "\u2581Alemanya": 2276,
  "\u2581langis": 2277,
  "mo": 2278,
  "\u2581palibot": 2279,
  "\u2581followed": 2280,
  "\u2581N": 2281,
  "\u2581apply": 2282,
  "\u2581appointed": 2283,
  "\u2581concern": 2284,
  "\u2581timbang": 2285,
  "\u2581Nevertheless": 2286,
  "\u2581dami": 2287,
  "\u2581e": 2288,
  "\u2581matagal": 2289,
  "\u258112,": 2290,
  "\u2581Ehipto": 2291,
  "\u2581kahilingan": 2292,
  "\u2581stay": 2293,
  "\u25817]": 2294,
  "\u2581Digmaan": 2295,
  "\u2581promises": 2296,
  "\u2581Mayroon": 2297,
  "\u2581Still": 2298,
  "\u2581dulo": 2299,
  "\u2581pagdating": 2300,
  "um": 2301,
  "\u2581Nations": 2302,
  "\u2581Mark": 2303,
  "\u2581kamangha": 2304,
  "\u2581laws": 2305,
  "\u2581pagkakamali": 2306,
  "\u2581isla": 2307,
  "\u2581mali": 2308,
  "walang": 2309,
  "\u2581dinala": 2310,
  "\u2581Efeso": 2311,
  "\u2581godly": 2312,
  "\u2581kinabukasan": 2313,
  "ry": 2314,
  "\u2581girl": 2315,
  "\u2581klase": 2316,
  "\u2581thoughts": 2317,
  "\u2581ilog": 2318,
  "\u2581pulutong": 2319,
  "\u2581appropriate": 2320,
  "\u2581quickly": 2321,
  "\u2581lot": 2322,
  "\u2581earlier": 2323,
  "\u2581sandali": 2324,
  "\u2581gumamit": 2325,
  "\u2581prison": 2326,
  "\u2581Noah": 2327,
  "\u2581trees": 2328,
  "\u2581Kami": 2329,
  "\u2581failed": 2330,
  "\u2581pala": 2331,
  "\u2581pinahirang": 2332,
  "\u2581umiiral": 2333,
  "\u258123]": 2334,
  "\u2581oil": 2335,
  "\u2581praise": 2336,
  "\u2581Isaac": 2337,
  "\u2581convention": 2338,
  "\u2581education": 2339,
  "\u2581natutuhan": 2340,
  "\u2581parent": 2341,
  "\u2581Later": 2342,
  "\u2581suffer": 2343,
  "\u2581appreciate": 2344,
  "\u2581business": 2345,
  "\u2581basahin": 2346,
  "\u2581looking": 2347,
  "\u2581Bago": 2348,
  "\u2581mahabang": 2349,
  "\u2581sight": 2350,
  "\u2581talata": 2351,
  "\u2581passed": 2352,
  "\u2581sundin": 2353,
  "\u2581nakatulong": 2354,
  "\u2581umalis": 2355,
  "\u2581lack": 2356,
  "\u2581examples": 2357,
  "\u2581action": 2358,
  "\u2581baptism": 2359,
  "\u2581eye": 2360,
  "\u2581noted": 2361,
  "\u2581outside": 2362,
  "\u2581filled": 2363,
  "gkakristiyanuhan": 2364,
  "ku": 2365,
  "\u2581pages": 2366,
  "It": 2367,
  "\u2581pagkakaiba": 2368,
  "\u2581silid": 2369,
  "God": 2370,
  "\u2581maintain": 2371,
  "\u2581privilege": 2372,
  "\u2581record": 2373,
  "\u2581Christendom": 2374,
  "\u2581Health": 2375,
  "\u2581kapakanan": 2376,
  "\u2581reasons": 2377,
  "\u2581National": 2378,
  "\u2581fruit": 2379,
  "\u2581youth": 2380,
  "est": 2381,
  "\u2581Moreover": 2382,
  "\u2581dati": 2383,
  "\u2581kirot": 2384,
  "\u2581pinili": 2385,
  "\u258117]": 2386,
  "\u2581Ask": 2387,
  "\u2581experienced": 2388,
  "\u2581sulat": 2389,
  "\u2581Scriptural": 2390,
  "wa": 2391,
  "\u2581Eva": 2392,
  "\u2581kumilos": 2393,
  "\u258122.": 2394,
  "\u2581Dakila": 2395,
  "\u2581Ni": 2396,
  "\u2581include": 2397,
  "\u2581treatment": 2398,
  "\u2581Talagang": 2399,
  "\u2581appreciation": 2400,
  "\u2581exercise": 2401,
  "bu": 2402,
  "\u2581hour": 2403,
  "\u2581salvation": 2404,
  "\u2581lumabas": 2405,
  "\u2581begin": 2406,
  "We": 2407,
  "pag": 2408,
  "\u2581makilala": 2409,
  "\u2581kinasihan": 2410,
  "\u2581pinuno": 2411,
  "\u2581becoming": 2412,
  "\u2581\u2019?": 2413,
  "\u2581nagsasalita": 2414,
  "\u2581tumpak": 2415,
  "\u2581kina": 2416,
  "\u2581trying": 2417,
  "\u2581Where": 2418,
  "\u2581galing": 2419,
  "\u2581huwad": 2420,
  "\u2581England": 2421,
  "\u2581training": 2422,
  "\u2581Though": 2423,
  "\u2581aralan": 2424,
  "mp": 2425,
  "\u2581France": 2426,
  "\u2581babala": 2427,
  "\u2581literal": 2428,
  "\u2581responsibility": 2429,
  "\u2581budhi": 2430,
  "be": 2431,
  "\u2581City": 2432,
  "\u2581diwa": 2433,
  "less": 2434,
  "\u2581creation": 2435,
  "\u2581per": 2436,
  "\u2581kadalasang": 2437,
  "\u2581teachings": 2438,
  "3": 2439,
  "\u2581iniisip": 2440,
  "\u2581masasamang": 2441,
  "\u2581nakilala": 2442,
  "\u2581natuklasan": 2443,
  "\u2581pangangalaga": 2444,
  "\u2581About": 2445,
  "F": 2446,
  "pe": 2447,
  "\u2581conditions": 2448,
  "\u2581mananaliksik": 2449,
  "\u258113,": 2450,
  "\u2581proper": 2451,
  "\u2581chapter": 2452,
  "\u2581kings": 2453,
  "\u2581basis": 2454,
  "\u2581developed": 2455,
  "\u2581uusig": 2456,
  "\u2581attend": 2457,
  "\u2581crowd": 2458,
  "\u2581iisang": 2459,
  "\u2581promised": 2460,
  "\u2581beyond": 2461,
  "\u258124.": 2462,
  "\u2581pasyente": 2463,
  "\u2581regard": 2464,
  "\u2581Well": 2465,
  "\u2581direction": 2466,
  "\u2581process": 2467,
  "\u2581key": 2468,
  "\u2581allowed": 2469,
  "\u2581matagumpay": 2470,
  "im": 2471,
  "\u2581leaders": 2472,
  "\u2581speech": 2473,
  "so": 2474,
  "\u2581individual": 2475,
  "\u2581kasiyahan": 2476,
  "\u2581maligaya": 2477,
  "\u2581ganap": 2478,
  "\u2581umaga": 2479,
  "\u2581bread": 2480,
  "\u2581laking": 2481,
  "\u2581foretold": 2482,
  "\u2581Before": 2483,
  "%": 2484,
  "\u2581determined": 2485,
  "\u2581happen": 2486,
  "\u2581white": 2487,
  "\u2581kabuluhan": 2488,
  "po": 2489,
  "\u2581Latin": 2490,
  "\u2581feeling": 2491,
  "\u2581unawa": 2492,
  "\u2581pagkamatay": 2493,
  "\u258115]": 2494,
  "\u2581precious": 2495,
  "\u2581sleep": 2496,
  "\u2581katuparan": 2497,
  "\u2581Others": 2498,
  "\u2581blessings": 2499,
  "\u2581baby": 2500,
  "\u2581napaka": 2501,
  "\u2581Children": 2502,
  "\u2581justice": 2503,
  "\u2581accurate": 2504,
  "\u2581interested": 2505,
  "\u2581kani": 2506,
  "ul": 2507,
  "\u2581Holy": 2508,
  "\u2581addition": 2509,
  "\u2581revealed": 2510,
  "\u2581pinsala": 2511,
  "\u2581population": 2512,
  "\u2581spread": 2513,
  "tu": 2514,
  "\u2581inside": 2515,
  "\u2581drugs": 2516,
  "\u2581nagpakita": 2517,
  "\u2581kawalan": 2518,
  "\u2581pagkakaisa": 2519,
  "\u2581recorded": 2520,
  "\u2581stress": 2521,
  "\u2581ready": 2522,
  "\u2581realize": 2523,
  "Y": 2524,
  "\u2581quite": 2525,
  "he": 2526,
  "\u2581nayon": 2527,
  "ter": 2528,
  "\u2581conscience": 2529,
  "\u2581general": 2530,
  "\u2581krimen": 2531,
  "\u2581produce": 2532,
  "\u2581napa": 2533,
  "\u2581spent": 2534,
  "se": 2535,
  "\u2581preach": 2536,
  "\u2581napakahalaga": 2537,
  "\u2581handa": 2538,
  "\u2581helping": 2539,
  "\u2581literature": 2540,
  "\u2581society": 2541,
  "8": 2542,
  "\u2581mayroong": 2543,
  "\u258134": 2544,
  "\u2581mahahalagang": 2545,
  "\u2581nature": 2546,
  "\u2581salig": 2547,
  "Jehovah": 2548,
  "\u2581abala": 2549,
  "\u2581condition": 2550,
  "\u2581occasion": 2551,
  "\u2581regularly": 2552,
  "\u258180": 2553,
  "\u2581homes": 2554,
  "\u2581yugto": 2555,
  "vi": 2556,
  "\u2581barko": 2557,
  "\u2581enemies": 2558,
  "\u2581kongregasyong": 2559,
  "\u2581commanded": 2560,
  "\u2581naninirahan": 2561,
  "\u2581Internet": 2562,
  "\u2581harmony": 2563,
  "\u2581nagpapa": 2564,
  "\u2581ibinibigay": 2565,
  "\u2581paper": 2566,
  "\u2581kamag": 2567,
  "\u2581libo": 2568,
  "\u2581protect": 2569,
  "\u2581Babilonya": 2570,
  "\u2581ospital": 2571,
  "\u2581selula": 2572,
  "\u2581karapat": 2573,
  "\u2581risk": 2574,
  "\u2581modernong": 2575,
  "If": 2576,
  "\u2581German": 2577,
  "ion": 2578,
  "\u2581Man": 2579,
  "\u2581halaman": 2580,
  "\u2581integrity": 2581,
  "\u2581worked": 2582,
  "\u2581command": 2583,
  "\u2581kapighatian": 2584,
  "\u2581labanan": 2585,
  "\u2581puwersa": 2586,
  "\u2581edukasyon": 2587,
  "\u2581languages": 2588,
  "\u2581practical": 2589,
  "\u2581doctor": 2590,
  "\u2581mahigpit": 2591,
  "\u2581posibleng": 2592,
  "\u2581milyun": 2593,
  "\u2581pakikitungo": 2594,
  "\u2581presence": 2595,
  "\u2581greatest": 2596,
  "\u2581nearly": 2597,
  "\u2581pagsasanay": 2598,
  "\u2581draw": 2599,
  "\u2581pagkakataong": 2600,
  "ton": 2601,
  "\u2581tabak": 2602,
  "\u2581earthly": 2603,
  "\u2581knows": 2604,
  "\u2581spend": 2605,
  "\u2581positive": 2606,
  "\u2581Kabataan": 2607,
  "\u2581Timog": 2608,
  "\u2581ipakita": 2609,
  "\u2581sambahayan": 2610,
  "\u2581altar": 2611,
  "\u2581related": 2612,
  "\u2581tells": 2613,
  "\u2581Kayo": 2614,
  "\u2581destroyed": 2615,
  "\u2581species": 2616,
  "\u2581Perhaps": 2617,
  "\u2581alive": 2618,
  "\u2581enjoyed": 2619,
  "\u2581sasabihin": 2620,
  "\u2581dumalaw": 2621,
  "\u2581established": 2622,
  "\u2581spoken": 2623,
  "\u2581workers": 2624,
  "\u2581yourselves": 2625,
  "\u2581notes": 2626,
  "\u2581break": 2627,
  "\u2581nakapag": 2628,
  "\u2581siyensiya": 2629,
  "\u2581arrived": 2630,
  "\u2581Also": 2631,
  "\u2581narinig": 2632,
  "\u2581date": 2633,
  "\u2581paraiso": 2634,
  "\u2581fish": 2635,
  "\u2581groups": 2636,
  "\u2581loyal": 2637,
  "\u2581member": 2638,
  "\u2581pari": 2639,
  "\u2581Mangyari": 2640,
  "\u2581emotional": 2641,
  "\u2581fulfillment": 2642,
  "\u2581Aking": 2643,
  "\u2581paradise": 2644,
  "\u2581hain": 2645,
  "\u258117,": 2646,
  "\u2581kaugalian": 2647,
  "\u2581type": 2648,
  "\u2581Nguni": 2649,
  "\u2581contact": 2650,
  "\u2581matuto": 2651,
  "\u2581pangkat": 2652,
  "\u2581Ta": 2653,
  "\u2581completely": 2654,
  "\u2581naroroon": 2655,
  "\u2581eventually": 2656,
  "\u2581growing": 2657,
  "\u2581utak": 2658,
  "\u2581goes": 2659,
  "\u2581blessed": 2660,
  "\u2581encouraged": 2661,
  "\u2581test": 2662,
  "\u2581kagubatan": 2663,
  "\u2581magsalita": 2664,
  "son": 2665,
  "\u2581studies": 2666,
  "\u258119,": 2667,
  "6": 2668,
  "\u2581animal": 2669,
  "\u2581huminto": 2670,
  "x": 2671,
  "\u2581Pandaigdig": 2672,
  "\u2581naglalakbay": 2673,
  "\u2581wine": 2674,
  "\u2581punto": 2675,
  "\u258190": 2676,
  "\u2581Gusto": 2677,
  "\u2581walking": 2678,
  "\u2581finally": 2679,
  "\u2581success": 2680,
  "\u2581alisin": 2681,
  "\u2581play": 2682,
  "\u2581believers": 2683,
  "\u2581binabanggit": 2684,
  "\u2581concerning": 2685,
  "\u2581ipa": 2686,
  "\u2581mananamba": 2687,
  "ho": 2688,
  "\u2581security": 2689,
  "unang": 2690,
  "\u2581big": 2691,
  "\u2581isda": 2692,
  "\u258126]": 2693,
  "\u2581Young": 2694,
  "\u2581address": 2695,
  "\u2581dumarating": 2696,
  "\u2581ingat": 2697,
  "In": 2698,
  "\u2581pagtatayo": 2699,
  "\u2581masasabi": 2700,
  "\u2581oo": 2701,
  "\u2581ransom": 2702,
  "\u2581handang": 2703,
  "\u2581seed": 2704,
  "\u2581studying": 2705,
  "AN": 2706,
  "\u2581bahala": 2707,
  "\u2581biglang": 2708,
  "\u2581populasyon": 2709,
  "\u2581mamamatay": 2710,
  "\u258135": 2711,
  "\u2581wants": 2712,
  "\u2581mountain": 2713,
  "\u2581sick": 2714,
  "\u2581opened": 2715,
  "\u2581believed": 2716,
  "\u2581inilagay": 2717,
  "\u2581missionary": 2718,
  "\u2581scientists": 2719,
  "\u2581asang": 2720,
  "ke": 2721,
  "\u2581aktibo": 2722,
  "\u2581malayo": 2723,
  "\u2581kumain": 2724,
  "\u2581Compare": 2725,
  "\u2581carried": 2726,
  "\u2581gods": 2727,
  "\u2581tag": 2728,
  "9": 2729,
  "\u2581MGA": 2730,
  "\u2581save": 2731,
  "\u2581ligtas": 2732,
  "\u2581writing": 2733,
  "\u2581original": 2734,
  "\u2581prepared": 2735,
  "\u2581napakalaki": 2736,
  "\u2581UN": 2737,
  "\u2581praktikal": 2738,
  "\u2581provides": 2739,
  "\u2581IN": 2740,
  "\u2581tinutukoy": 2741,
  "\u2581Pransiya": 2742,
  "\u2581Sabi": 2743,
  "\u2581literatura": 2744,
  "\u2581negosyo": 2745,
  "\u2581although": 2746,
  "\u2581quality": 2747,
  "\u2581challenge": 2748,
  "rb": 2749,
  "\u2581Brooklyn": 2750,
  "\u2581International": 2751,
  "\u2581seemed": 2752,
  "ism": 2753,
  "\u2581bulay": 2754,
  "\u2581waters": 2755,
  "\u2581kumuha": 2756,
  "\u2581town": 2757,
  "\u2581Joshua": 2758,
  "\u2581teacher": 2759,
  "\u2581discipline": 2760,
  "\u2581malaya": 2761,
  "go": 2762,
  "\u2581final": 2763,
  "\u2581gone": 2764,
  "ca": 2765,
  "\u2581namamatay": 2766,
  "\u2581sangkap": 2767,
  "\u2581angel": 2768,
  "\u2581calls": 2769,
  "\u2581hangganan": 2770,
  "\u2581term": 2771,
  "\u2581African": 2772,
  "\u2581choose": 2773,
  "\u2581inaakala": 2774,
  "\u2581court": 2775,
  "\u2581seeking": 2776,
  "\u2581expect": 2777,
  "\u2581kinakailangang": 2778,
  "\u2581nakaraang": 2779,
  "\u2581simula": 2780,
  "\u2581Eve": 2781,
  "\u2581Soon": 2782,
  "\u2581Russia": 2783,
  "\u2581invited": 2784,
  "\u2581psalmist": 2785,
  "\u258125]": 2786,
  "\u25819]": 2787,
  "\u2581Me": 2788,
  "\u2581decisions": 2789,
  "\u2581haba": 2790,
  "\u2581research": 2791,
  "\u2581fight": 2792,
  "\u2581katibayan": 2793,
  "\u2581mercy": 2794,
  "\u2581causes": 2795,
  "\u2581showing": 2796,
  "\u2581warning": 2797,
  "\u2581patient": 2798,
  "\u2581Time": 2799,
  "ru": 2800,
  "\u2581'": 2801,
  "\u2581kill": 2802,
  "ngangahulugang": 2803,
  "\u2581nagkasala": 2804,
  "ting": 2805,
  "\u2581imitate": 2806,
  "\u2581acts": 2807,
  "\u2581loss": 2808,
  "\u258145": 2809,
  "\u2581Rome": 2810,
  "\u2581respond": 2811,
  "glalaman": 2812,
  "\u2581beliefs": 2813,
  "\u2581salmista": 2814,
  "\u2581weeks": 2815,
  "\u2581Love": 2816,
  "\u2581immediately": 2817,
  "\u2581fell": 2818,
  "N": 2819,
  "\u2581pu": 2820,
  "\u2581pinakamalaki": 2821,
  "\u2581200": 2822,
  "\u2581diyan": 2823,
  "pu": 2824,
  "\u258125.": 2825,
  "\u2581express": 2826,
  "\u2581iwasan": 2827,
  "\u2581Only": 2828,
  "\u2581Silangan": 2829,
  "\u2581nakikipag": 2830,
  "ment": 2831,
  "\u2581America": 2832,
  "\u2581Naka": 2833,
  "\u2581Samakatuwid": 2834,
  "\u2581Daigdig": 2835,
  "\u2581abuse": 2836,
  "\u2581pantubos": 2837,
  "\u2581pusong": 2838,
  "\u2581laki": 2839,
  "\u2581French": 2840,
  "\u2581send": 2841,
  "\u2581Higit": 2842,
  "\u2581virus": 2843,
  "\u2581Two": 2844,
  "\u2581itinuturo": 2845,
  "\u2581required": 2846,
  "\u2581sword": 2847,
  "\u2581gobyerno": 2848,
  "\u2581matututuhan": 2849,
  "\u2581boy": 2850,
  "\u2581saka": 2851,
  "1": 2852,
  "\u2581Bagong": 2853,
  "\u2581observed": 2854,
  "Huwag": 2855,
  "\u2581Christianity": 2856,
  "Ma": 2857,
  "\u2581pinagmulan": 2858,
  "\u2581Each": 2859,
  "\u2581Here": 2860,
  "\u2581drug": 2861,
  "\u2581whatever": 2862,
  "\u2581looked": 2863,
  "\u2581orihinal": 2864,
  "\u2581pagmamahal": 2865,
  "\u2581standing": 2866,
  "\u2581front": 2867,
  "\u2581mamamayan": 2868,
  "id": 2869,
  "\u258118]": 2870,
  "\u2581De": 2871,
  "\u2581eight": 2872,
  "\u2581personality": 2873,
  "\u2581puwede": 2874,
  "\u2581benefits": 2875,
  "\u2581posible": 2876,
  "\u2581El": 2877,
  "\u2581fathers": 2878,
  "os": 2879,
  "\u2581Ingles": 2880,
  "\u2581Nazi": 2881,
  "\u2581seksuwal": 2882,
  "\u2581due": 2883,
  "\u2581fulfilled": 2884,
  "\u2581uusap": 2885,
  "\u2581Gayon": 2886,
  "\u2581kuwento": 2887,
  "\u2581tumugon": 2888,
  "\u2581pagdurusa": 2889,
  "\u2581prayed": 2890,
  "\u2581Sea": 2891,
  "\u2581expression": 2892,
  "\u2581recently": 2893,
  "\u2581favor": 2894,
  "\u2581kaunting": 2895,
  "\u2581bilangguan": 2896,
  "\u2581humingi": 2897,
  "\u2581karamdaman": 2898,
  "\u2581minuto": 2899,
  "\u2581usapan": 2900,
  "\u2581mahihirap": 2901,
  "\u2581pastol": 2902,
  "\u2581run": 2903,
  "\u2581ilustrasyon": 2904,
  "\u2581suriin": 2905,
  "\u2581forward": 2906,
  "\u2581Over": 2907,
  "\u2581suffered": 2908,
  "\u2581bukod": 2909,
  "\u2581dala": 2910,
  "\u2581picture": 2911,
  "\u258110]": 2912,
  "\u2581iisa": 2913,
  "\u2581Le": 2914,
  "\u2581watch": 2915,
  "\u2581Book": 2916,
  "\u2581Jordan": 2917,
  "\u2581News": 2918,
  "\u2581Paradise": 2919,
  "\u2581keeping": 2920,
  "\u2581knowing": 2921,
  "\u2581Ganiyan": 2922,
  "\u2581bumaba": 2923,
  "\u2581traveling": 2924,
  "\u2581susi": 2925,
  "\u2581buto": 2926,
  "\u2581naiiba": 2927,
  "\u2581protection": 2928,
  "\u2581wives": 2929,
  "NG": 2930,
  "\u2581gana": 2931,
  "\u2581lagi": 2932,
  "ling": 2933,
  "\u2581paggamot": 2934,
  "\u2581particularly": 2935,
  "\u2581tumutukoy": 2936,
  "\u2581\u201d!": 2937,
  "\u2581eating": 2938,
  "\u2581nadama": 2939,
  "\u2581danger": 2940,
  "\u2581behavior": 2941,
  "\u2581inihula": 2942,
  "\u2581publication": 2943,
  "\u2581appear": 2944,
  "\u2581obey": 2945,
  "\u2581interests": 2946,
  "\u2581Minsan": 2947,
  "\u2581mabisa": 2948,
  "\u2581Keep": 2949,
  "\u2581adds": 2950,
  "\u2581panginoon": 2951,
  "\u2581makinig": 2952,
  "\u2581mate": 2953,
  "\u2581pinagmumulan": 2954,
  "\u2581alaala": 2955,
  "\u2581nagsisi": 2956,
  "\u2581pangalang": 2957,
  "\u2581Ruth": 2958,
  "\u2581kultura": 2959,
  "\u2581nagtatrabaho": 2960,
  "\u2581actions": 2961,
  "\u2581assignment": 2962,
  "\u2581explain": 2963,
  "\u2581firm": 2964,
  "_": 2965,
  "\u2581Mesiyas": 2966,
  "\u2581sekso": 2967,
  "\u2581relief": 2968,
  "\u2581Talaga": 2969,
  "\u2581increased": 2970,
  "\u2581birds": 2971,
  "\u2581European": 2972,
  "\u2581police": 2973,
  "\u2581expressed": 2974,
  "\u2581inilalarawan": 2975,
  "\u2581pangitain": 2976,
  "bo": 2977,
  "\u2581gas": 2978,
  "\u2581instead": 2979,
  "\u2581NA": 2980,
  "\u2581character": 2981,
  "pananampalataya": 2982,
  "\u2581choice": 2983,
  "\u2581progress": 2984,
  "\u2581ulan": 2985,
  "\u2581flock": 2986,
  "\u2581matapat": 2987,
  "\u2581basic": 2988,
  "\u2581makatuwiran": 2989,
  "\u2581meant": 2990,
  "\u2581init": 2991,
  "ol": 2992,
  "\u2581Encyclopedia": 2993,
  "\u2581Its": 2994,
  "\u2581authorities": 2995,
  "\u2581series": 2996,
  "\u2581tabi": 2997,
  "\u2581Malamang": 2998,
  "\u2581evening": 2999,
  "\u2581pambihirang": 3000,
  "\u2581direksiyon": 3001,
  "\u2581declared": 3002,
  "\u2581kinakailangan": 3003,
  "\u2581maikli": 3004,
  "\u2581shal": 3005,
  "ci": 3006,
  "\u2581error": 3007,
  "\u2581sinisikap": 3008,
  "\u2581teritoryo": 3009,
  "\u2581binubuo": 3010,
  "\u2581enter": 3011,
  "\u2581Good": 3012,
  "\u2581copy": 3013,
  "\u2581easily": 3014,
  "\u2581lie": 3015,
  "\u2581tirahan": 3016,
  "\u2581camp": 3017,
  "\u2581late": 3018,
  "\u2581kinailangan": 3019,
  "\u258129.": 3020,
  "\u2581road": 3021,
  "rs": 3022,
  "\u2581island": 3023,
  "\u2581lakad": 3024,
  "\u2581pagkakasala": 3025,
  "\u2581Ephesians": 3026,
  "\u2581active": 3027,
  "\u2581heavy": 3028,
  "\u2581names": 3029,
  "\u2581brain": 3030,
  "\u2581goal": 3031,
  "\u2581military": 3032,
  "\u2581iniutos": 3033,
  "\u2581tagapamahala": 3034,
  "\u2581image": 3035,
  "\u258124,": 3036,
  "\u2581Ipina": 3037,
  "ial": 3038,
  "\u2581Lupa": 3039,
  "\u2581wait": 3040,
  "\u2581bayad": 3041,
  "\u2581vision": 3042,
  "\u2581chosen": 3043,
  "\u2581Karaniwan": 3044,
  "\u2581aari": 3045,
  "\u2581behold": 3046,
  "\u2581inilathala": 3047,
  "\u2581kaaliwan": 3048,
  "\u2581\u25c6": 3049,
  "\u2581dedicated": 3050,
  "\u2581expected": 3051,
  "\u2581pinahiran": 3052,
  "\u2581talababa": 3053,
  "\u2581lumipat": 3054,
  "\u2581magpa": 3055,
  "\u2581reached": 3056,
  "\u2581Paraiso": 3057,
  "\u2581awa": 3058,
  "\u2581pagsasalita": 3059,
  "\u2581sangay": 3060,
  "\u2581continues": 3061,
  "\u2581deeply": 3062,
  "\u258118,": 3063,
  "\u258120,": 3064,
  "\u2581iskolar": 3065,
  "\u2581kalahati": 3066,
  "\u2581Remember": 3067,
  "\u2581steps": 3068,
  "\u2581neighbor": 3069,
  "\u2581claim": 3070,
  "\u2581realized": 3071,
  "ah": 3072,
  "\u2581nabanggit": 3073,
  "\u2581produced": 3074,
  "\u2581Un": 3075,
  "\u2581international": 3076,
  "\u2581missionaries": 3077,
  "\u2581Hangga": 3078,
  "\u2581cost": 3079,
  "\u2581rain": 3080,
  "\u2581ahead": 3081,
  "\u2581kahalagahan": 3082,
  "\u2581seeing": 3083,
  "\u2581hundreds": 3084,
  "\u2581kanser": 3085,
  "\u2581probably": 3086,
  "\u2581army": 3087,
  "\u2581environment": 3088,
  "\u2581walong": 3089,
  "\u2581Mabuti": 3090,
  "\u2581Saan": 3091,
  "\u2581devotion": 3092,
  "\u2581judge": 3093,
  "\u2581center": 3094,
  "\u2581discovered": 3095,
  "\u2581step": 3096,
  "\u2581Messiah": 3097,
  "\u2581sacred": 3098,
  "\u2581contains": 3099,
  "\u2581pagdalaw": 3100,
  "\u2581iingat": 3101,
  "\u2581bautismo": 3102,
  "\u2581Kasama": 3103,
  "\u2581household": 3104,
  "\u2581battle": 3105,
  "\u2581black": 3106,
  "\u2581Us": 3107,
  "\u2581Eden": 3108,
  "\u2581treat": 3109,
  "7": 3110,
  "\u2581guidance": 3111,
  "\u2581bulaklak": 3112,
  "\u2581mainit": 3113,
  "\u2581salik": 3114,
  "\u2581Similarly": 3115,
  "\u2581demonyo": 3116,
  "\u2581istilo": 3117,
  "hindi": 3118,
  "\u2581low": 3119,
  "Do": 3120,
  "\u2581Josue": 3121,
  "\u2581lihim": 3122,
  "\u2581main": 3123,
  "\u2581proteksiyon": 3124,
  "\u2581universe": 3125,
  "\u2581Tula": 3126,
  "\u2581across": 3127,
  "\u2581katamtaman": 3128,
  "\u2581story": 3129,
  "\u2581bituin": 3130,
  "\u2581economic": 3131,
  "\u2581escape": 3132,
  "\u2581paniwala": 3133,
  "\u2581unique": 3134,
  "\u2581Aleman": 3135,
  "\u2581brings": 3136,
  "\u2581affected": 3137,
  "\u2581points": 3138,
  "\u2581average": 3139,
  "\u2581energy": 3140,
  "\u2581kasuwato": 3141,
  "\u2581lansangan": 3142,
  "\u2581Despi": 3143,
  "hu": 3144,
  "type": 3145,
  "\u2581cover": 3146,
  "\u2581pagsasalin": 3147,
  "\u2581produkto": 3148,
  "\u2581responsible": 3149,
  "\u25811990": 3150,
  "\u2581surely": 3151,
  "\u2581marinig": 3152,
  "\u2581Iyon": 3153,
  "\u2581pagpapa": 3154,
  "ian": 3155,
  "\u2581anupa": 3156,
  "\u2581hospital": 3157,
  "\u2581inhabitants": 3158,
  "\u2581teachers": 3159,
  "\u2581concerned": 3160,
  "\u2581experiences": 3161,
  "\u2581ibibigay": 3162,
  "\u2581prevent": 3163,
  "\u2581carefully": 3164,
  "\u2581suma": 3165,
  "\u2581non": 3166,
  "\u2581Go": 3167,
  "\u2581becomes": 3168,
  "\u2581dangerous": 3169,
  "\u2581debosyon": 3170,
  "\u2581gathered": 3171,
  "\u2581mamamahayag": 3172,
  "\u2581manalangin": 3173,
  "\u2581pagnanasa": 3174,
  "\u2581bandang": 3175,
  "\u2581Don": 3176,
  "\u2581cope": 3177,
  "\u2581mababasa": 3178,
  "\u2581magagandang": 3179,
  "\u2581makatuwirang": 3180,
  "\u2581race": 3181,
  "\u2581amount": 3182,
  "\u2581paglalaan": 3183,
  "\u2581pagsang": 3184,
  "\u2581strengthen": 3185,
  "\u2581destroy": 3186,
  "\u2581existence": 3187,
  "\u2581karagdagang": 3188,
  "\u2581manner": 3189,
  "\u2581Her": 3190,
  "\u2581Inglatera": 3191,
  "\u2581rejoice": 3192,
  "\u2581stood": 3193,
  "\u2581pure": 3194,
  "\u2581lay": 3195,
  "\u2581victims": 3196,
  "\u2581encourage": 3197,
  "\u2581maganda": 3198,
  "\u2581prophets": 3199,
  "Let": 3200,
  "\u2581included": 3201,
  "\u2581taas": 3202,
  "\u2581cell": 3203,
  "\u2581ibigay": 3204,
  "\u258165": 3205,
  "\u2581company": 3206,
  "\u2581tagapag": 3207,
  "\u2581naganap": 3208,
  "\u00e9": 3209,
  "\u2581greatly": 3210,
  "\u2581Should": 3211,
  "\u2581crime": 3212,
  "\u2581endure": 3213,
  "\u2581search": 3214,
  "\u2581Inay": 3215,
  "\u2581doktrina": 3216,
  "\u2581f": 3217,
  "\u2581kabayo": 3218,
  "\u2581tinatanggap": 3219,
  "\u2581chief": 3220,
  "\u2581gantimpala": 3221,
  "\u2581inaasahang": 3222,
  "\u2581silver": 3223,
  "\u2581salin": 3224,
  "\u2581Filipos": 3225,
  "\u2581approach": 3226,
  "\u2581forget": 3227,
  "\u2581karakter": 3228,
  "\u2581video": 3229,
  "tic": 3230,
  "\u2581Datapuwa": 3231,
  "\u2581Naging": 3232,
  "\u2581doo": 3233,
  "\u2581foot": 3234,
  "\u2581kanan": 3235,
  "\u2581pun\u00f4": 3236,
  "\u2581taka": 3237,
  "ph": 3238,
  "\u2581landas": 3239,
  "\u2581nagpatuloy": 3240,
  "\u2581tribo": 3241,
  "\u2581doctors": 3242,
  "\u2581situwasyon": 3243,
  "\u2581display": 3244,
  "\u2581Baal": 3245,
  "\u2581Gaano": 3246,
  "\u2581cancer": 3247,
  "\u2581kasiya": 3248,
  "\u2581inilarawan": 3249,
  "\u2581reaksiyon": 3250,
  "\u2581likod": 3251,
  "\u2581pananalitang": 3252,
  "\u2581global": 3253,
  "\u2581nagpa": 3254,
  "\u2581personalidad": 3255,
  "\u2581wastong": 3256,
  "\u2581Patuloy": 3257,
  "\u2581nabautismuhan": 3258,
  "Na": 3259,
  "\u2581Family": 3260,
  "\u2581Panahon": 3261,
  "\u2581dedication": 3262,
  "ck": 3263,
  "\u2581nagdudulot": 3264,
  "\u2581aware": 3265,
  "\u2581mayaman": 3266,
  "\u2581leading": 3267,
  "\u2581Mount": 3268,
  "\u2581Pagkaraan": 3269,
  "\u2581effects": 3270,
  "\u2581encouragement": 3271,
  "\u2581tagubilin": 3272,
  "\u2581extreme": 3273,
  "\u2581hangarin": 3274,
  "\u2581magawa": 3275,
  "\u2581pinahahalagahan": 3276,
  "\u2581pilak": 3277,
  "\u2581Through": 3278,
  "\u2581nakikinig": 3279,
  "\u2581tanawin": 3280,
  "\u2581higher": 3281,
  "\u2581hilig": 3282,
  "\u2581Was": 3283,
  "IN": 3284,
  "\u2581hearing": 3285,
  "\u2581rock": 3286,
  "\u2581angaw": 3287,
  "\u2581growth": 3288,
  "\u2581ngayo": 3289,
  "\u2581visited": 3290,
  "\u2581Blu": 3291,
  "\u2581Once": 3292,
  "\u2581despite": 3293,
  "\u2581red": 3294,
  "\u2581writer": 3295,
  "\u2581kabutihan": 3296,
  "\u2581kinuha": 3297,
  "\u2581rise": 3298,
  "\u2581tongue": 3299,
  "\u2581assigned": 3300,
  "\u2581tuwi": 3301,
  "\u2581plant": 3302,
  "\u2581recognize": 3303,
  "\u2581top": 3304,
  "ine": 3305,
  "\u2581mountains": 3306,
  "\u2581total": 3307,
  "\u2581humble": 3308,
  "\u2581practices": 3309,
  "\u2581site": 3310,
  "\u2581unity": 3311,
  "\u2581courage": 3312,
  "kapagpapatibay": 3313,
  "\u2581cells": 3314,
  "\u2581disiplina": 3315,
  "\u2581stone": 3316,
  "\u2581pinatay": 3317,
  "\u2581ended": 3318,
  "\u2581sort": 3319,
  "\u2581talking": 3320,
  "\u2581Hitler": 3321,
  "\u2581churches": 3322,
  "\u2581pagtitiis": 3323,
  "\u2581sumagot": 3324,
  "\u2581tuwirang": 3325,
  "va": 3326,
  "\u2581Tao": 3327,
  "\u2581importance": 3328,
  "\u2581science": 3329,
  "we": 3330,
  "\u2581particular": 3331,
  "ad": 3332,
  "\u2581Maylikha": 3333,
  "\u2581Other": 3334,
  "\u2581none": 3335,
  "\u2581art": 3336,
  "\u2581militar": 3337,
  "\u2581effective": 3338,
  "ki": 3339,
  "\u2581opening": 3340,
  "\u2581tribulation": 3341,
  "\u2581panggigipit": 3342,
  "ist": 3343,
  "\u2581State": 3344,
  "\u2581alcohol": 3345,
  "\u2581ikatlong": 3346,
  "\u2581limited": 3347,
  "ver": 3348,
  "\u2581religions": 3349,
  "abot": 3350,
  "\u2581pagtulong": 3351,
  "\u2581sasakyan": 3352,
  "\u2581contrast": 3353,
  "\u2581Araw": 3354,
  "\u2581puri": 3355,
  "\u2581attack": 3356,
  "\u2581desires": 3357,
  "\u2581drinking": 3358,
  "\u2581uring": 3359,
  "am": 3360,
  "\u2581akit": 3361,
  "\u2581conclusion": 3362,
  "\u2581lose": 3363,
  "\u2581generation": 3364,
  "\u258128.": 3365,
  "\u2581North": 3366,
  "\u2581placed": 3367,
  "\u2581relative": 3368,
  "\u2581appeared": 3369,
  "\u2581fail": 3370,
  "\u2581pakete": 3371,
  "\u2581pasasalamat": 3372,
  "ive": 3373,
  "\u2581proseso": 3374,
  "\u2581delivered": 3375,
  "\u2581iwan": 3376,
  "\u2581reference": 3377,
  "\u2581refused": 3378,
  "He": 3379,
  "\u2581Indian": 3380,
  "\u2581puti": 3381,
  "\u2581Kabilang": 3382,
  "\u2581makabago": 3383,
  "\u2581pananaw": 3384,
  "\u2581saganang": 3385,
  "\u2581iniulat": 3386,
  "\u2581Finally": 3387,
  "\u2581midst": 3388,
  "\u2581worth": 3389,
  "\u2581level": 3390,
  "ish": 3391,
  "\u2581Version": 3392,
  "\u2581ipinahayag": 3393,
  "\u258128,": 3394,
  "\u2581guard": 3395,
  "\u2581humantong": 3396,
  "\u2581cast": 3397,
  "\u2581measure": 3398,
  "ran": 3399,
  "\u2581Samahan": 3400,
  "\u2581agree": 3401,
  "\u2581weight": 3402,
  "\u2581creatures": 3403,
  "\u2581magsimula": 3404,
  "\u2581pagpapakita": 3405,
  "\u2581pinakamahalaga": 3406,
  "\u2581pinto": 3407,
  "\u2581uma": 3408,
  "aw": 3409,
  "\u2581god": 3410,
  "\u2581alinlangan": 3411,
  "\u2581gustong": 3412,
  "\u2581magpakita": 3413,
  "\u2581secret": 3414,
  "\u2581fill": 3415,
  "\u2581kasal": 3416,
  "\u2581Mahalaga": 3417,
  "\u2581hangga": 3418,
  "\u2581baguhin": 3419,
  "\u2581consequences": 3420,
  "\u2581lumitaw": 3421,
  "\u2581maiwasan": 3422,
  "\u2581paulit": 3423,
  "\u2581nagagawa": 3424,
  "io": 3425,
  "\u2581Blurb": 3426,
  "\u2581Pansinin": 3427,
  "\u2581bus": 3428,
  "\u2581nagpapahiwatig": 3429,
  "\u2581wide": 3430,
  "\u2581pawang": 3431,
  "\u2581saved": 3432,
  "ther": 3433,
  "\u2581kapistahan": 3434,
  "\u2581patayin": 3435,
  "\u2581skin": 3436,
  "\u2581Among": 3437,
  "\u2581dwell": 3438,
  "\u2581wind": 3439,
  "This": 3440,
  "ge": 3441,
  "wi": 3442,
  "\u2581imperfect": 3443,
  "\u2581pagsasama": 3444,
  "\u2581Itay": 3445,
  "\u2581Marcos": 3446,
  "\u2581faced": 3447,
  "\u2581pagkaunawa": 3448,
  "\u2581village": 3449,
  "\u2581afraid": 3450,
  "\u2581kusang": 3451,
  "\u2581mine": 3452,
  "\u2581occur": 3453,
  "\u2581pan": 3454,
  "\u2581pulitikal": 3455,
  "and": 3456,
  "\u25811.": 3457,
  "\u2581viewed": 3458,
  "\u2581sinasabing": 3459,
  "\u2581cry": 3460,
  "ity": 3461,
  "\u2581wild": 3462,
  "\u2581persecution": 3463,
  "\u2581male": 3464,
  "\u2581nasasangkot": 3465,
  "\u2581pangkalahatan": 3466,
  "\u2581sunod": 3467,
  "\u2581warm": 3468,
  "\u2581event": 3469,
  "\u2581mighty": 3470,
  "du": 3471,
  "\u2581north": 3472,
  "\u2581paglalarawan": 3473,
  "\u2581reflect": 3474,
  "\u2581genuine": 3475,
  "\u2581kaunti": 3476,
  "\u2581attended": 3477,
  "\u2581magazines": 3478,
  "\u2581nagsalita": 3479,
  "like": 3480,
  "\u2581makalupang": 3481,
  "\u2581telepono": 3482,
  "\u2581behalf": 3483,
  "\u2581nagngangalang": 3484,
  "\u2581remains": 3485,
  "\u2581timog": 3486,
  "ate": 3487,
  "\u2581sandata": 3488,
  "\u2581ibaba": 3489,
  "\u2581bahagya": 3490,
  "\u2581billion": 3491,
  "\u2581naghihintay": 3492,
  "\u2581pagkaraan": 3493,
  "\u2581remained": 3494,
  "\u2581overseer": 3495,
  "\u2581elemento": 3496,
  "\u2581observe": 3497,
  "\u2581Halos": 3498,
  "\u2581mapagpakumbaba": 3499,
  "\u2581Karagdagan": 3500,
  "\u258121,": 3501,
  "\u2581nakapipinsala": 3502,
  "\u2581tandaan": 3503,
  "\u2581wars": 3504,
  "\u2581daughters": 3505,
  "\u2581depression": 3506,
  "\u2581elderly": 3507,
  "\u2581sacrifices": 3508,
  "\u2581nauunawaan": 3509,
  "\u2581space": 3510,
  "\u2581paksa": 3511,
  "\u2581aalay": 3512,
  "\u2581violent": 3513,
  "\u258113]": 3514,
  "\u2581metal": 3515,
  "\u2581Sabihin": 3516,
  "\u2581kadalasan": 3517,
  "\u2581requires": 3518,
  "\u2581makadiyos": 3519,
  "\u2581minamahal": 3520,
  "\u2581involves": 3521,
  "\u2581surface": 3522,
  "\u2581umiibig": 3523,
  "\u2581Elias": 3524,
  "\u2581gagawa": 3525,
  "ir": 3526,
  "\u2581Nais": 3527,
  "\u2581puwedeng": 3528,
  "\u2581Take": 3529,
  "\u2581adulto": 3530,
  "\u2581Lot": 3531,
  "\u2581munting": 3532,
  "\u2581publishers": 3533,
  "\u2581Pranses": 3534,
  "\u2581alamin": 3535,
  "\u2581lies": 3536,
  "\u2581unting": 3537,
  "\u2581aalis": 3538,
  "\u2581forest": 3539,
  "\u2581publications": 3540,
  "\u2581hanapin": 3541,
  "\u2581lumapit": 3542,
  "\u2581makibahagi": 3543,
  "\u2581sentro": 3544,
  "\u2581Simbahan": 3545,
  "\u2581buy": 3546,
  "\u2581principle": 3547,
  "\u2581Earth": 3548,
  "\u2581Mi": 3549,
  "\u2581inumin": 3550,
  "\u2581trials": 3551,
  "\u258131.": 3552,
  "\u2581Sunday": 3553,
  "\u2581sangbahayan": 3554,
  "\u2581warned": 3555,
  "\u2581kabaligtaran": 3556,
  "\u2581response": 3557,
  "\u2581Espanya": 3558,
  "\u2581factors": 3559,
  "\u2581mundo": 3560,
  "\u2581rate": 3561,
  "\u00e1": 3562,
  "\u2581kagamitan": 3563,
  "\u2581relatives": 3564,
  "\u258138": 3565,
  "\u2581Bundok": 3566,
  "\u2581affection": 3567,
  "ita": 3568,
  "\u2581Failed": 3569,
  "\u2581appearance": 3570,
  "\u2581closer": 3571,
  "\u258126.": 3572,
  "\u2581British": 3573,
  "ies": 3574,
  "mon": 3575,
  "\u2581forms": 3576,
  "\u2581grew": 3577,
  "\u2581minutes": 3578,
  "\u2581pagpatay": 3579,
  "\u2581setting": 3580,
  "\u2581kaunawaan": 3581,
  "\u2581papa": 3582,
  "\u2581partikular": 3583,
  "\u2581train": 3584,
  "\u2581fast": 3585,
  "\u258128:": 3586,
  "\u2581plants": 3587,
  "\u2581Under": 3588,
  "\u2581deliver": 3589,
  "\u2581emosyonal": 3590,
  "\u2581belief": 3591,
  "\u2581lumipas": 3592,
  "\u2581putting": 3593,
  "\u2581darkness": 3594,
  "\u2581kahirapan": 3595,
  "za": 3596,
  "\u2581Hap\u00f3n": 3597,
  "\u2581Kanilang": 3598,
  "\u2581asking": 3599,
  "\u2581imagine": 3600,
  "\u2581includes": 3601,
  "\u2581nagtuturo": 3602,
  "\u2581piraso": 3603,
  "\u2581libingan": 3604,
  "\u2581overcome": 3605,
  "\u2581tears": 3606,
  "\u2581hot": 3607,
  "\u2581laid": 3608,
  "\u2581pioneers": 3609,
  "\u2581wall": 3610,
  "\u2581April": 3611,
  "\u2581Doon": 3612,
  "\u2581Egipto": 3613,
  "\u2581planeta": 3614,
  "\u2581saksi": 3615,
  "mer": 3616,
  "\u258116]": 3617,
  "\u2581Griegong": 3618,
  "\u2581Kristiyanismo": 3619,
  "\u2581hukuman": 3620,
  "\u2581la": 3621,
  "\u2581merely": 3622,
  "ig": 3623,
  "\u2581abuso": 3624,
  "\u2581divorce": 3625,
  "\u2581komento": 3626,
  "\u2581masunurin": 3627,
  "\u2581mungkahi": 3628,
  "\u2581regalo": 3629,
  "\u25815]": 3630,
  "\u2581August": 3631,
  "\u2581developing": 3632,
  "\u2581wilderness": 3633,
  "\u2581malap\u00edt": 3634,
  "\u2581kalahating": 3635,
  "\u2581trouble": 3636,
  "\u2581attending": 3637,
  "\u2581list": 3638,
  "\u2581Ebanghelyo": 3639,
  "\u2581association": 3640,
  "\u2581community": 3641,
  "\u2581maliban": 3642,
  "\u2581blind": 3643,
  "\u2581ganoon": 3644,
  "\u2581delight": 3645,
  "\u2581iniwan": 3646,
  "\u2581tren": 3647,
  "\u258142": 3648,
  "\u2581designed": 3649,
  "\u2581kanluran": 3650,
  "\u2581kapakinabangan": 3651,
  "\u2581mamuhay": 3652,
  "\u2581kataka": 3653,
  "\u2581napag": 3654,
  "\u2581note": 3655,
  "\u2581tuwa": 3656,
  "\u2581Spain": 3657,
  "\u2581Nasa": 3658,
  "\u2581appears": 3659,
  "\u2581baybayin": 3660,
  "\u2581reasonable": 3661,
  "\u2581tatlo": 3662,
  "\u2581mabasa": 3663,
  "\u2581presented": 3664,
  "\u2581nagsisikap": 3665,
  "\u2581pagkaka": 3666,
  "\u2581broken": 3667,
  "\u2581dokumento": 3668,
  "\u2581kapahamakan": 3669,
  "\u2581pananalangin": 3670,
  "all": 3671,
  "\u2581cold": 3672,
  "\u2581telebisyon": 3673,
  "\u2581binabasa": 3674,
  "\u2581Clearly": 3675,
  "\u2581beauty": 3676,
  "\u2581national": 3677,
  "\u2581pagsalakay": 3678,
  "\u2581Britain": 3679,
  "\u2581Spanish": 3680,
  "\u2581foreign": 3681,
  "\u2581ibigin": 3682,
  "\u2581plano": 3683,
  "\u2581tumatanggap": 3684,
  "There": 3685,
  "ber": 3686,
  "\u2581Please": 3687,
  "\u2581sit": 3688,
  "\u2581detalye": 3689,
  "\u2581negative": 3690,
  "\u2581river": 3691,
  "su": 3692,
  "\u2581Amerikano": 3693,
  "\u2581specific": 3694,
  "ring": 3695,
  "\u2581bed": 3696,
  "\u2581Spirit": 3697,
  "\u2581inom": 3698,
  "\u2581masumpungan": 3699,
  "\u2581lumakad": 3700,
  "\u2581tunog": 3701,
  "\u2581Anuman": 3702,
  "\u2581Journal": 3703,
  "\u2581sharing": 3704,
  "\u2581bumangon": 3705,
  "\u2581Pharaoh": 3706,
  "\u2581examine": 3707,
  "\u2581forces": 3708,
  "\u2581katayuan": 3709,
  "\u2581student": 3710,
  "\u2581Banal": 3711,
  "Si": 3712,
  "\u2581eternal": 3713,
  "\u2581harm": 3714,
  "When": 3715,
  "mu": 3716,
  "\u2581September": 3717,
  "\u2581manatili": 3718,
  "\u2581sumama": 3719,
  "\u2581East": 3720,
  "\u2581houses": 3721,
  "\u2581opposition": 3722,
  "\u2581reality": 3723,
  "\u2581Abril": 3724,
  "\u2581Kasulatang": 3725,
  "\u2581create": 3726,
  "\u2581tularan": 3727,
  "\u2581urged": 3728,
  "\u2581Espiritu": 3729,
  "\u2581Li": 3730,
  "\u2581nakikitang": 3731,
  "\u2581pareho": 3732,
  "\u2581Mambabasa": 3733,
  "\u2581pelikula": 3734,
  "\u2581umaasa": 3735,
  "\u2581Jonathan": 3736,
  "\u2581arrangement": 3737,
  "\u2581dalubhasa": 3738,
  "\u2581pangunahin": 3739,
  "\u2581values": 3740,
  "\u2581aso": 3741,
  "\u2581kagandahang": 3742,
  "\u2581pagtitipon": 3743,
  "\u2581pulitika": 3744,
  "\u2581Gayunpaman": 3745,
  "\u2581Readers": 3746,
  "\u2581improve": 3747,
  "\u2581entered": 3748,
  "\u2581sinimulan": 3749,
  "\u2581tanggap": 3750,
  "\u2581utang": 3751,
  "\u2581Sumulat": 3752,
  "What": 3753,
  "\u258136": 3754,
  "\u2581Translation": 3755,
  "\u2581accounts": 3756,
  "\u2581diseases": 3757,
  "\u2581ginawang": 3758,
  "\u2581mangaral": 3759,
  "\u2581naglalaan": 3760,
  "\u2581opinyon": 3761,
  "\u2581quoted": 3762,
  "\u2581tradisyon": 3763,
  "\u2581vast": 3764,
  "\u2581desisyon": 3765,
  "\u2581Dito": 3766,
  "\u2581pleasure": 3767,
  "\u2581estimated": 3768,
  "\u2581Nito": 3769,
  "\u2581Parents": 3770,
  "\u2581Day": 3771,
  "\u2581huge": 3772,
  "\u2581kahinaan": 3773,
  "\u2581tila": 3774,
  "higit": 3775,
  "\u2581exist": 3776,
  "\u2581goals": 3777,
  "\u2581unable": 3778,
  "\u2581successful": 3779,
  "\u2581translation": 3780,
  "\u2581300": 3781,
  "\u2581bukid": 3782,
  "\u2581nakakita": 3783,
  "\u2581salot": 3784,
  "\u2581udyok": 3785,
  "\u2581Kadalasan": 3786,
  "\u2581Peace": 3787,
  "\u2581issues": 3788,
  "\u2581kalikasan": 3789,
  "ff": 3790,
  "\u258127.": 3791,
  "\u2581espiritung": 3792,
  "\u2581illness": 3793,
  "\u2581pulis": 3794,
  "\u2581ugat": 3795,
  "\u2581Disyembre": 3796,
  "\u2581kaigtingan": 3797,
  "\u2581truths": 3798,
  "\u2581Could": 3799,
  "\u2581gifts": 3800,
  "\u2581letters": 3801,
  "\u2581landasin": 3802,
  "\u2581malimit": 3803,
  "\u2581patients": 3804,
  "\u2581saith": 3805,
  "\u2581V": 3806,
  "\u2581bringing": 3807,
  "\u2581nagsi": 3808,
  "\u2581younger": 3809,
  "\u2581bilanggo": 3810,
  "\u2581media": 3811,
  "V": 3812,
  "\u2581guide": 3813,
  "\u2581personally": 3814,
  "\u2581purposes": 3815,
  "les": 3816,
  "\u2581Noon": 3817,
  "\u2581hair": 3818,
  "\u2581pagkatakot": 3819,
  "\u2581prepare": 3820,
  "\u2581Robert": 3821,
  "\u2581harapan": 3822,
  "\u2581hukom": 3823,
  "\u2581resurrected": 3824,
  "\u2581Kanluran": 3825,
  "\u2581formed": 3826,
  "\u2581girls": 3827,
  "\u2581kadiliman": 3828,
  "\u2581Tandaan": 3829,
  "\u2581Testament": 3830,
  "\u2581paglalang": 3831,
  "\u2581Tanong": 3832,
  "\u2581convinced": 3833,
  "\u2581simpleng": 3834,
  "\u2581valuable": 3835,
  "\u2581verse": 3836,
  "Ako": 3837,
  "\u25816]": 3838,
  "\u2581Al": 3839,
  "\u2581Organization": 3840,
  "\u2581garden": 3841,
  "\u2581kagandahan": 3842,
  "\u2581pagtanggap": 3843,
  "\u2581December": 3844,
  "\u2581Setyembre": 3845,
  "ie": 3846,
  "\u2581California": 3847,
  "\u2581Paris": 3848,
  "\u2581color": 3849,
  "undo": 3850,
  "\u2581Institute": 3851,
  "\u2581buwis": 3852,
  "\u2581nagnanais": 3853,
  "\u2581napatunayan": 3854,
  "\u2581nuclear": 3855,
  "\u2581wish": 3856,
  "men": 3857,
  "\u25812,000": 3858,
  "\u2581kompanya": 3859,
  "\u2581Really": 3860,
  "\u2581correct": 3861,
  "\u2581sumulong": 3862,
  "\u2581communication": 3863,
  "\u2581Philippians": 3864,
  "\u2581Pinag": 3865,
  "\u2581nauugnay": 3866,
  "\u2581safe": 3867,
  "\u2581survive": 3868,
  "\u2581West": 3869,
  "\u2581Eclesiastes": 3870,
  "\u2581discuss": 3871,
  "\u2581extent": 3872,
  "\u2581marunong": 3873,
  "\u2581nagpasiya": 3874,
  "\u2581High": 3875,
  "\u2581sinalita": 3876,
  "\u2581uli": 3877,
  "\u2581direct": 3878,
  "\u2581listening": 3879,
  "\u2581nakatayo": 3880,
  "\u2581proyekto": 3881,
  "\u2581Tagapamahala": 3882,
  "\u2581tagapakinig": 3883,
  "\u2581covered": 3884,
  "\u2581master": 3885,
  "\u2581mere": 3886,
  "\u2581sumapit": 3887,
  "\u2581travel": 3888,
  "\u2581takdang": 3889,
  "\u2581indicate": 3890,
  "ak": 3891,
  "que": 3892,
  "\u258155": 3893,
  "\u2581Ecclesiastes": 3894,
  "\u2581Judea": 3895,
  "\u2581damage": 3896,
  "\u2581writes": 3897,
  "\u2581aid": 3898,
  "\u2581arian": 3899,
  "\u2581committed": 3900,
  "lipas": 3901,
  "\u2581500": 3902,
  "\u2581Pang": 3903,
  "\u2581busy": 3904,
  "\u2581lunas": 3905,
  "\u2581Japanese": 3906,
  "\u2581request": 3907,
  "\u2581samakatuwid": 3908,
  "\u2581aksidente": 3909,
  "\u2581hurt": 3910,
  "\u2581pre": 3911,
  "\u2581severe": 3912,
  "\u2581dalhin": 3913,
  "\u2581illustration": 3914,
  "\u2581Without": 3915,
  "\u2581mana": 3916,
  "\u2581alinman": 3917,
  "\u2581co": 3918,
  "\u2581tawag": 3919,
  "\u2581katumbas": 3920,
  "\u2581smoking": 3921,
  "\u2581Yao": 3922,
  "\u2581leaving": 3923,
  "\u2581pampatibay": 3924,
  "\u2581describes": 3925,
  "\u2581imoralidad": 3926,
  "\u2581napansin": 3927,
  "\u2581negatibo": 3928,
  "\u2581umabot": 3929,
  "\u2581careful": 3930,
  "out": 3931,
  "\u2581(%": 3932,
  "\u2581Sawi": 3933,
  "\u2581itinayo": 3934,
  "\u2581manga": 3935,
  "\u2581Elijah": 3936,
  "\u2581comments": 3937,
  "\u2581malawak": 3938,
  "\u2581natatakot": 3939,
  "\u2581poverty": 3940,
  "\u2581binibigyan": 3941,
  "\u2581enemy": 3942,
  "land": 3943,
  "\u25811914": 3944,
  "\u2581kumikilos": 3945,
  "\u2581pinakamabuti": 3946,
  "\u2581count": 3947,
  "\u25811986": 3948,
  "\u25811992": 3949,
  "\u2581nanalangin": 3950,
  "\u2581Look": 3951,
  "\u2581minds": 3952,
  "\u2581powers": 3953,
  "\u2581preached": 3954,
  "\u2581Has": 3955,
  "\u2581pintuan": 3956,
  "\u2581Mother": 3957,
  "\u2581cultivate": 3958,
  "\u2581kasalukuyan": 3959,
  "\u2581nagsisimula": 3960,
  "\u2581ebidensiya": 3961,
  "\u2581ipinag": 3962,
  "\u2581moving": 3963,
  "\u2581Cor": 3964,
  "\u2581Kailan": 3965,
  "\u2581lindol": 3966,
  "\u2581Iba": 3967,
  "\u2581helpful": 3968,
  "\u2581listed": 3969,
  "\u2581River": 3970,
  "\u2581estado": 3971,
  "\u2581naranasan": 3972,
  "AL": 3973,
  "\u2581Body": 3974,
  "\u2581Michael": 3975,
  "\u2581advantage": 3976,
  "\u2581Biblical": 3977,
  "\u2581meal": 3978,
  "\u2581yari": 3979,
  "\u2581Christmas": 3980,
  "\u2581Furthermore": 3981,
  "\u2581Nakita": 3982,
  "ary": 3983,
  "\u2581kasamang": 3984,
  "\u2581situations": 3985,
  "\u2581tiwala": 3986,
  "\u2581bodies": 3987,
  "\u2581katiyakan": 3988,
  "pinaliwanag": 3989,
  "\u2581Sometimes": 3990,
  "\u2581dukha": 3991,
  "\u2581Matapos": 3992,
  "\u2581nagbago": 3993,
  "\u2581tanungin": 3994,
  "\u2581tauhan": 3995,
  "\u2581Lines": 3996,
  "\u2581internasyonal": 3997,
  "\u2581tahimik": 3998,
  "\u2581wood": 3999,
  "\u2581Being": 4000,
  "\u2581lesson": 4001,
  "\u2581reveal": 4002,
  "\u2581magpasiya": 4003,
  "\u2581kasamahan": 4004,
  "\u2581rehiyon": 4005,
  "\u2581lumaki": 4006,
  "\u2581Cain": 4007,
  "\u2581pader": 4008,
  "\u2581statement": 4009,
  "\u2581capital": 4010,
  "\u2581eroplano": 4011,
  "\u2581klero": 4012,
  "\u2581kulang": 4013,
  "W": 4014,
  "\u2581Every": 4015,
  "\u2581ayunan": 4016,
  "\u2581conversation": 4017,
  "\u2581development": 4018,
  "\u2581reward": 4019,
  "\u2581w": 4020,
  "\u2581Siyempre": 4021,
  "\u2581uses": 4022,
  "\u2581June": 4023,
  "\u2581ugali": 4024,
  "v": 4025,
  "\u2581decades": 4026,
  "\u2581iron": 4027,
  "\u2581karangalan": 4028,
  "\u2581kasakdalan": 4029,
  "\u2581television": 4030,
  "\u2581batay": 4031,
  "\u2581financial": 4032,
  "\u2581sinoman": 4033,
  "\u2581symbol": 4034,
  "\u2581positibong": 4035,
  "\u2581prophecies": 4036,
  "\u2581iniibig": 4037,
  "\u2581laro": 4038,
  "\u2581shepherd": 4039,
  "\u2581territory": 4040,
  "od": 4041,
  "\u2581Lagi": 4042,
  "\u2581magbibigay": 4043,
  "\u2581nakatutulong": 4044,
  "\u2581variety": 4045,
  "\u2581dila": 4046,
  "\u2581healthy": 4047,
  "\u2581itinuro": 4048,
  "\u2581George": 4049,
  "\u2581dalaga": 4050,
  "\u2581dulot": 4051,
  "\u2581focus": 4052,
  "\u2581impressed": 4053,
  "\u2581damo": 4054,
  "\u2581Pagkalipa": 4055,
  "\u2581acceptable": 4056,
  "\u2581mabait": 4057,
  "\u2581nalabi": 4058,
  "\u2581masigasig": 4059,
  "ING": 4060,
  "\u2581buhok": 4061,
  "\u2581maaasahan": 4062,
  "\u2581posisyon": 4063,
  "\u2581clergy": 4064,
  "\u2581connection": 4065,
  "\u2581grateful": 4066,
  "\u2581kauna": 4067,
  "\u2581leaves": 4068,
  "\u2581uulat": 4069,
  "one": 4070,
  "\u2581Aming": 4071,
  "\u2581associated": 4072,
  "\u2581discussion": 4073,
  "\u2581nakahihigit": 4074,
  "\u2581surbey": 4075,
  "\u2581demons": 4076,
  "\u2581nanganganib": 4077,
  "\u2581throne": 4078,
  "\u2581Dahilan": 4079,
  "\u2581Judas": 4080,
  "\u2581maligayang": 4081,
  "\u2581understood": 4082,
  "\u2581box": 4083,
  "\u2581hatol": 4084,
  "\u2581likewise": 4085,
  "\u2581enable": 4086,
  "\u2581organized": 4087,
  "\u2581adults": 4088,
  "\u2581magagamit": 4089,
  "\u2581link": 4090,
  "\u2581lumalakad": 4091,
  "\u2581style": 4092,
  "\u2581Land": 4093,
  "\u2581Se": 4094,
  "\u2581secular": 4095,
  "\u2581Kumusta": 4096,
  "\u2581bukas": 4097,
  "\u2581consideration": 4098,
  "\u2581ngayong": 4099,
  "\u2581Mayo": 4100,
  "\u2581commandments": 4101,
  "\u2581Colosas": 4102,
  "\u2581natitira": 4103,
  "\u2581July": 4104,
  "\u2581determinado": 4105,
  "\u2581essential": 4106,
  "\u2581instruction": 4107,
  "\u2581k": 4108,
  "inanggit": 4109,
  "\u2581drawn": 4110,
  "\u2581kahatulan": 4111,
  "\u2581n": 4112,
  "\u2581sought": 4113,
  "\u2581stars": 4114,
  "\u2581thank": 4115,
  "\u2581William": 4116,
  "\u2581loyalty": 4117,
  "\u2581hilaga": 4118,
  "\u2581malalim": 4119,
  "gi": 4120,
  "ismo": 4121,
  "\u258114;": 4122,
  "\u2581makukuha": 4123,
  "\u2581dumaranas": 4124,
  "\u2581governments": 4125,
  "\u2581region": 4126,
  "\u2581supported": 4127,
  "sh": 4128,
  "\u2581Italya": 4129,
  "\u2581isina": 4130,
  "\u2581ruler": 4131,
  "\u258121]": 4132,
  "\u2581Enero": 4133,
  "\u2581aalinlangan": 4134,
  "\u2581encouraging": 4135,
  "\u2581inatasan": 4136,
  "\u2581kalakip": 4137,
  "\u2581wealth": 4138,
  "\u2581handle": 4139,
  "\u2581join": 4140,
  "\u2581joined": 4141,
  "\u2581paksang": 4142,
  "\u2581prospect": 4143,
  "\u2581scientific": 4144,
  "\u2581March": 4145,
  "\u2581ihahambing": 4146,
  "\u2581kumakain": 4147,
  "\u2581naroon": 4148,
  "\u2581removed": 4149,
  "\"": 4150,
  "\u2581January": 4151,
  "\u2581Make": 4152,
  "\u2581grown": 4153,
  "\u2581occurred": 4154,
  "\u258135.": 4155,
  "\u2581Canaan": 4156,
  "\u2581dumanas": 4157,
  "\u2581seriously": 4158,
  "\u2581magpatuloy": 4159,
  "per": 4160,
  "\u2581History": 4161,
  "\u2581construction": 4162,
  "\u2581hinihiling": 4163,
  "\u2581kakaiba": 4164,
  "\u2581pagtatapos": 4165,
  "\u2581referred": 4166,
  "om": 4167,
  "\u2581aside": 4168,
  "\u2581pagkatao": 4169,
  "\u2581won": 4170,
  "\u2581assembly": 4171,
  "\u2581concluded": 4172,
  "\u2581lumilitaw": 4173,
  "\u2581dry": 4174,
  "\u2581tingin": 4175,
  "\u2581unahang": 4176,
  "\u2581paghahanap": 4177,
  "\u2581Oktubre": 4178,
  "\u2581applied": 4179,
  "\u2581dahon": 4180,
  "\u2581dalisay": 4181,
  "\u2581yes": 4182,
  "\u2581Hulyo": 4183,
  "\u2581October": 4184,
  "\u2581friendship": 4185,
  "\u2581nasisiyahan": 4186,
  "\u2581natatanging": 4187,
  "\u2581official": 4188,
  "\u2581pintuang": 4189,
  "batid": 4190,
  "\u2581paninigarilyo": 4191,
  "\u2581nagdadala": 4192,
  "\u2581nagsasabing": 4193,
  "\u2581naparoon": 4194,
  "\u2581sincere": 4195,
  "\u2581mapanatili": 4196,
  "\u2581nagaganap": 4197,
  "\u2581stopped": 4198,
  "\u2581struck": 4199,
  "0,000": 4200,
  "\u258110;": 4201,
  "\u2581forgive": 4202,
  "\u2581mapayapa": 4203,
  "\u2581nasusulat": 4204,
  "\u2581trained": 4205,
  "My": 4206,
  "\u2581Agosto": 4207,
  "\u2581difference": 4208,
  "\u2581obedience": 4209,
  "\u2581pakiramdam": 4210,
  "ron": 4211,
  "\u2581Galacia": 4212,
  "\u2581Ra": 4213,
  "\u2581naghahanap": 4214,
  "\u2581nawalan": 4215,
  "\u2581card": 4216,
  "\u2581nine": 4217,
  "\u2581magsisi": 4218,
  "\u2581anoma": 4219,
  "\u2581matutuhan": 4220,
  "\u2581nagtanong": 4221,
  "\u2581panatilihin": 4222,
  "\u25818]": 4223,
  "\u2581Ipinakita": 4224,
  "\u2581causing": 4225,
  "res": 4226,
  "\u2581harvest": 4227,
  "\u2581hitsura": 4228,
  "\u25811980": 4229,
  "\u2581aani": 4230,
  "\u2581Ha": 4231,
  "\u2581angkan": 4232,
  "\u2581libangan": 4233,
  "\u2581south": 4234,
  "\u2581treated": 4235,
  "\u2581turuan": 4236,
  "\u2581Soviet": 4237,
  "\u2581worse": 4238,
  "ns": 4239,
  "\u258116;": 4240,
  "\u2581siyam": 4241,
  "\u2581hate": 4242,
  "\u2581niyan": 4243,
  "\u2581ruin": 4244,
  "\u2581Behold": 4245,
  "\u2581ekonomiya": 4246,
  "\u2581doesn": 4247,
  "\u2581tugon": 4248,
  "\u2581Esther": 4249,
  "\u2581facts": 4250,
  "ster": 4251,
  "\u258141": 4252,
  "\u2581anxiety": 4253,
  "\u2581increasing": 4254,
  "\u2581pagpili": 4255,
  "\u2581Hunyo": 4256,
  "\u2581kabiyak": 4257,
  "\u2581magkasama": 4258,
  "\u2581matakot": 4259,
  "\u2581dambana": 4260,
  "\u2581ipinanganak": 4261,
  "\u2581neighbors": 4262,
  "\u2581studied": 4263,
  "\u2581moment": 4264,
  "\u258130.": 4265,
  "\u2581Charles": 4266,
  "\u2581Pharisees": 4267,
  "\u2581binata": 4268,
  "\u2581forced": 4269,
  "\u2581hirap": 4270,
  "\u2581nananalangin": 4271,
  "\u2581surprise": 4272,
  "\u2581ministers": 4273,
  "\u2581nakagawa": 4274,
  "\u2581pamayanan": 4275,
  "\u2581saligan": 4276,
  "\u2581Ini": 4277,
  "\u2581asal": 4278,
  "\u2581obedient": 4279,
  "\u2581Su": 4280,
  "\u2581below": 4281,
  "ac": 4282,
  "\u2581bakal": 4283,
  "\u2581tungkulin": 4284,
  "\u2581eksperto": 4285,
  "\u2581majority": 4286,
  "\u2581masaya": 4287,
  "\u2581welcome": 4288,
  "\u2581pagpipigil": 4289,
  "\u2581solution": 4290,
  "\u2581supply": 4291,
  "\u258133.": 4292,
  "\u2581babasahin": 4293,
  "\u2581caring": 4294,
  "\u2581compassion": 4295,
  "\u2581impossible": 4296,
  "\u2581inheritance": 4297,
  "\u2581nakamamatay": 4298,
  "\u2581Human": 4299,
  "\u2581Judiong": 4300,
  "\u2581kakulangan": 4301,
  "\u2581okasyon": 4302,
  "\u2581pagano": 4303,
  "ent": 4304,
  "sis": 4305,
  "\u2581himala": 4306,
  "\u2581katalinuhan": 4307,
  "\u2581magtrabaho": 4308,
  "age": 4309,
  "mag": 4310,
  "op": 4311,
  "\u2581contrary": 4312,
  "\u2581kambing": 4313,
  "\u2581kinikilala": 4314,
  "\u2581medisina": 4315,
  "\u2581nagmula": 4316,
  "\u2581receiving": 4317,
  "\u2581riches": 4318,
  "lugod": 4319,
  "\u2581attribute": 4320,
  "\u2581factor": 4321,
  "\u2581researchers": 4322,
  "\u2581tinanong": 4323,
  "\u2581kasakiman": 4324,
  "\u2581katiwasayan": 4325,
  "\u2581sagana": 4326,
  "May": 4327,
  "\u2581Samaria": 4328,
  "\u2581Thank": 4329,
  "\u2581aabuso": 4330,
  "\u2581humility": 4331,
  "\u2581ideas": 4332,
  "\u2581BY": 4333,
  "\u2581Marso": 4334,
  "\u2581credit": 4335,
  "\u2581clothing": 4336,
  "\u2581complex": 4337,
  "\u2581evident": 4338,
  "\u2581gagamitin": 4339,
  "\u2581kaayaaya": 4340,
  "\u2581pagdami": 4341,
  "\u2581Hapon": 4342,
  "\u2581easier": 4343,
  "\u2581telling": 4344,
  "\u2581Kastila": 4345,
  "\u2581carrying": 4346,
  "\u2581price": 4347,
  "\u2581rekord": 4348,
  "\u2581harapin": 4349,
  "\u2581highly": 4350,
  "\u2581napapaharap": 4351,
  "\u2581raise": 4352,
  "\u2581bangka": 4353,
  "\u2581pursue": 4354,
  "\u2581recognized": 4355,
  "\u2581&": 4356,
  "\u25811995": 4357,
  "\u2581smoke": 4358,
  "\u2581Come": 4359,
  "\u2581Nagtatanong": 4360,
  "\u2581maayos": 4361,
  "\u2581pagpupulong": 4362,
  "\u2581sitwasyon": 4363,
  "\u2581tukso": 4364,
  "\u2581waiting": 4365,
  "\u2581immorality": 4366,
  "\u2581pride": 4367,
  "\u2581released": 4368,
  "\u2581Karamihan": 4369,
  "\u2581challenges": 4370,
  "\u2581makatulong": 4371,
  "\u2581nagpapatuloy": 4372,
  "\u2581Ministry": 4373,
  "\u2581Western": 4374,
  "\u2581alkohol": 4375,
  "\u2581espirituwalidad": 4376,
  "\u2581leon": 4377,
  "\u2581matutulungan": 4378,
  "\u2581pagnanais": 4379,
  "\u2581pinakama": 4380,
  "\u258148": 4381,
  "\u2581Britanya": 4382,
  "\u2581Nigeria": 4383,
  "\u2581Taglay": 4384,
  "\u2581emotions": 4385,
  "\u2581largest": 4386,
  "syon": 4387,
  "\u2581endurance": 4388,
  "\u2581female": 4389,
  "\u2581nakaupo": 4390,
  "\u2581perform": 4391,
  "\u2581pinagpala": 4392,
  "\u2581pro": 4393,
  "\u2581nalaman": 4394,
  "\u2581salinlahi": 4395,
  "ista": 4396,
  "\u2581magkagayon": 4397,
  "\u2581discussed": 4398,
  "\u2581distress": 4399,
  "\u2581indicates": 4400,
  "\u2581layo": 4401,
  "\u2581trip": 4402,
  "\u2581tumakas": 4403,
  "\u2581dust": 4404,
  "\u2581kasinungalingan": 4405,
  "\u2581Deuteronomy": 4406,
  "\u2581heat": 4407,
  "\u2581katotohanang": 4408,
  "\u2581mark": 4409,
  "\u2581Deuteronomio": 4410,
  "\u2581petsa": 4411,
  "\u2581alaga": 4412,
  "\u2581imposible": 4413,
  "\u2581itim": 4414,
  "\u2581papuri": 4415,
  "\u2581obtain": 4416,
  "\u25811970": 4417,
  "\u2581ears": 4418,
  "\u2581masalimuot": 4419,
  "\u2581paid": 4420,
  "\u2581ark": 4421,
  "\u2581maaga": 4422,
  "\u2581pananaliksik": 4423,
  "\u2581umakay": 4424,
  "gsasagawa": 4425,
  "\u2581bulag": 4426,
  "\u2581pumunta": 4427,
  "\u2581views": 4428,
  "nag": 4429,
  "\u2581Faith": 4430,
  "\u2581Moab": 4431,
  "\u2581disciple": 4432,
  "\u2581palad": 4433,
  "\u2581remove": 4434,
  "\u2581kapahayagan": 4435,
  "\u2581karagatan": 4436,
  "\u2581nabuhay": 4437,
  "\u2581nagpapangyari": 4438,
  "\u2581nakadarama": 4439,
  "\u2581sumasampalataya": 4440,
  "tor": 4441,
  "\u2581famous": 4442,
  "\u2581matataas": 4443,
  "\u2581nakikibahagi": 4444,
  "\u2581operasyon": 4445,
  "\u2581pagsalansang": 4446,
  "\u2581`%.25": 4447,
  "\u2581bahaging": 4448,
  "\u2581motibo": 4449,
  "\u2581pagtatangi": 4450,
  "\u2581worshipers": 4451,
  "\u2581Memorial": 4452,
  "\u2581Tesalonica": 4453,
  "\u2581circuit": 4454,
  "\u2581Naniniwala": 4455,
  "\u2581banyaga": 4456,
  "\u2581immoral": 4457,
  "org": 4458,
  "\u2581tindahan": 4459,
  "\u2581fat": 4460,
  "\u2581potential": 4461,
  "\u2581iligtas": 4462,
  "\u2581mambabasa": 4463,
  "\u2581nagbabago": 4464,
  "sapit": 4465,
  "\u2581Galatians": 4466,
  "\u2581Italy": 4467,
  "\u2581dealing": 4468,
  "\u2581kumulang": 4469,
  "\u2581sari": 4470,
  "\u2581trade": 4471,
  "ja": 4472,
  "\u25811,000": 4473,
  "\u2581naglingkod": 4474,
  "\u2581pattern": 4475,
  "\u2581Makikita": 4476,
  "\u2581Religion": 4477,
  "\u2581kumakatawan": 4478,
  "\u2581planet": 4479,
  "\u2581sikapin": 4480,
  "\u2581speaks": 4481,
  "\u2581Maka": 4482,
  "\u2581mababang": 4483,
  "\u2581Dagat": 4484,
  "\u2581Island": 4485,
  "\u2581tribe": 4486,
  "\u2581uminom": 4487,
  "\u2581dark": 4488,
  "\u2581tainga": 4489,
  "\u2581walked": 4490,
  "\u2581Both": 4491,
  "\u2581Sina": 4492,
  "\u2581pagsasabi": 4493,
  "\u2581pangungusap": 4494,
  "tion": 4495,
  "\u2581Nakalulungkot": 4496,
  "\u2581gatas": 4497,
  "ler": 4498,
  "\u2581boys": 4499,
  "\u2581kampo": 4500,
  "\u2581range": 4501,
  "\u2581street": 4502,
  "\u25811991": 4503,
  "\u2581Get": 4504,
  "\u2581malalaman": 4505,
  "\u2581tiyakin": 4506,
  "\u2581Abel": 4507,
  "\u2581Levita": 4508,
  "\u2581Questions": 4509,
  "\u2581kapitbahay": 4510,
  "\u2581kemikal": 4511,
  "\u2581temperatura": 4512,
  "\u258139": 4513,
  "\u2581clothes": 4514,
  "\u2581drive": 4515,
  "\u2581kahon": 4516,
  "\u2581Hilaga": 4517,
  "\u2581Inyo": 4518,
  "\u2581bilyong": 4519,
  "\u2581dumami": 4520,
  "\u2581ipinaliwanag": 4521,
  "\u2581makuha": 4522,
  "mang": 4523,
  "\u2581manifest": 4524,
  "\u2581translated": 4525,
  "\u2581troubled": 4526,
  "\u2581Help": 4527,
  "\u2581gumugol": 4528,
  "\u2581ill": 4529,
  "\u25815;": 4530,
  "\u2581Surely": 4531,
  "\u2581accomplish": 4532,
  "\u2581bless": 4533,
  "\u2581hast": 4534,
  "\u2581isinagawa": 4535,
  "\u2581sining": 4536,
  "\u2581Work": 4537,
  "\u2581pagpapatotoo": 4538,
  "\u2581beneficial": 4539,
  "\u2581nearby": 4540,
  "\u2581Madalas": 4541,
  "\u2581Salamat": 4542,
  "\u2581makakaya": 4543,
  "\u2581rejected": 4544,
  "\u2581survey": 4545,
  "\u2581China": 4546,
  "\u2581hugis": 4547,
  "\u2581mature": 4548,
  "\u2581witnessing": 4549,
  "ina": 4550,
  "\u2581describe": 4551,
  "\u2581nakatala": 4552,
  "\u2581react": 4553,
  "\u2581require": 4554,
  "\u2581sake": 4555,
  "\u2581song": 4556,
  "\u2581Ireland": 4557,
  "\u2581bigo": 4558,
  "\u2581offspring": 4559,
  "\u2581shared": 4560,
  "\u2581144,000": 4561,
  "\u2581copies": 4562,
  "\u2581doctrine": 4563,
  "chi": 4564,
  "\u258112]": 4565,
  "\u2581natapos": 4566,
  "\u2581patiuna": 4567,
  "\u2581prinsipe": 4568,
  "\u2581evidently": 4569,
  "\u2581makasalanan": 4570,
  "\u2581pakisuyo": 4571,
  "\u2581Hav": 4572,
  "\u2581Lo": 4573,
  "\u2581disenyo": 4574,
  "\u2581insekto": 4575,
  "\u2581lungsod": 4576,
  "may": 4577,
  "\u2581caught": 4578,
  "\u2581namumuhay": 4579,
  "\u2581tinutulungan": 4580,
  "\u2581Protestante": 4581,
  "\u2581directly": 4582,
  "\u2581unclean": 4583,
  "\u2581espesipikong": 4584,
  "\u2581lower": 4585,
  "\u2581teknolohiya": 4586,
  "\u2581weapons": 4587,
  "\u25811919": 4588,
  "\u25812000": 4589,
  "\u2581Poland": 4590,
  "\u2581abundance": 4591,
  "\u2581sovereignty": 4592,
  "\u2581nakaligtas": 4593,
  "\u2581sigasig": 4594,
  "\u2581haing": 4595,
  "\u2581Anu": 4596,
  "\u2581Medical": 4597,
  "\u2581isinilang": 4598,
  "\u2581kukulangin": 4599,
  "\u2581likuran": 4600,
  "ous": 4601,
  "\u2581Exodus": 4602,
  "\u2581slaves": 4603,
  "\u2581sundalo": 4604,
  "for": 4605,
  "\u2581relihiyoso": 4606,
  "\u2581teoriya": 4607,
  "\u2581Out": 4608,
  "\u2581atmosphere": 4609,
  "\u2581forgiveness": 4610,
  "\u2581generally": 4611,
  "\u2581industriya": 4612,
  "\u2581makasagisag": 4613,
  "\u2581paghatol": 4614,
  "\u2581performed": 4615,
  "\u2581release": 4616,
  "\u2581subjects": 4617,
  "\u2581kalungkutan": 4618,
  "\u2581nagmamalasakit": 4619,
  "\u2581kasunod": 4620,
  "\u2581kinatawan": 4621,
  "\u2581palaging": 4622,
  "\u2581patience": 4623,
  "\u2581soil": 4624,
  "\u2581touch": 4625,
  "\u2581arms": 4626,
  "\u2581asamblea": 4627,
  "\u2581bilis": 4628,
  "\u2581nakikilala": 4629,
  "\u2581sold": 4630,
  "\u2581meat": 4631,
  "\u2581patungong": 4632,
  "\u2581soldiers": 4633,
  "ER": 4634,
  "\u2581Simon": 4635,
  "\u2581kaakit": 4636,
  "\u2581Ar": 4637,
  "\u2581adult": 4638,
  "\u2581binuhay": 4639,
  "\u2581kasanayan": 4640,
  "\u2581Britannica": 4641,
  "\u2581Colossians": 4642,
  "\u2581Niya": 4643,
  "\u2581g": 4644,
  "\u2581naisip": 4645,
  "\u2581tabernakulo": 4646,
  "\u2581walls": 4647,
  "\u2581culture": 4648,
  "\u2581feed": 4649,
  "\u2581karera": 4650,
  "\u2581add": 4651,
  "\u2581dumi": 4652,
  "\u2581empty": 4653,
  "\u2581magtatagal": 4654,
  "\u2581thanks": 4655,
  "\u258123,": 4656,
  "\u2581Benjamin": 4657,
  "\u2581chose": 4658,
  "\u2581Trinidad": 4659,
  "\u2581Con": 4660,
  "\u2581calling": 4661,
  "\u2581conflict": 4662,
  "\u2581constantly": 4663,
  "\u2581journey": 4664,
  "\u2581lasting": 4665,
  "\u2581pointed": 4666,
  "\u2581ninuno": 4667,
  "\u2581sakop": 4668,
  "\u2581wickedness": 4669,
  "\u2581zeal": 4670,
  "\u2581angry": 4671,
  "\u2581apart": 4672,
  "\u2581hilagang": 4673,
  "\u2581makagawa": 4674,
  "ud": 4675,
  "\u2581apparently": 4676,
  "\u2581halagang": 4677,
  "\u2581sukat": 4678,
  "\u2581sunud": 4679,
  "\u2581suporta": 4680,
  "\u2581compared": 4681,
  "\u2581mababa": 4682,
  "\u2581Makapangyarihan": 4683,
  "\u2581Court": 4684,
  "\u2581approval": 4685,
  "\u2581ipaliwanag": 4686,
  "\u2581ngipin": 4687,
  "tra": 4688,
  "\u2581finding": 4689,
  "\u2581luha": 4690,
  "\u2581nagkakaroon": 4691,
  "\u2581natututuhan": 4692,
  "\u2581promote": 4693,
  "\u2581victim": 4694,
  "\u2581ha": 4695,
  "\u2581mahinahon": 4696,
  "\u2581pambu": 4697,
  "\u2581radio": 4698,
  "\u2581sat": 4699,
  "\u2581balance": 4700,
  "\u2581beloved": 4701,
  "\u2581husbands": 4702,
  "\u2581outstanding": 4703,
  "\u2581lying": 4704,
  "\u2581root": 4705,
  "responsibilities": 4706,
  "\u2581threat": 4707,
  "way": 4708,
  "\u2581Lupo": 4709,
  "\u2581nakatatanda": 4710,
  "\u2581paglaki": 4711,
  "\u2581sinusunod": 4712,
  "\u2581tiny": 4713,
  "tan": 4714,
  "\u258125,": 4715,
  "\u2581determine": 4716,
  "\u2581hatred": 4717,
  "\u2581konklusyon": 4718,
  "\u2581nahihirapan": 4719,
  "\u2581notice": 4720,
  "\u2581pieces": 4721,
  "\u2581rulers": 4722,
  "\u2581brosyur": 4723,
  "\u2581maniwala": 4724,
  "der": 4725,
  "ze": 4726,
  "\u2013": 4727,
  "\u2581bumili": 4728,
  "\u2581kabalisahan": 4729,
  "\u2581project": 4730,
  "by": 4731,
  "gradong": 4732,
  "\u2581150": 4733,
  "\u2581X": 4734,
  "\u2581decide": 4735,
  "\u2581habits": 4736,
  "\u2581isulat": 4737,
  "\u2581limitado": 4738,
  "\u2581HIV": 4739,
  "\u2581ta": 4740,
  "\u258146": 4741,
  "\u2581Report": 4742,
  "\u2581kabiguan": 4743,
  "\u2581path": 4744,
  "\u2581summer": 4745,
  "\u2581unit": 4746,
  "\u258143": 4747,
  "\u2581confident": 4748,
  "\u2581maybahay": 4749,
  "\u2581numbers": 4750,
  "\u2581stones": 4751,
  "\u2581winter": 4752,
  "\u2581Am": 4753,
  "\u2581Russell": 4754,
  "\u2581Science": 4755,
  "las": 4756,
  "ub": 4757,
  "\u2581pagkaalam": 4758,
  "\u2581pakpak": 4759,
  "\u2581teaches": 4760,
  "\u2581Puwede": 4761,
  "\u2581overseers": 4762,
  "\u2581saanman": 4763,
  "siya": 4764,
  "\u2581Bang": 4765,
  "\u2581Governing": 4766,
  "\u2581alay": 4767,
  "\u2581chance": 4768,
  "\u2581exactly": 4769,
  "\u2581praying": 4770,
  "\u2581separate": 4771,
  "\u2581Sobyet": 4772,
  "\u2581closely": 4773,
  "\u2581market": 4774,
  "\u2581responded": 4775,
  "\u2581store": 4776,
  "\u2581$1": 4777,
  "\u2581nuklear": 4778,
  "\u258112;": 4779,
  "\u2581anu": 4780,
  "\u2581granted": 4781,
  "\u2581herself": 4782,
  "\u2581ship": 4783,
  "\u2581sky": 4784,
  "\u2581team": 4785,
  "\u2581Daily": 4786,
  "\u2581entitled": 4787,
  "\u2581heed": 4788,
  "\u2581cross": 4789,
  "\u2581length": 4790,
  "\u2581marahas": 4791,
  "\u2581pagdiriwang": 4792,
  "\u2581suddenly": 4793,
  "\u2581witnesses": 4794,
  "ized": 4795,
  "\u2581katanungan": 4796,
  "\u2581slow": 4797,
  "con": 4798,
  "\u2581traditional": 4799,
  "\u2581Sabbath": 4800,
  "\u2581magnanakaw": 4801,
  "\u2581milk": 4802,
  "\u2581nagtitiwala": 4803,
  "\u2581remnant": 4804,
  "\u2581strive": 4805,
  "\u2581superior": 4806,
  "\u2581umasa": 4807,
  "nda": 4808,
  "ted": 4809,
  "\u2581Encyclop\u00e6dia": 4810,
  "\u2581Ibig": 4811,
  "\u2581hiniling": 4812,
  "\u2581li": 4813,
  "\u2581libis": 4814,
  "\u2581nananatili": 4815,
  "\u2581Bawa": 4816,
  "\u2581Nobyembre": 4817,
  "\u2581pananamit": 4818,
  "kaling": 4819,
  "lan": 4820,
  "\u2581magiliw": 4821,
  "\u2581mail": 4822,
  "\u2581nanay": 4823,
  "\u2581pangangatuwiran": 4824,
  "ner": 4825,
  "\u2581Catholics": 4826,
  "\u2581November": 4827,
  "\u2581distance": 4828,
  "\u2581leads": 4829,
  "\u2581products": 4830,
  "\u2581wrath": 4831,
  "\u2581bearing": 4832,
  "\u2581constant": 4833,
  "\u2581honest": 4834,
  "ite": 4835,
  "\u2581Service": 4836,
  "\u2581fulfill": 4837,
  "\u2581hiwalay": 4838,
  "\u2581inanyayahan": 4839,
  "\u2581ipahayag": 4840,
  "\u2581safety": 4841,
  "\u2581Republic": 4842,
  "\u2581entertainment": 4843,
  "\u2581iral": 4844,
  "\u2581providing": 4845,
  "\u2581heads": 4846,
  "\u2581ingatan": 4847,
  "\u2581lumalaki": 4848,
  "\u2581president": 4849,
  "\u2581rules": 4850,
  "\u258132.": 4851,
  "\u2581Gresya": 4852,
  "\u2581finished": 4853,
  "\u2581riyan": 4854,
  "\u2581signs": 4855,
  "\u2581Exodo": 4856,
  "\u2581details": 4857,
  "\u2581maagang": 4858,
  "\u2581nangangaral": 4859,
  "\u2581running": 4860,
  "\u2581February": 4861,
  "\u2581Muli": 4862,
  "\u2581officials": 4863,
  "\u2581pagkalipas": 4864,
  "\u2581rights": 4865,
  "\u2581contain": 4866,
  "\u2581dream": 4867,
  "\u2581ipinahihiwatig": 4868,
  "\u2581joyful": 4869,
  "\u2581kakaunti": 4870,
  "\u2581mabigat": 4871,
  "\u2581bagyo": 4872,
  "\u2581ipinangako": 4873,
  "\u2581sakay": 4874,
  "\u2581Dalawang": 4875,
  "\u2581balahibo": 4876,
  "\u2581middle": 4877,
  "\u2581remarkable": 4878,
  "\u2581season": 4879,
  "\u2581task": 4880,
  "\u2581assured": 4881,
  "\u2581humigit": 4882,
  "\u2581pagkuha": 4883,
  "nd": 4884,
  "\u2581TO": 4885,
  "\u2581sobrang": 4886,
  "\u2581Often": 4887,
  "\u2581dakila": 4888,
  "\u2581kuwalipikado": 4889,
  "\u2581paghihirap": 4890,
  "\u2581sports": 4891,
  "em": 4892,
  "\u2581Gentil": 4893,
  "\u2581Memoryal": 4894,
  "\u2581kaluguran": 4895,
  "\u2581masayang": 4896,
  "\u2581nagbabala": 4897,
  "\u2581poot": 4898,
  "\u2581refers": 4899,
  "\u2581experts": 4900,
  "\u2581floor": 4901,
  "\u2581satisfaction": 4902,
  "\u2581Buo": 4903,
  "\u2581aspekto": 4904,
  "\u2581directed": 4905,
  "\u2581nananatiling": 4906,
  "\u2581umiral": 4907,
  "\u2581itanong": 4908,
  "\u2581thereof": 4909,
  "\u2581kaagad": 4910,
  "\u2581kasaganaan": 4911,
  "\u2581labor": 4912,
  "\u2581puspusan": 4913,
  "\u2581reign": 4914,
  "\u2581resist": 4915,
  "\u2581background": 4916,
  "\u2581belong": 4917,
  "\u2581claims": 4918,
  "\u2581failure": 4919,
  "\u2581tribes": 4920,
  "\u2581maysakit": 4921,
  "\u2581resulted": 4922,
  "\u2581identify": 4923,
  "\u2581marvelous": 4924,
  "\u2581goodness": 4925,
  "\u2581panlulumo": 4926,
  "\u2581phone": 4927,
  "\u2581reveals": 4928,
  "\u2581yumaon": 4929,
  "\u2581diborsiyo": 4930,
  "\u2581ebolusyon": 4931,
  "\u2581bihira": 4932,
  "\u2581identified": 4933,
  "\u2581insight": 4934,
  "\u2581terms": 4935,
  "For": 4936,
  "\u2581Pebrero": 4937,
  "\u2581basura": 4938,
  "\u2581claimed": 4939,
  "\u2581pangulo": 4940,
  "\u2581significant": 4941,
  "\u2581pagkapoot": 4942,
  "\u2581pung": 4943,
  "\u2581sapol": 4944,
  "ant": 4945,
  "\u2581isinasagawa": 4946,
  "\u2581kabisera": 4947,
  "\u2581kasabay": 4948,
  "AHINA": 4949,
  "\u2581Watching": 4950,
  "\u2581ear": 4951,
  "\u2581paghahanda": 4952,
  "mula": 4953,
  "\u2581attendance": 4954,
  "\u2581charge": 4955,
  "\u2581replied": 4956,
  "\u2581struggle": 4957,
  "\u2581Death": 4958,
  "\u2581balanced": 4959,
  "\u2581straight": 4960,
  "\u2581Never": 4961,
  "\u2581Pasko": 4962,
  "\u2581indicated": 4963,
  "\u2581makina": 4964,
  "\u2581nangag": 4965,
  "\u2581conclude": 4966,
  "\u2581green": 4967,
  "\u2581matalik": 4968,
  "\u2581parami": 4969,
  "\u2581skills": 4970,
  "\u25811945": 4971,
  "\u2581pagan": 4972,
  "Mga": 4973,
  "\u2581feels": 4974,
  "\u2581magpakailan": 4975,
  "\u2581tolda": 4976,
  "50": 4977,
  "\u2581Note": 4978,
  "\u2581PAGE": 4979,
  "\u2581Union": 4980,
  "\u2581matatagpuan": 4981,
  "\u2581panganay": 4982,
  "\u2581souls": 4983,
  "\u2581trial": 4984,
  "\u2581Star": 4985,
  "\u2581imoral": 4986,
  "\u2581format": 4987,
  "\u2581karne": 4988,
  "\u2581pagkaing": 4989,
  "\u2581Kapayapaan": 4990,
  "\u2581accompany": 4991,
  "\u2581bird": 4992,
  "\u2581itlog": 4993,
  "\u2581located": 4994,
  "\u2581nagpahayag": 4995,
  "\u2581recalls": 4996,
  "sta": 4997,
  "\u00ed": 4998,
  "\u2581Um": 4999,
  "\u2581alitan": 5000,
  "\u2581armies": 5001,
  "\u2581services": 5002,
  "\u2581Association": 5003,
  "\u2581Gospel": 5004,
  "\u2581fourth": 5005,
  "\u2581kasangkapan": 5006,
  "\u2581makikinabang": 5007,
  "ance": 5008,
  "ika": 5009,
  "\u2581additional": 5010,
  "\u2581paninindigan": 5011,
  "ut": 5012,
  "\u2581burned": 5013,
  "\u2581nakipag": 5014,
  "\u2581invitation": 5015,
  "\u2581pinakadakila": 5016,
  "\u2581demonstrate": 5017,
  "\u2581sees": 5018,
  "\u25811914,": 5019,
  "\u2581sickness": 5020,
  "\u2581Fariseo": 5021,
  "\u2581Ga": 5022,
  "\u2581kanais": 5023,
  "\u258175": 5024,
  "\u2581bisita": 5025,
  "\u2581depende": 5026,
  "\u2581expressions": 5027,
  "\u2581matulungan": 5028,
  "\u2581surprised": 5029,
  "\u25811950": 5030,
  "\u2581kaugnay": 5031,
  "\u2581methods": 5032,
  "\u2581pantas": 5033,
  "\u2581bound": 5034,
  "\u2581played": 5035,
  "\u2581thine": 5036,
  "\u2581glad": 5037,
  "\u2581kabuhayan": 5038,
  "\u2581nagtataglay": 5039,
  "\u2581numero": 5040,
  "\u258126,": 5041,
  "\u2581Katotohanan": 5042,
  "\u2581Says": 5043,
  "\u2581dumadalaw": 5044,
  "\u2581pakikinig": 5045,
  "\u2581dumadalo": 5046,
  "\u2581nagsugo": 5047,
  "\u2581memory": 5048,
  "\u2581Esau": 5049,
  "\u2581labi": 5050,
  "\u2581paglilingkuran": 5051,
  "\u2581ulap": 5052,
  "\u2581ipinasiya": 5053,
  "\u2581lugod": 5054,
  "\u2581t": 5055,
  "\u2581tekstong": 5056,
  "\u2581tuma": 5057,
  "\u2581wear": 5058,
  "\u25813,000": 5059,
  "\u2581Sarah": 5060,
  "\u25811988": 5061,
  "\u2581Columbia": 5062,
  "\u2581kabuuang": 5063,
  "\u2581kaliwa": 5064,
  "\u2581weak": 5065,
  "\u2581Give": 5066,
  "\u2581critical": 5067,
  "\u2581discreet": 5068,
  "\u2581lumalabas": 5069,
  "\u2581check": 5070,
  "\u2581pagpapasiya": 5071,
  "\u2581pana": 5072,
  "vo": 5073,
  "\u2581happens": 5074,
  "\u2581magka": 5075,
  "\u2581mothers": 5076,
  "\u2581plan": 5077,
  "ating": 5078,
  "\u2581Ilog": 5079,
  "\u2581Mapa": 5080,
  "\u2581degree": 5081,
  "\u2581offerings": 5082,
  "\u2581peaceful": 5083,
  "isa": 5084,
  "\u2581kawal": 5085,
  "\u2581pangkaraniwang": 5086,
  "\u258120]": 5087,
  "\u2581exists": 5088,
  "\u2581gather": 5089,
  "\u2581kilabot": 5090,
  "\u2581Gu": 5091,
  "\u2581Linggo": 5092,
  "\u2581mangag": 5093,
  "?\"": 5094,
  "\u2581Imagine": 5095,
  "\u2581bangkay": 5096,
  "\u2581brochure": 5097,
  "\u2581dumarami": 5098,
  "\u2581sanga": 5099,
  "\u2581Pagmamasid": 5100,
  "\u2581glorious": 5101,
  "\u2581loves": 5102,
  "\u2581table": 5103,
  "pilitang": 5104,
  "\u2581Bo": 5105,
  "\u2581Filisteo": 5106,
  "\u2581gubat": 5107,
  "\u2581opportunities": 5108,
  "\u2581propesor": 5109,
  "\u2581sukdulan": 5110,
  "\u2581useful": 5111,
  "qui": 5112,
  "\u2581agreed": 5113,
  "\u2581gulong": 5114,
  "\u2581kalinisan": 5115,
  "\u2581united": 5116,
  "\u2581malupit": 5117,
  "\u2581nagmumula": 5118,
  "\u2581ran": 5119,
  "\u2581reduce": 5120,
  "\u2581upright": 5121,
  "\u2581GU": 5122,
  "\u2581conducted": 5123,
  "\u2581possess": 5124,
  "\u2581publiko": 5125,
  "\u2581remaining": 5126,
  "\u2581visitors": 5127,
  "alaala": 5128,
  "\u2581aangking": 5129,
  "\u2581bumubuo": 5130,
  "\u2581inner": 5131,
  "\u2581kasulatan": 5132,
  "\u2581magsi": 5133,
  "\u2581nabasa": 5134,
  "\u2581Ho": 5135,
  "\u2581round": 5136,
  "\u2581salt": 5137,
  "\u2581sinikap": 5138,
  "\u25811997": 5139,
  "\u2581Isinulat": 5140,
  "\u2581conventions": 5141,
  "\u2581exposed": 5142,
  "\u2581opposite": 5143,
  "\u2581symptoms": 5144,
  "\u2581traveled": 5145,
  "\u2581appreciated": 5146,
  "\u2581fruitage": 5147,
  "\u2581kalamnan": 5148,
  "\u2581tuntunin": 5149,
  "\u2581aspects": 5150,
  "\u2581hinirang": 5151,
  "\u2581beast": 5152,
  "\u2581disaster": 5153,
  "\u2581magbago": 5154,
  "\u2581pagkakapit": 5155,
  "lin": 5156,
  "\u2581boluntaryo": 5157,
  "\u2581naririnig": 5158,
  "\u2581sad": 5159,
  "\u2581(1)": 5160,
  "\u2581Dan": 5161,
  "\u2581couples": 5162,
  "\u2581kawili": 5163,
  "\u2581successfully": 5164,
  "san": 5165,
  "\u2581broke": 5166,
  "our": 5167,
  "\u2581inhabited": 5168,
  "\u2581palibhasa": 5169,
  "\u2581pictures": 5170,
  "\u2581suicide": 5171,
  "\u2581taglamig": 5172,
  "uhan": 5173,
  "\u2581Tama": 5174,
  "\u2581sinipi": 5175,
  "\u2581burning": 5176,
  "\u2581hinahanap": 5177,
  "\u2581nakalilipas": 5178,
  "\u2581pananim": 5179,
  "\u2581turning": 5180,
  "gkaroon": 5181,
  "\u2581magsasaka": 5182,
  "\u2581proof": 5183,
  "All": 5184,
  "\u2581400": 5185,
  "\u2581Ja": 5186,
  "\u2581begins": 5187,
  "\u2581burnt": 5188,
  "\u2581game": 5189,
  "\u2581nagsisilbing": 5190,
  "\u2581pumaroon": 5191,
  "\u2581tonelada": 5192,
  "\u258119]": 5193,
  "\u2581Students": 5194,
  "\u2581fields": 5195,
  "\u2581foundation": 5196,
  "\u2581ikaapat": 5197,
  "\u2581kalagitnaan": 5198,
  "\u2581pagkawala": 5199,
  "\u2581physically": 5200,
  "\u2581sigarilyo": 5201,
  "\u2581\u201c\u2018": 5202,
  "\u2581Mat": 5203,
  "\u2581gate": 5204,
  "\u2581ice": 5205,
  "\u2581properly": 5206,
  "\u2581tend": 5207,
  "\u2581images": 5208,
  "\u2581pakikiapid": 5209,
  "\u2581trono": 5210,
  "pp": 5211,
  "\u2581Greece": 5212,
  "\u2581Pakisuyong": 5213,
  "\u2581diet": 5214,
  "\u2581fit": 5215,
  "\u2581iiwan": 5216,
  "\u2581Bill": 5217,
  "\u2581banta": 5218,
  "\u2581northern": 5219,
  "\u2581scene": 5220,
  "\u2581sumasamba": 5221,
  "\u2581contribute": 5222,
  "\u2581dangers": 5223,
  "\u2581medyo": 5224,
  "\u2581pagtatrabaho": 5225,
  "\u2581Ginawa": 5226,
  "\u2581Isip": 5227,
  "\u2581bangko": 5228,
  "\u2581kagaya": 5229,
  "\u2581nawawala": 5230,
  "\u2581tatay": 5231,
  "\u2581Ben": 5232,
  "\u2581east": 5233,
  "\u2581freely": 5234,
  "\u2581refuge": 5235,
  "\u2581tobacco": 5236,
  "\u2581boat": 5237,
  "\u2581compare": 5238,
  "\u2581interesting": 5239,
  "\u2581mabubuhay": 5240,
  "\u2581pakitunguhan": 5241,
  "\u2581scale": 5242,
  "\u2581divided": 5243,
  "\u2581kasuutan": 5244,
  "\u2581keeps": 5245,
  "\u2581method": 5246,
  "\u2581naunawaan": 5247,
  "\u2581pansangay": 5248,
  "\u2581pleasant": 5249,
  "\u2581taba": 5250,
  "ham": 5251,
  "\u2581malay": 5252,
  "end": 5253,
  "\u2581Toronto": 5254,
  "\u2581burden": 5255,
  "\u2581streets": 5256,
  "ure": 5257,
  "\u2581apartment": 5258,
  "\u2581emosyon": 5259,
  "\u2581familiar": 5260,
  "\u2581kanino": 5261,
  "\u2581pakikibahagi": 5262,
  "\u2581sala": 5263,
  "\u2581solusyon": 5264,
  "\u2581touched": 5265,
  "\u2581Lalo": 5266,
  "\u2581pinakamataas": 5267,
  "\u2581Armageddon": 5268,
  "\u2581Trinity": 5269,
  "\u2581YOU": 5270,
  "\u2581cried": 5271,
  "\u2581private": 5272,
  "\u2581silangan": 5273,
  "\u2581masyadong": 5274,
  "\u2581visiting": 5275,
  "\u2581Almighty": 5276,
  "\u2581malalakas": 5277,
  "\u2581posibilidad": 5278,
  "\u2581hardly": 5279,
  "\u2581moon": 5280,
  "\u2581susunugin": 5281,
  "AR": 5282,
  "kin": 5283,
  "\u25811999": 5284,
  "\u2581kinaroroonan": 5285,
  "\u2581listened": 5286,
  "\u2581makatuwid": 5287,
  "\u2581malusog": 5288,
  "\u2581polusyon": 5289,
  "line": 5290,
  "\u2581Netherlands": 5291,
  "\u2581Sweden": 5292,
  "\u2581habit": 5293,
  "ley": 5294,
  "\u2581Armagedon": 5295,
  "\u2581Chinese": 5296,
  "\u2581kalapit": 5297,
  "\u2581lawa": 5298,
  "\u2581magkakasama": 5299,
  "\u2581pleased": 5300,
  "\u2581zealous": 5301,
  "\u2581butas": 5302,
  "\u2581hayaang": 5303,
  "\u2581napaharap": 5304,
  "\u2581paminsan": 5305,
  "\u2581Pamilya": 5306,
  "\u2581items": 5307,
  "\u2581maiiwasan": 5308,
  "ero": 5309,
  "zi": 5310,
  "\u2581Ephraim": 5311,
  "\u2581Iglesya": 5312,
  "\u2581OF": 5313,
  "\u2581bomba": 5314,
  "\u2581content": 5315,
  "\u2581lumikha": 5316,
  "\u2581siklo": 5317,
  "\u2581stake": 5318,
  "\u2581Bunga": 5319,
  "\u2581pagkanaririto": 5320,
  "\u2581Ne": 5321,
  "\u2581assist": 5322,
  "\u2581banggitin": 5323,
  "\u2581fearing": 5324,
  "\u2581hukbong": 5325,
  "\u2581matiyak": 5326,
  "\u2581concentration": 5327,
  "\u2581medikal": 5328,
  "\u2581numerous": 5329,
  "\u2581worthy": 5330,
  "\u2581Men": 5331,
  "\u2581Tract": 5332,
  "\u2581baril": 5333,
  "\u2581medicine": 5334,
  "\u2581nararanasan": 5335,
  "\u2581professor": 5336,
  "aalaala": 5337,
  "\u2581arranged": 5338,
  "\u2581declare": 5339,
  "\u2581islands": 5340,
  "\u2581machine": 5341,
  "\u2581mention": 5342,
  "\u2581sekular": 5343,
  "\u2581serbisyo": 5344,
  "\u2581maglaan": 5345,
  "\u2581nagpangyari": 5346,
  "\u2581pagkadama": 5347,
  "\u2581relationships": 5348,
  "How": 5349,
  "Ito": 5350,
  "\u2581Learn": 5351,
  "\u2581equal": 5352,
  "\u2581kilalanin": 5353,
  "\u2581salungat": 5354,
  "They": 5355,
  "\u2581tumanggi": 5356,
  "\u2581element": 5357,
  "\u2581kasagutan": 5358,
  "\u2581nababahala": 5359,
  "\u2581napakahirap": 5360,
  "\u2581tagapagsalita": 5361,
  "\u2581uniberso": 5362,
  "\u2581afterward": 5363,
  "\u2581dog": 5364,
  "ot": 5365,
  "\u2581Regard": 5366,
  "\u2581blue": 5367,
  "\u2581except": 5368,
  "\u2581pambansang": 5369,
  "\u2581treasure": 5370,
  "pos": 5371,
  "\u2581alalahanin": 5372,
  "\u2581balang": 5373,
  "\u2581host": 5374,
  "\u2581pagdalo": 5375,
  "\u2581parusa": 5376,
  "\u2581pumapasok": 5377,
  "\u2581sinned": 5378,
  "\u2581excellent": 5379,
  "\u2581suggestions": 5380,
  "gen": 5381,
  "ven": 5382,
  "\u2581package": 5383,
  "\u2581hapon": 5384,
  "\u2581succeed": 5385,
  "\u258111]": 5386,
  "\u2581assistance": 5387,
  "\u2581prophetic": 5388,
  "\u2581sinful": 5389,
  "\u2581speed": 5390,
  "\u2581standard": 5391,
  "\u2581Batas": 5392,
  "\u2581Professor": 5393,
  "\u2581burol": 5394,
  "\u2581nakaraan": 5395,
  "tro": 5396,
  "\u2581Australian": 5397,
  "\u2581bank": 5398,
  "\u2581bihag": 5399,
  "\u2581harmful": 5400,
  "\u2581imahen": 5401,
  "\u2581natupad": 5402,
  "\u2581pagkabahala": 5403,
  "\u2581tabernacle": 5404,
  "ab": 5405,
  "\u2581Moscow": 5406,
  "\u2581aalaga": 5407,
  "\u2581humanap": 5408,
  "\u2581Natuklasan": 5409,
  "\u2581Po": 5410,
  "\u2581entity": 5411,
  "\u2581kriminal": 5412,
  "\u2581reaction": 5413,
  "\u2581Center": 5414,
  "\u2581Persia": 5415,
  "\u2581kumusta": 5416,
  "\u2581refuse": 5417,
  "\u2581surgery": 5418,
  "ex": 5419,
  "\u2581Car": 5420,
  "\u2581ahas": 5421,
  "\u2581conscious": 5422,
  "\u2581eksaktong": 5423,
  "\u2581innocent": 5424,
  "\u2581nagdulot": 5425,
  "\u2581primary": 5426,
  "At": 5427,
  "atid": 5428,
  "\u25811998": 5429,
  "\u2581Absalom": 5430,
  "\u2581accomplished": 5431,
  "\u2581attempt": 5432,
  "\u2581bond": 5433,
  "\u2581looks": 5434,
  "\u2581nagsisisi": 5435,
  "\u2581pagkakilala": 5436,
  "\u2581waste": 5437,
  "et": 5438,
  "\u2581abandoned": 5439,
  "\u2581companions": 5440,
  "\u2581gets": 5441,
  "\u2581multitude": 5442,
  "\u2581pantahanan": 5443,
  "\u2581pi": 5444,
  "\u2581spite": 5445,
  "\u2581Co": 5446,
  "\u2581hadlang": 5447,
  "\u2581kahalili": 5448,
  "\u2581pakikisama": 5449,
  "\u2581simulaing": 5450,
  "\u2581tender": 5451,
  "\u2581Ilang": 5452,
  "\u2581Korea": 5453,
  "\u2581Think": 5454,
  "\u2581Truth": 5455,
  "\u2581Up": 5456,
  "\u2581data": 5457,
  "\u2581pundasyon": 5458,
  "ful": 5459,
  "\u2581Faraon": 5460,
  "\u2581Russian": 5461,
  "\u2581anti": 5462,
  "\u2581malamig": 5463,
  "\u2581pinakamagaling": 5464,
  "\u2581scriptures": 5465,
  "\u2581sitting": 5466,
  "As": 5467,
  "\u2581holding": 5468,
  "\u2581relates": 5469,
  "\u2581restored": 5470,
  "\u2581AT": 5471,
  "\u2581ED": 5472,
  "\u2581Ezra": 5473,
  "\u2581Levites": 5474,
  "\u2581fresh": 5475,
  "\u2581marry": 5476,
  "\u2581pansamantalang": 5477,
  "\u2581Pangmalas": 5478,
  "\u2581border": 5479,
  "\u2581kaguluhan": 5480,
  "\u2581sansinukob": 5481,
  "up": 5482,
  "\u2581carbon": 5483,
  "\u2581fornication": 5484,
  "mba": 5485,
  "\u258125:": 5486,
  "\u2581koreo": 5487,
  "\u2581mananampalataya": 5488,
  "\u2581pagtatalo": 5489,
  "\u2581reaching": 5490,
  "\u2581strengthened": 5491,
  "\u2581Abram": 5492,
  "\u2581gang": 5493,
  "\u2581illustrate": 5494,
  "\u2581technology": 5495,
  "atted": 5496,
  "\u25811983": 5497,
  "\u2581Eventually": 5498,
  "\u2581Hu": 5499,
  "\u2581Whe": 5500,
  "\u2581applying": 5501,
  "\u2581arise": 5502,
  "\u2581dolyar": 5503,
  "\u2581kasunduan": 5504,
  "\u2581nagdala": 5505,
  "\u2581schools": 5506,
  "che": 5507,
  "\u25811996": 5508,
  "\u2581Likewise": 5509,
  "\u2581bibigyan": 5510,
  "\u2581bilyon": 5511,
  "\u2581kabatiran": 5512,
  "\u2581ought": 5513,
  "\u2581tumayo": 5514,
  "\u2581serves": 5515,
  "nta": 5516,
  "\u2581gilalas": 5517,
  "\u2581humihiling": 5518,
  "\u2581previous": 5519,
  "\u2581systems": 5520,
  "\u2581unusual": 5521,
  "\u2581Te": 5522,
  "\u2581mahilig": 5523,
  "\u2581nanatiling": 5524,
  "\u2581tinulungan": 5525,
  "\u2581Aklat": 5526,
  "\u2581Eli": 5527,
  "\u2581instructions": 5528,
  "\u2581itaguyod": 5529,
  "\u2581Answer": 5530,
  "\u2581career": 5531,
  "\u2581kapansanan": 5532,
  "\u2581worldly": 5533,
  "Ka": 5534,
  "great": 5535,
  "\u2581Post": 5536,
  "\u2581Red": 5537,
  "\u2581Tsina": 5538,
  "\u2581asin": 5539,
  "\u2581district": 5540,
  "\u2581driving": 5541,
  "\u2581gutom": 5542,
  "\u2581malungkot": 5543,
  "\u2581paligid": 5544,
  "\u2581Sydney": 5545,
  "\u2581affairs": 5546,
  "\u2581mayayaman": 5547,
  "\u2581customs": 5548,
  "\u2581mabagal": 5549,
  "\u2581nakababata": 5550,
  "Walang": 5551,
  "\u2581occasions": 5552,
  "J": 5553,
  "\u2581Papa": 5554,
  "\u2581playing": 5555,
  "\u2581salamin": 5556,
  "\u2581anymore": 5557,
  "\u2581limitasyon": 5558,
  "\u2581pagbabawal": 5559,
  "\u2581possibly": 5560,
  "\u2581Nasumpungan": 5561,
  "\u2581fallen": 5562,
  "\u2581reject": 5563,
  "\u2581sintomas": 5564,
  "\u2581WHO": 5565,
  "\u2581akala": 5566,
  "\u2581mass": 5567,
  "\u2581pagbubulay": 5568,
  "\u2581palatandaan": 5569,
  "\u2581sakuna": 5570,
  "\u2581temptation": 5571,
  "\u2581Pro": 5572,
  "\u2581Wall": 5573,
  "\u2581mi": 5574,
  "kikipagkaibigan": 5575,
  "\u258144": 5576,
  "\u2581Cristo": 5577,
  "\u2581Old": 5578,
  "\u2581bones": 5579,
  "\u2581ilaw": 5580,
  "\u2581movement": 5581,
  "ide": 5582,
  "\u2581Nagsimula": 5583,
  "\u2581access": 5584,
  "\u2581endeavor": 5585,
  "\u2581palabas": 5586,
  "\u2581Dictionary": 5587,
  "\u2581Ex": 5588,
  "\u2581Ro": 5589,
  "\u2581dealings": 5590,
  "\u2581deaths": 5591,
  "\u2581plans": 5592,
  "\u2581relations": 5593,
  "\u2581snow": 5594,
  "\u2581Tim": 5595,
  "\u2581accident": 5596,
  "\u2581base": 5597,
  "\u2581directory": 5598,
  "\u2581involve": 5599,
  "\u2581offers": 5600,
  "\u2581panaginip": 5601,
  "\u2581principal": 5602,
  "\u2581Congregation": 5603,
  "\u2581Switzerland": 5604,
  "\u2581alin": 5605,
  "\u2581dress": 5606,
  "\u2581neutral": 5607,
  "\u2581scholars": 5608,
  "\u2581verses": 5609,
  "\u2581audience": 5610,
  "\u2581butil": 5611,
  "\u2581enerhiya": 5612,
  "\u2581establish": 5613,
  "\u2581grief": 5614,
  "\u2581lovers": 5615,
  "\u2581rose": 5616,
  "\u2581sabik": 5617,
  "\u2581soberanya": 5618,
  "malaking": 5619,
  "\u25811930": 5620,
  "\u25814]": 5621,
  "\u2581advance": 5622,
  "\u2581director": 5623,
  "\u2581ehersisyo": 5624,
  "\u2581pananabik": 5625,
  "\u2581quit": 5626,
  "\u2581resources": 5627,
  "\u2581Gawin": 5628,
  "\u2581bumagsak": 5629,
  "uwi": 5630,
  "\u2581Amos": 5631,
  "\u2581design": 5632,
  "\u2581bisa": 5633,
  "\u2581hardin": 5634,
  "\u2581nagpapatunay": 5635,
  "\u2581nakasumpong": 5636,
  "\u2581property": 5637,
  "au": 5638,
  "\u258172": 5639,
  "\u2581Israelite": 5640,
  "\u2581difficulties": 5641,
  "\u2581nawala": 5642,
  "\u2581refer": 5643,
  "\u2581tons": 5644,
  "\u2581valid": 5645,
  "\u25813]": 5646,
  "\u2581Ginagawa": 5647,
  "\u2581Joel": 5648,
  "\u2581gradually": 5649,
  "\u2581kapisanan": 5650,
  "\u2581napakaganda": 5651,
  "ES": 5652,
  "\u2581Hi": 5653,
  "\u2581Kings": 5654,
  "\u2581Waring": 5655,
  "\u2581ilarawan": 5656,
  "\u2581kilos": 5657,
  "\u2581terrible": 5658,
  ",000,000": 5659,
  "\u258151": 5660,
  "\u2581Saka": 5661,
  "\u2581coast": 5662,
  "\u2581da": 5663,
  "\u2581dear": 5664,
  "\u2581kindly": 5665,
  "\u2581nilikha": 5666,
  "\u2581observes": 5667,
  "\u2581persona": 5668,
  "\u2581piece": 5669,
  "\u2581programs": 5670,
  "\u2581tax": 5671,
  "ON": 5672,
  "ated": 5673,
  "\u2581Aba": 5674,
  "\u2581Committee": 5675,
  "\u2581contained": 5676,
  "\u2581hit": 5677,
  "\u2581nakatatakot": 5678,
  "\u2581pangglobo": 5679,
  "\u2581sanang": 5680,
  "\u2581umuwi": 5681,
  "\u2581wipe": 5682,
  "\u2581buildings": 5683,
  "\u2581pagtugon": 5684,
  "ung": 5685,
  "\u258133:": 5686,
  "\u2581akda": 5687,
  "\u2581figure": 5688,
  "\u2581kinds": 5689,
  "\u2581rulership": 5690,
  "nce": 5691,
  "\u2581karami": 5692,
  "\u2581kilo": 5693,
  "\u2581pinamagatang": 5694,
  "\u2581secure": 5695,
  "\u258129,": 5696,
  "\u2581Laban": 5697,
  "\u2581Mar": 5698,
  "\u2581Vatican": 5699,
  "\u2581elepante": 5700,
  "\u2581engage": 5701,
  "\u2581horse": 5702,
  "\u2581karo": 5703,
  "\u2581pagbabata": 5704,
  "\u2581sanlinggo": 5705,
  "\u2581tinuruan": 5706,
  "\u2581itinatag": 5707,
  "\u2581paghahari": 5708,
  "ok": 5709,
  "\u2581Child": 5710,
  "\u2581Street": 5711,
  "\u2581commandment": 5712,
  "\u2581literally": 5713,
  "\u2581nagtapos": 5714,
  "\u2581pangangasiwa": 5715,
  "\u2581sand": 5716,
  "\u2581Ginagamit": 5717,
  "\u2581involving": 5718,
  "\u2581missing": 5719,
  "\u2581payong": 5720,
  "\u2581satisfying": 5721,
  "ep": 5722,
  "\u2581Dad": 5723,
  "\u2581Gayumpaman": 5724,
  "\u2581calm": 5725,
  "\u2581disorder": 5726,
  "\u2581fighting": 5727,
  "\u2581kitang": 5728,
  "\u2581kunin": 5729,
  "\u2581nagka": 5730,
  "\u2581nakaka": 5731,
  "\u2581press": 5732,
  "\u2581requirements": 5733,
  "\u2581square": 5734,
  "\u2581widow": 5735,
  "\u2581Bata": 5736,
  "\u2581Hukom": 5737,
  "\u2581Thomas": 5738,
  "\u2581pribado": 5739,
  "\u2581threatened": 5740,
  "\u2581Propesor": 5741,
  "\u2581grand": 5742,
  "\u2581introduced": 5743,
  "\u2581lessons": 5744,
  "\u2581nanggaling": 5745,
  "\u2581tatalakayin": 5746,
  "\u2581tiyan": 5747,
  "\u2581matandang": 5748,
  "\u2581selfish": 5749,
  "\u2581vessels": 5750,
  "\u2581considering": 5751,
  "\u2581kuryente": 5752,
  "\u2581model": 5753,
  "\u2581origin": 5754,
  "\u2581pollution": 5755,
  "\u2581quick": 5756,
  "\u2581AWAKE": 5757,
  "\u2581attacks": 5758,
  "\u2581makinabang": 5759,
  "\u2581operation": 5760,
  "\u2581telephone": 5761,
  "\u2581warns": 5762,
  "MISING": 5763,
  "daan": 5764,
  "pagkakatiwalaan": 5765,
  "\u2581Nisan": 5766,
  "\u2581ex": 5767,
  "\u2581faithfully": 5768,
  "\u2581kapakumbabaan": 5769,
  "\u2581propesyonal": 5770,
  "\u2581sabbath": 5771,
  "\u2581weather": 5772,
  "\u2581Sinai": 5773,
  "\u2581depressed": 5774,
  "\u2581imperyo": 5775,
  "\u2581inalis": 5776,
  "\u2581kakila": 5777,
  "\u2581katutubong": 5778,
  "\u2581lipi": 5779,
  "\u2581completed": 5780,
  "\u2581games": 5781,
  "\u2581ipinalalagay": 5782,
  "\u2581lips": 5783,
  "\u2581mangmang": 5784,
  "\u2581noticed": 5785,
  "\u2581suggests": 5786,
  "ros": 5787,
  "\u258127]": 5788,
  "\u2581Zion": 5789,
  "\u2581Besides": 5790,
  "\u2581En": 5791,
  "\u2581Itinuturo": 5792,
  "\u2581Way": 5793,
  "\u2581haligi": 5794,
  "\u2581humihingi": 5795,
  "\u2581nanggagaling": 5796,
  "\u2581sagisag": 5797,
  "\u2581talaan": 5798,
  "\u2581talinghaga": 5799,
  "lon": 5800,
  "\u258110,000": 5801,
  "\u2581Pi": 5802,
  "\u2581Pope": 5803,
  "\u2581alabok": 5804,
  "\u2581current": 5805,
  "\u2581unless": 5806,
  "\u2581watching": 5807,
  "of": 5808,
  "\u2581Henry": 5809,
  "\u2581frequently": 5810,
  "\u2581nakasalig": 5811,
  "\u2581panloob": 5812,
  "\u2581pumatay": 5813,
  "\u2581Malapit": 5814,
  "\u2581printed": 5815,
  "\u2581tradition": 5816,
  "\u2581Sara": 5817,
  "\u2581Tinataya": 5818,
  "\u2581allows": 5819,
  "\u2581gayunman": 5820,
  "\u2581kapanahunan": 5821,
  "\u2581kapansin": 5822,
  "\u2581pagsulat": 5823,
  "not": 5824,
  "\u2581Philip": 5825,
  "\u2581bukal": 5826,
  "\u2581d": 5827,
  "\u2581evolution": 5828,
  "\u2581flowers": 5829,
  "\u2581katulong": 5830,
  "\u2581twice": 5831,
  "nt": 5832,
  "\u2581firmly": 5833,
  "\u2581komunidad": 5834,
  "\u2581natutulog": 5835,
  "\u2581sirain": 5836,
  "\u2581stayed": 5837,
  "\u2581Kapans": 5838,
  "\u2581aged": 5839,
  "\u2581deeds": 5840,
  "\u2581intense": 5841,
  "\u2581magtagumpay": 5842,
  "\u2581punishment": 5843,
  "iko": 5844,
  "\u2581Web": 5845,
  "\u2581makapa": 5846,
  "\u2581naglakbay": 5847,
  "\u2581pamilyar": 5848,
  "\u2581theory": 5849,
  "\u258166": 5850,
  "\u2581awtor": 5851,
  "\u2581determination": 5852,
  "\u2581tatanggapin": 5853,
  "\u2581abundant": 5854,
  "\u2581obispo": 5855,
  "\u2581natuto": 5856,
  "\u2581tatanggap": 5857,
  "\u2581Austria": 5858,
  "\u2581flee": 5859,
  "\u2581halamang": 5860,
  "\u2581painful": 5861,
  "\u2581atensiyon": 5862,
  "\u2581dying": 5863,
  "\u2581hidden": 5864,
  "\u2581magtiwala": 5865,
  "\u2581marked": 5866,
  "\u2581pulisya": 5867,
  "\u2581stories": 5868,
  "\u2581BIBLE": 5869,
  "\u2581Napaka": 5870,
  "\u2581con": 5871,
  "\u2581larger": 5872,
  "\u2581reminded": 5873,
  "\u2581southern": 5874,
  "\u2581taste": 5875,
  "\u2581Whatever": 5876,
  "\u2581cloud": 5877,
  "\u2581paglakad": 5878,
  "\u2581pounds": 5879,
  "\u2581Kay": 5880,
  "\u2581elements": 5881,
  "\u2581ipinadala": 5882,
  "\u2581kababaihan": 5883,
  "\u2581obtained": 5884,
  "\u2581production": 5885,
  "\u2581sinabihan": 5886,
  "\u2581su": 5887,
  "j": 5888,
  "\u258149": 5889,
  "\u2581Washington": 5890,
  "\u2581dwelling": 5891,
  "\u2581makabuluhan": 5892,
  "\u2581mild": 5893,
  "\u2581nakalulugod": 5894,
  "\u2581prominent": 5895,
  "\u2581undeserved": 5896,
  "\u2581wondered": 5897,
  "\u2581Vi": 5898,
  "\u2581cares": 5899,
  "\u2581makamit": 5900,
  "\u2581manggagamot": 5901,
  "\u2581passing": 5902,
  "\u2581sahig": 5903,
  "\u2581tract": 5904,
  "\u2581100,000": 5905,
  "\u2581couldn": 5906,
  "\u2581quiet": 5907,
  "\u2581star": 5908,
  "\u2581types": 5909,
  "\u2581admitted": 5910,
  "\u2581determinasyon": 5911,
  "\u2581historian": 5912,
  "\u2581kadahilanan": 5913,
  "\u2581mananatili": 5914,
  "\u2581provisions": 5915,
  "shi": 5916,
  "\u2581alok": 5917,
  "\u2581inilaan": 5918,
  "\u2581replaced": 5919,
  "\u2581station": 5920,
  "\u2581testimony": 5921,
  "\u00e1n": 5922,
  "\u2581mahina": 5923,
  "\u2581portion": 5924,
  "\u2581spring": 5925,
  "inabanggit": 5926,
  "\u2581Da": 5927,
  "\u2581Further": 5928,
  "\u2581Year": 5929,
  "\u2581facing": 5930,
  "\u2581guilty": 5931,
  "\u2581healing": 5932,
  "\u2581opinion": 5933,
  "\u2581pagkapuksa": 5934,
  "\u2581tests": 5935,
  "\u2581tinukoy": 5936,
  "\u2581\u201c[": 5937,
  "\u2581Lu": 5938,
  "\u2581ate": 5939,
  "\u2581commit": 5940,
  "\u2581ikapit": 5941,
  "\u2581instrumento": 5942,
  "\u2581trigo": 5943,
  "oth": 5944,
  "\u258134.": 5945,
  "\u2581babies": 5946,
  "\u2581impiyerno": 5947,
  "\u2581linya": 5948,
  "\u2581magsabi": 5949,
  "\u2581nagtataguyod": 5950,
  "\u2581shepherds": 5951,
  "\u2581unahan": 5952,
  "\u2581119": 5953,
  "\u2581BIBLIYA": 5954,
  "\u2581Council": 5955,
  "\u2581amoy": 5956,
  "\u2581ilagay": 5957,
  "\u2581naglalakad": 5958,
  "\u2581pukyutan": 5959,
  "\u2581theme": 5960,
  "karanas": 5961,
  "\u2581annual": 5962,
  "\u2581huwaran": 5963,
  "\u2581princes": 5964,
  "\u2581resolve": 5965,
  "\u2581stick": 5966,
  "ard": 5967,
  "log": 5968,
  "\u2581Thessalonians": 5969,
  "\u2581grave": 5970,
  "\u2581inapo": 5971,
  "\u2581inilalagay": 5972,
  "\u2581makakuha": 5973,
  "\u2581pumili": 5974,
  "\u2581raw": 5975,
  "\u2581songs": 5976,
  "lala": 5977,
  "ten": 5978,
  "uk": 5979,
  "\u2581(2)": 5980,
  "\u2581Sagot": 5981,
  "\u2581asks": 5982,
  "\u2581invisible": 5983,
  "\u2581malulubha": 5984,
  "\u2581option": 5985,
  "\u2581relihiyong": 5986,
  "Pa": 5987,
  "\u2581everywhere": 5988,
  "\u2581sabay": 5989,
  "\u2581ubas": 5990,
  "\u2581widely": 5991,
  "\u2581writings": 5992,
  "but": 5993,
  "red": 5994,
  "\u25812001": 5995,
  "\u2581Second": 5996,
  "\u2581aalisin": 5997,
  "\u2581aralin": 5998,
  "\u2581famine": 5999,
  "\u2581kalakasan": 6000,
  "\u2581provision": 6001,
  "Magiging": 6002,
  "baba": 6003,
  "\u2581Richard": 6004,
  "\u2581dadalhin": 6005,
  "\u2581inherit": 6006,
  "\u2581pangkaraniwan": 6007,
  "\u2581samahan": 6008,
  "\u2581Bansa": 6009,
  "\u2581Jonas": 6010,
  "\u2581binasa": 6011,
  "\u2581faces": 6012,
  "\u2581magpapa": 6013,
  "\u2581privileges": 6014,
  "\u2581tuparin": 6015,
  "\u2581yelo": 6016,
  "\u25811914.": 6017,
  "\u2581Ahab": 6018,
  "\u2581Rutherford": 6019,
  "\u2581beat": 6020,
  "\u2581custom": 6021,
  "\u2581lola": 6022,
  "\u2581pagtanggi": 6023,
  "\u2581render": 6024,
  "\u2581Sermon": 6025,
  "\u2581indefinite": 6026,
  "\u2581kumakapit": 6027,
  "\u2581otherwise": 6028,
  "\u2581suggested": 6029,
  "\u2581tinatahanan": 6030,
  "\u2581tumutugon": 6031,
  "\u2581tuwina": 6032,
  "\u2581Ginamit": 6033,
  "\u2581Nathan": 6034,
  "\u2581lupon": 6035,
  "\u2581object": 6036,
  "\u2581radyo": 6037,
  "\u2581sumasang": 6038,
  "\u2581wedding": 6039,
  "\u2581Mosaic": 6040,
  "\u2581brief": 6041,
  "\u2581valley": 6042,
  "\u2581victory": 6043,
  "cu": 6044,
  "ld": 6045,
  "rin": 6046,
  "\u2581Hindu": 6047,
  "\u2581Relihiyon": 6048,
  "\u2581adultery": 6049,
  "\u2581feature": 6050,
  "\u2581forests": 6051,
  "\u2581lines": 6052,
  "\u2581miracles": 6053,
  "\u2581mistakes": 6054,
  "\u2581nakaulat": 6055,
  "\u2581nasabi": 6056,
  "\u2581recall": 6057,
  "\u2581sources": 6058,
  "\u2581v": 6059,
  "long": 6060,
  "\u258152": 6061,
  "\u2581features": 6062,
  "\u2581kaninuman": 6063,
  "\u2581madama": 6064,
  "ty": 6065,
  "\u2581Modern": 6066,
  "\u2581injustice": 6067,
  "\u2581kalakhan": 6068,
  "\u2581paalaala": 6069,
  "\u2581possession": 6070,
  "\u2581qualified": 6071,
  "ligang": 6072,
  "\u2581anxious": 6073,
  "\u2581arrested": 6074,
  "\u2581communicate": 6075,
  "\u2581fled": 6076,
  "\u2581gilid": 6077,
  "ip": 6078,
  "\u2581Early": 6079,
  "\u2581grain": 6080,
  "\u2581lalawigan": 6081,
  "\u2581suggest": 6082,
  "\u2581twenty": 6083,
  "\u25811939": 6084,
  "\u2581Matt": 6085,
  "\u2581masasabing": 6086,
  "\u2581satisfied": 6087,
  "\u2581Col": 6088,
  "\u2581Park": 6089,
  "\u2581cup": 6090,
  "\u2581fruits": 6091,
  "\u2581industry": 6092,
  "\u2581nangasa": 6093,
  "\u2581Luther": 6094,
  "\u2581Muslim": 6095,
  "\u2581Nakikita": 6096,
  "\u2581alon": 6097,
  "\u2581apektado": 6098,
  "\u2581fun": 6099,
  "\u2581pantay": 6100,
  "\u2581sweet": 6101,
  "\u2581aaralan": 6102,
  "\u2581arose": 6103,
  "\u2581madla": 6104,
  "\u2581manuskrito": 6105,
  "\u2581appeal": 6106,
  "\u2581greed": 6107,
  "\u2581iisipan": 6108,
  "\u2581nakinig": 6109,
  "\u2581nanatili": 6110,
  "\u2581pagmamalasakit": 6111,
  "\u2581visits": 6112,
  "ow": 6113,
  "\u2581Je": 6114,
  "\u2581creature": 6115,
  "\u2581drew": 6116,
  "\u2581looban": 6117,
  "\u2581makabubuting": 6118,
  "lang": 6119,
  "\u2581Har": 6120,
  "\u2581bigla": 6121,
  "com": 6122,
  "\u2581Within": 6123,
  "\u2581armas": 6124,
  "\u2581ends": 6125,
  "\u2581flight": 6126,
  "\u2581humiling": 6127,
  "\u2581ingay": 6128,
  "\u2581istasyon": 6129,
  "\u2581mawawala": 6130,
  "\u2581pagod": 6131,
  "\u2581salaysay": 6132,
  "sama": 6133,
  "\u258114]": 6134,
  "\u2581Posible": 6135,
  "\u2581infected": 6136,
  "\u2581kasi": 6137,
  "\u2581makahimala": 6138,
  "\u2581nakaaalam": 6139,
  "\u2581spirits": 6140,
  "ology": 6141,
  "\u2581Baha": 6142,
  "\u2581attitudes": 6143,
  "\u2581lo": 6144,
  "\u2581patunayan": 6145,
  "\u2581sugat": 6146,
  "\u2581Department": 6147,
  "\u2581listahan": 6148,
  "\u2581mawala": 6149,
  "\u2581pitak": 6150,
  "\u2581poured": 6151,
  "\u2581usok": 6152,
  "OR": 6153,
  "\u25811940": 6154,
  "\u2581Show": 6155,
  "\u2581ani": 6156,
  "\u2581commercial": 6157,
  "\u2581companion": 6158,
  "\u2581extended": 6159,
  "\u2581gathering": 6160,
  "\u2581sumamba": 6161,
  "\u2581traffic": 6162,
  "kal": 6163,
  "\u2581Kenya": 6164,
  "\u2581hinihintay": 6165,
  "\u2581impact": 6166,
  "lam": 6167,
  "nan": 6168,
  "\u2581Herald": 6169,
  "\u2581Scientist": 6170,
  "\u2581sing": 6171,
  "\u2581120": 6172,
  "\u258124]": 6173,
  "\u2581ca": 6174,
  "\u2581klerigo": 6175,
  "\u2581panlabas": 6176,
  "\u2581piitan": 6177,
  "lot": 6178,
  "\u2581double": 6179,
  "\u2581resulting": 6180,
  "\u2581writers": 6181,
  "Jesus": 6182,
  "\u2581Pananampalataya": 6183,
  "\u2581Zealand": 6184,
  "\u2581bubuhayin": 6185,
  "\u2581kalugud": 6186,
  "\u2581layuning": 6187,
  "\u2581patibayin": 6188,
  "\u2581proud": 6189,
  "\u2581Tipan": 6190,
  "\u2581baha": 6191,
  "\u2581corrupt": 6192,
  "\u2581extra": 6193,
  "\u2581kahihiyan": 6194,
  "\u2581prisoners": 6195,
  "\u2581represent": 6196,
  "rd": 6197,
  "tin": 6198,
  "\u2581Kaniya": 6199,
  "\u2581Protestant": 6200,
  "\u2581Study": 6201,
  "\u2581magdudulot": 6202,
  "\u2581nagtayo": 6203,
  "\u2581natagpuan": 6204,
  "\u2581sira": 6205,
  "\u2581worker": 6206,
  "\u258127,": 6207,
  "\u2581Philistines": 6208,
  "\u2581babalik": 6209,
  "\u2581generations": 6210,
  "\u2581kanlungan": 6211,
  "\u2581routine": 6212,
  "\u2581symbolic": 6213,
  "LE": 6214,
  "ov": 6215,
  "\u2581nangunguna": 6216,
  "\u2581staff": 6217,
  "ayon": 6218,
  "\u2581Natatanda": 6219,
  "\u2581blame": 6220,
  "\u2581farm": 6221,
  "\u2581journal": 6222,
  "\u2581levels": 6223,
  "\u2581naiisip": 6224,
  "\u2581solid": 6225,
  "\u2581taasan": 6226,
  "\u2581tulos": 6227,
  "ek": 6228,
  "\u2581Grand": 6229,
  "\u2581Kasali": 6230,
  "\u2581hamak": 6231,
  "\u2581highest": 6232,
  "\u2581kapalit": 6233,
  "sulat": 6234,
  "\u2581Paaralan": 6235,
  "\u2581kabuuan": 6236,
  "\u2581maganap": 6237,
  "\u2581nakasulat": 6238,
  "\u2581newly": 6239,
  "\u2581niyebe": 6240,
  "\u2581saysay": 6241,
  "\u2581uusapan": 6242,
  "sen": 6243,
  "\u2581balo": 6244,
  "\u2581ituring": 6245,
  "\u2581officer": 6246,
  "\u2581visible": 6247,
  "\u2581Hezekiah": 6248,
  "\u2581reputation": 6249,
  "\u2581royal": 6250,
  "\u2581version": 6251,
  "\u2581aspect": 6252,
  "\u2581baktirya": 6253,
  "\u2581changing": 6254,
  "\u2581daliri": 6255,
  "\u2581masikap": 6256,
  "\u2581pananatili": 6257,
  "\u258100": 6258,
  "\u25811984": 6259,
  "\u2581Galilea": 6260,
  "\u2581Hapones": 6261,
  "\u2581Research": 6262,
  "\u2581gained": 6263,
  "\u2581influenced": 6264,
  "\u2581maipakikita": 6265,
  "\u2581nagpapasalamat": 6266,
  "\u2581pagpapagal": 6267,
  "\u2581reflected": 6268,
  "\u2581rivers": 6269,
  "No": 6270,
  "den": 6271,
  "\u2581Gideon": 6272,
  "\u2581Three": 6273,
  "\u2581ipinagbabawal": 6274,
  "\u2581kagila": 6275,
  "\u2581mahaba": 6276,
  "\u2581tapos": 6277,
  "\u2581wari": 6278,
  "\u2581istoryador": 6279,
  "\u2581makahula": 6280,
  "\u2581pagliligtas": 6281,
  "\u2581pagsisisi": 6282,
  "\u2581permanent": 6283,
  "\u2581seryeng": 6284,
  "\u2581seventh": 6285,
  "\u2581temporary": 6286,
  "\u25811993": 6287,
  "\u2581Again": 6288,
  "\u2581Ru": 6289,
  "\u2581Teach": 6290,
  "\u2581heartfelt": 6291,
  "\u2581lutasin": 6292,
  "\u2581maabot": 6293,
  "\u2581nakaharap": 6294,
  "\u2581plague": 6295,
  "\u2581win": 6296,
  "gsasangkot": 6297,
  "\u2581Ca": 6298,
  "\u2581Italian": 6299,
  "\u2581Orthodox": 6300,
  "\u2581Sadly": 6301,
  "\u2581demand": 6302,
  "\u2581drama": 6303,
  "\u2581takda": 6304,
  "\u2581widespread": 6305,
  "(": 6306,
  "ach": 6307,
  "ists": 6308,
  "\u25812]": 6309,
  "\u2581Inaakala": 6310,
  "\u2581bumasa": 6311,
  "\u2581cm": 6312,
  "\u2581gising": 6313,
  "\u2581iginagalang": 6314,
  "\u2581isiniwalat": 6315,
  "\u2581panabik": 6316,
  "\u2581speaker": 6317,
  "loob": 6318,
  "\u258147": 6319,
  "\u2581buhangin": 6320,
  "\u2581killing": 6321,
  "\u2581materyales": 6322,
  "\u2581nabigo": 6323,
  "\u2581pressures": 6324,
  "gwakas": 6325,
  "\u2581>": 6326,
  "\u2581Kinabukasan": 6327,
  "\u2581WHAT": 6328,
  "\u2581datapuwa": 6329,
  "\u2581dinadala": 6330,
  "\u2581grass": 6331,
  "\u2581location": 6332,
  "\u2581makatarungan": 6333,
  "\u2581pagkasira": 6334,
  "\u2581restore": 6335,
  "\u2581singing": 6336,
  "\u2581tabako": 6337,
  "\u2581tanso": 6338,
  "Kapag": 6339,
  "\u2581Assembly": 6340,
  "\u2581Interestingly": 6341,
  "\u2581Katolikong": 6342,
  "\u2581Napakarami": 6343,
  "\u2581bull": 6344,
  "\u2581citizens": 6345,
  "\u2581differences": 6346,
  "\u2581lift": 6347,
  "\u2581nagbubunga": 6348,
  "\u2581readers": 6349,
  "\u2581rendered": 6350,
  "\u2581sinners": 6351,
  "\u2581status": 6352,
  "\u2581unawain": 6353,
  "tuon": 6354,
  "\u2581Mr": 6355,
  "\u2581Paulo": 6356,
  "\u2581camps": 6357,
  "\u2581deaf": 6358,
  "\u2581empire": 6359,
  "\u2581rebellion": 6360,
  "\u2581wasto": 6361,
  "\u2581Fear": 6362,
  "\u2581lumilikha": 6363,
  "\u2581relasyon": 6364,
  "\u2581Asa": 6365,
  "\u2581Upon": 6366,
  "\u2581binago": 6367,
  "\u2581condemned": 6368,
  "\u2581fly": 6369,
  "\u2581spending": 6370,
  "\u2581tinatayang": 6371,
  "\u2581lord": 6372,
  "\u2581masiyahan": 6373,
  "\u2581readily": 6374,
  "\u25811960": 6375,
  "\u2581Flood": 6376,
  "\u2581afternoon": 6377,
  "\u2581chemical": 6378,
  "\u2581lion": 6379,
  "\u2581pasilidad": 6380,
  "\u2581turns": 6381,
  "ana": 6382,
  "\u00f3": 6383,
  "\u2581DNA": 6384,
  "\u2581Women": 6385,
  "\u2581bantay": 6386,
  "\u2581doors": 6387,
  "\u2581idolo": 6388,
  "\u2581lawak": 6389,
  "\u2581limit": 6390,
  "\u2581obligation": 6391,
  "und": 6392,
  "\u258119;": 6393,
  "\u2581Sun": 6394,
  "\u2581admits": 6395,
  "\u2581demonstrated": 6396,
  "\u2581pinansiyal": 6397,
  "SANG": 6398,
  "\u2581ipakipag": 6399,
  "\u2581kapanganakan": 6400,
  "\u2581maharlika": 6401,
  "\u2581mauunawaan": 6402,
  "\u2581pagpapahayag": 6403,
  "\u2581palaisip": 6404,
  "\u2581supling": 6405,
  "\u2581worshippers": 6406,
  "cha": 6407,
  "dong": 6408,
  "los": 6409,
  "pan": 6410,
  "\u2581eager": 6411,
  "\u2581kasangkot": 6412,
  "\u2581pagpapalaki": 6413,
  "\u2581umaakay": 6414,
  "mar": 6415,
  "sabay": 6416,
  "\u2581Living": 6417,
  "\u2581depends": 6418,
  "\u2581historical": 6419,
  "\u2581income": 6420,
  "\u2581masidhing": 6421,
  "\u2581mesa": 6422,
  "\u2581paying": 6423,
  "\u2581survival": 6424,
  "ally": 6425,
  "hang": 6426,
  "\u2581Binigyan": 6427,
  "\u2581Martin": 6428,
  "\u2581approached": 6429,
  "\u2581crisis": 6430,
  "\u2581murder": 6431,
  "\u2581possessions": 6432,
  "\u2581tent": 6433,
  "are": 6434,
  "\u2581Britano": 6435,
  "\u2581author": 6436,
  "\u2581corruption": 6437,
  "\u2581dignity": 6438,
  "\u2581hininga": 6439,
  "\u2581makitang": 6440,
  "\u2581repeatedly": 6441,
  "\u2581tuyo": 6442,
  "uri": 6443,
  "\u2581Mosaiko": 6444,
  "\u2581alert": 6445,
  "\u2581amazing": 6446,
  "\u2581ikapito": 6447,
  "\u2581inilabas": 6448,
  "\u2581kalaunan": 6449,
  "\u2581magdala": 6450,
  "\u2581reasoning": 6451,
  "\u2581ships": 6452,
  "\u2581sinugo": 6453,
  "\u2581uudyok": 6454,
  "\u2581Ge": 6455,
  "\u2581Little": 6456,
  "\u2581jobs": 6457,
  "\u2581magkasala": 6458,
  "\u2581ministeryal": 6459,
  "\u2581represented": 6460,
  "\u2581shed": 6461,
  "\u2581sumang": 6462,
  "Be": 6463,
  "\u2581maiinam": 6464,
  "\u2581Jonah": 6465,
  "\u2581Kong": 6466,
  "\u2581bintana": 6467,
  "\u2581isolated": 6468,
  "\u2581magturo": 6469,
  "\u2581tumatahan": 6470,
  "\u2581Micah": 6471,
  "\u2581begotten": 6472,
  "\u2581concerns": 6473,
  "\u2581hell": 6474,
  "\u2581temperature": 6475,
  "Ano": 6476,
  "\u2581Caesar": 6477,
  "\u2581Natutuhan": 6478,
  "\u2581atake": 6479,
  "\u2581happening": 6480,
  "\u2581pagkaalipin": 6481,
  "\u2581suplay": 6482,
  "umahanap": 6483,
  "\u2581isasa": 6484,
  "\u2581mid": 6485,
  "\u2581Jean": 6486,
  "\u2581Soberano": 6487,
  "\u2581makakita": 6488,
  "\u2581paglilibang": 6489,
  "\u2581post": 6490,
  "\u2581pulang": 6491,
  "RA": 6492,
  "\u258130,": 6493,
  "\u2581Shortly": 6494,
  "\u2581alituntunin": 6495,
  "\u2581associate": 6496,
  "\u2581central": 6497,
  "\u2581comforting": 6498,
  "\u2581matutupad": 6499,
  "To": 6500,
  "cy": 6501,
  "\u2581Malaking": 6502,
  "\u2581detalyado": 6503,
  "\u2581inilalaan": 6504,
  "\u2581losing": 6505,
  "\u2581noise": 6506,
  "\u2581pagtalakay": 6507,
  "\u2581pastor": 6508,
  "\u2581purihin": 6509,
  "let": 6510,
  "\u2581capable": 6511,
  "\u2581commission": 6512,
  "\u2581guilt": 6513,
  "\u2581kaisa": 6514,
  "\u2581outcome": 6515,
  "\u2581pick": 6516,
  "\u2581shame": 6517,
  "jo": 6518,
  "\u2581acting": 6519,
  "\u2581comment": 6520,
  "\u2581isagawa": 6521,
  "\u2581kinakain": 6522,
  "\u2581permanenteng": 6523,
  "\u2581Sch": 6524,
  "\u2581burn": 6525,
  "\u2581kabagabagan": 6526,
  "\u2581tumawag": 6527,
  "\u2581viewpoint": 6528,
  "lit": 6529,
  "\u2581Long": 6530,
  "\u2581Next": 6531,
  "\u2581Which": 6532,
  "\u2581code": 6533,
  "\u2581emergency": 6534,
  "\u2581fleshly": 6535,
  "\u2581makikilala": 6536,
  "\u2581malasin": 6537,
  "\u2581pangmadlang": 6538,
  "\u2581sirkito": 6539,
  "\u2581torture": 6540,
  "nu": 6541,
  "\u2581buried": 6542,
  "\u2581covering": 6543,
  "\u2581judges": 6544,
  "\u2581kagipitan": 6545,
  "\u2581makasanlibutang": 6546,
  "\u2581nilalaman": 6547,
  "\u2581producing": 6548,
  "\u2581strange": 6549,
  "\u2581survived": 6550,
  "cl": 6551,
  "ris": 6552,
  "\u2581Sovereign": 6553,
  "\u2581abot": 6554,
  "\u2581dollars": 6555,
  "\u2581fought": 6556,
  "\u2581holds": 6557,
  "\u2581paglingkuran": 6558,
  "\u2581previously": 6559,
  "\u2581professional": 6560,
  "\u2581union": 6561,
  "\u2581welfare": 6562,
  "\u2581Following": 6563,
  "\u2581Pangako": 6564,
  "\u2581acted": 6565,
  "\u2581devoted": 6566,
  "\u2581distant": 6567,
  "\u2581milya": 6568,
  "\u2581motivated": 6569,
  "\u2581nagdurusa": 6570,
  "\u2581papatayin": 6571,
  "\u2581puntong": 6572,
  "\u2581reperensiya": 6573,
  "\u2581sisidlan": 6574,
  "\u2581toro": 6575,
  "ize": 6576,
  "nang": 6577,
  "\u2581Beth": 6578,
  "\u2581Tokyo": 6579,
  "\u2581kapintasan": 6580,
  "\u2581magaganap": 6581,
  "\u2581wings": 6582,
  "\u2581bigay": 6583,
  "\u2581childhood": 6584,
  "\u2581pagbabalik": 6585,
  "\u2581parke": 6586,
  "\u2581pasanin": 6587,
  "\u2581seat": 6588,
  "\u2581teeth": 6589,
  "\u2581direktor": 6590,
  "\u2581discernment": 6591,
  "\u2581equipment": 6592,
  "\u2581galang": 6593,
  "\u2581katuwaan": 6594,
  "\u2581pagdadalamhati": 6595,
  "\u2581thereafter": 6596,
  "Young": 6597,
  "\u2581Bahagi": 6598,
  "\u2581Inihula": 6599,
  "\u2581Use": 6600,
  "\u2581aba": 6601,
  "\u2581al": 6602,
  "\u2581fears": 6603,
  "\u2581hinihimok": 6604,
  "\u2581pagkawasak": 6605,
  "\u2581pagkilala": 6606,
  "\u2581pagtatanghal": 6607,
  "\u2581ruling": 6608,
  "20": 6609,
  "ED": 6610,
  "\u258131,": 6611,
  "\u2581approved": 6612,
  "\u2581bulkan": 6613,
  "\u2581civil": 6614,
  "\u2581finds": 6615,
  "\u2581naglaan": 6616,
  "\u2581paanyaya": 6617,
  "\u2581stage": 6618,
  "\u2581tinitiyak": 6619,
  "act": 6620,
  "\u258124;": 6621,
  "\u2581Babilonyang": 6622,
  "\u2581Jehu": 6623,
  "\u2581feeding": 6624,
  "\u2581horses": 6625,
  "\u2581kamangmangan": 6626,
  "\u2581makarating": 6627,
  "\u2581pinabayaan": 6628,
  "\u2581vain": 6629,
  "pro": 6630,
  "\u2581Gumawa": 6631,
  "\u2581Key": 6632,
  "\u2581climate": 6633,
  "\u2581dangal": 6634,
  "\u2581isinisiwalat": 6635,
  "tayo": 6636,
  "\u2581Bagkus": 6637,
  "\u2581enjoying": 6638,
  "\u2581existed": 6639,
  "\u2581height": 6640,
  "\u2581laganap": 6641,
  "\u2581mahahaba": 6642,
  "\u2581marka": 6643,
  "\u2581nariyan": 6644,
  "\u2581narrow": 6645,
  "\u2581pagbaba": 6646,
  "\u2581reap": 6647,
  "\u2581records": 6648,
  "itinuring": 6649,
  "kikipagpunyagi": 6650,
  "\u2581Age": 6651,
  "\u2581Halls": 6652,
  "\u2581Makalipa": 6653,
  "\u2581adopted": 6654,
  "\u2581agreement": 6655,
  "\u2581belongs": 6656,
  "\u2581cure": 6657,
  "\u2581en": 6658,
  "\u2581explanation": 6659,
  "\u2581leader": 6660,
  "\u2581measures": 6661,
  "\u2581natanto": 6662,
  "\u2581sulit": 6663,
  "60": 6664,
  "\u258140:": 6665,
  "\u2581Bar": 6666,
  "\u2581URI": 6667,
  "\u2581abuloy": 6668,
  "\u2581bisyo": 6669,
  "\u2581cattle": 6670,
  "\u2581chapters": 6671,
  "\u2581kalangitan": 6672,
  "\u2581pagkakakilanlan": 6673,
  "\u2581prutas": 6674,
  "\u2581totally": 6675,
  "his": 6676,
  "that": 6677,
  "will": 6678,
  "\u258153": 6679,
  "\u2581Jo": 6680,
  "\u2581desert": 6681,
  "\u2581discern": 6682,
  "\u2581larawang": 6683,
  "\u2581nagtagumpay": 6684,
  "\u2581onto": 6685,
  "\u2581supplies": 6686,
  "\u258122;": 6687,
  "\u2581Bethlehem": 6688,
  "\u2581Ehipsiyo": 6689,
  "\u2581Him": 6690,
  "\u2581PAG": 6691,
  "\u2581description": 6692,
  "\u2581nakikinabang": 6693,
  "\u2581pagbagsak": 6694,
  "\u2581pinatutunayan": 6695,
  "\u2581sungay": 6696,
  "\u2581te": 6697,
  "gu": 6698,
  "ram": 6699,
  "\u2581Museum": 6700,
  "\u2581feast": 6701,
  "\u2581kayarian": 6702,
  "\u2581magdulo": 6703,
  "\u2581nakuha": 6704,
  "\u2581pasahero": 6705,
  "\u2581Pacific": 6706,
  "\u2581arrangements": 6707,
  "\u2581employment": 6708,
  "\u2581hinimok": 6709,
  "\u2581makasama": 6710,
  "\u2581pinaniniwalaan": 6711,
  "\u2581tumingin": 6712,
  "\u2581tuwang": 6713,
  "cal": 6714,
  "\u258144.": 6715,
  "\u2581Buweno": 6716,
  "\u2581Iniulat": 6717,
  "\u2581bright": 6718,
  "\u2581lifted": 6719,
  "\u2581pakinggan": 6720,
  "\u2581pansinin": 6721,
  "\u2581pregnant": 6722,
  "\u2581seeds": 6723,
  "\u2581tubo": 6724,
  "\u25812002": 6725,
  "\u2581glass": 6726,
  "\u2581headquarters": 6727,
  "\u2581kalaban": 6728,
  "\u2581kg": 6729,
  "\u2581paglilinis": 6730,
  "\u2581terminong": 6731,
  "Ayaw": 6732,
  "Why": 6733,
  "tapat": 6734,
  "una": 6735,
  "\u2581Concern": 6736,
  "\u2581Joab": 6737,
  "\u2581Recall": 6738,
  "\u2581accepting": 6739,
  "\u2581dantaon": 6740,
  "\u2581ignore": 6741,
  "\u2581kaginhawahan": 6742,
  "\u2581mildness": 6743,
  "\u2581shape": 6744,
  "\u2581talked": 6745,
  "\u2581thrown": 6746,
  "Nang": 6747,
  "\u2581Sheol": 6748,
  "\u2581branches": 6749,
  "\u2581buk\u00e1s": 6750,
  "\u2581gum": 6751,
  "\u2581kalupitan": 6752,
  "\u2581materials": 6753,
  "\u2581ordered": 6754,
  "\u2581product": 6755,
  "\u2581tropical": 6756,
  "()": 6757,
  "\u2581Anna": 6758,
  "\u2581Hope": 6759,
  "\u2581bitter": 6760,
  "\u2581komunikasyon": 6761,
  "\u2581mourning": 6762,
  "\u2581moves": 6763,
  "fi": 6764,
  "\u2581Empire": 6765,
  "\u2581dayuhan": 6766,
  "\u2581mawalan": 6767,
  "\u2581sufficient": 6768,
  "\u2581`%": 6769,
  "\u2581finish": 6770,
  "\u2581sasakyang": 6771,
  "\u2581spouse": 6772,
  "rap": 6773,
  "\u2581Ina": 6774,
  "\u2581Y": 6775,
  "\u2581dios": 6776,
  "\u2581expensive": 6777,
  "\u2581paghihimagsik": 6778,
  "\u2581parable": 6779,
  "\u2581shortly": 6780,
  "\u2581Inilalarawan": 6781,
  "\u2581Islands": 6782,
  "\u2581du": 6783,
  "\u2581mapagmahal": 6784,
  "\u2581matamo": 6785,
  "\u2581preserve": 6786,
  "\u2581ritwal": 6787,
  "\u2581spirituality": 6788,
  "\u2581stands": 6789,
  "nisikap": 6790,
  "talastasan": 6791,
  "\u2581Far": 6792,
  "\u2581Scripture": 6793,
  "\u2581application": 6794,
  "\u2581kalawakan": 6795,
  "\u2581makasumpong": 6796,
  "\u2581native": 6797,
  "\u2581palagi": 6798,
  "\u2581reduced": 6799,
  "\u2581throw": 6800,
  "\u2581wisely": 6801,
  "\u2581Happy": 6802,
  "\u2581disyerto": 6803,
  "\u2581hawak": 6804,
  "\u2581pope": 6805,
  "\u2581subukin": 6806,
  "\u2581transfusions": 6807,
  "Kayo": 6808,
  "\u2581Agad": 6809,
  "\u2581Eastern": 6810,
  "\u2581Lubha": 6811,
  "\u2581Sanlibutan": 6812,
  "\u2581dalawin": 6813,
  "\u2581fifth": 6814,
  "\u2581wiling": 6815,
  "ill": 6816,
  "ligtas": 6817,
  "\u2581kape": 6818,
  "\u2581pagpasok": 6819,
  "\u2581protected": 6820,
  "\u2581rely": 6821,
  "5,000": 6822,
  "Go": 6823,
  "ano": 6824,
  "\u2581Galilee": 6825,
  "\u2581Portugal": 6826,
  "\u2581aasikaso": 6827,
  "\u2581difficulty": 6828,
  "\u2581tinanggihan": 6829,
  "\u2581Lake": 6830,
  "\u2581Much": 6831,
  "\u2581patakaran": 6832,
  "\u2581primarily": 6833,
  "\u2581sinanay": 6834,
  "\u2581alamat": 6835,
  "\u2581eruplano": 6836,
  "\u2581makagagawa": 6837,
  "\u2581mile": 6838,
  "\u2581plain": 6839,
  "\u2581whereas": 6840,
  "Keep": 6841,
  "kot": 6842,
  "\u2581ayos": 6843,
  "\u2581dibdib": 6844,
  "\u2581foods": 6845,
  "\u2581inihanda": 6846,
  "\u2581pabor": 6847,
  "\u2581remembered": 6848,
  "\u2581Babilonia": 6849,
  "\u2581Bueno": 6850,
  "\u2581Manila": 6851,
  "\u2581Nangangahulugan": 6852,
  "\u2581kahinahunan": 6853,
  "\u2581mabangis": 6854,
  "\u2581potensiyal": 6855,
  "\u2581remote": 6856,
  "\u2581sending": 6857,
  "tis": 6858,
  "\u258134,": 6859,
  "\u2581Ruso": 6860,
  "\u2581Tito": 6861,
  "\u2581ban": 6862,
  "\u2581party": 6863,
  "\u2581reply": 6864,
  "\u2581sell": 6865,
  "\u2581sets": 6866,
  "virtually": 6867,
  "\u2581Home": 6868,
  "\u2581Per": 6869,
  "\u2581alis": 6870,
  "\u2581bi": 6871,
  "\u2581deliverance": 6872,
  "\u2581ibayo": 6873,
  "\u2581maligalig": 6874,
  "\u2581nagtungo": 6875,
  "\u2581nakakakita": 6876,
  "\u2581packages": 6877,
  "ator": 6878,
  "pha": 6879,
  "\u2581Levi": 6880,
  "\u2581breast": 6881,
  "\u2581gene": 6882,
  "\u2581makasalanang": 6883,
  "ini": 6884,
  "\u2581SI": 6885,
  "\u2581abilities": 6886,
  "\u2581emotionally": 6887,
  "\u2581kabundukan": 6888,
  "\u2581nagpapatotoo": 6889,
  "\u2581negosyante": 6890,
  "\u2581pagnanakaw": 6891,
  "\u2581600": 6892,
  "\u2581Ke": 6893,
  "\u2581commonly": 6894,
  "\u2581contributed": 6895,
  "\u2581displayed": 6896,
  "\u2581hungry": 6897,
  "\u2581isinugo": 6898,
  "\u2581minute": 6899,
  "car": 6900,
  "\u2581campaign": 6901,
  "\u2581ginanap": 6902,
  "\u2581magaling": 6903,
  "\u2581malawakang": 6904,
  "\u2581network": 6905,
  "\u2581pioneering": 6906,
  "\u2581presyon": 6907,
  "\u2581sexually": 6908,
  "\u2581surrounded": 6909,
  "\u2581Ann": 6910,
  "\u2581Daan": 6911,
  "\u2581lumang": 6912,
  "\u2581maghapon": 6913,
  "\u2581naninigarilyo": 6914,
  "\u2581Know": 6915,
  "\u2581bought": 6916,
  "\u2581gumugugol": 6917,
  "\u2581ibahagi": 6918,
  "\u2581End": 6919,
  "\u2581Sasagutin": 6920,
  "\u2581creating": 6921,
  "\u2581dinisenyo": 6922,
  "\u2581exercising": 6923,
  "\u2581nagsosolo": 6924,
  "\u2581scholar": 6925,
  "\u2581silo": 6926,
  "Pag": 6927,
  "ius": 6928,
  "ji": 6929,
  "\u2581Passover": 6930,
  "\u2581degrees": 6931,
  "\u2581hunger": 6932,
  "\u2581ipinangakong": 6933,
  "\u2581kalye": 6934,
  "\u2581leeg": 6935,
  "\u2581malayong": 6936,
  "\u2581nagbunga": 6937,
  "\u2581pit": 6938,
  "\u2581Gentiles": 6939,
  "\u2581ginagampanan": 6940,
  "\u2581lakip": 6941,
  "\u2581magbasa": 6942,
  "\u2581reliable": 6943,
  "\u2581Egyptian": 6944,
  "\u2581endured": 6945,
  "\u2581hanay": 6946,
  "\u2581matigas": 6947,
  "\u2581pagpapayunir": 6948,
  "\u2581panata": 6949,
  "\u2581partner": 6950,
  "\u2581possibility": 6951,
  "\u2581referring": 6952,
  "\u2581tumaas": 6953,
  "iya": 6954,
  "\u2581Bagay": 6955,
  "\u2581bubong": 6956,
  "\u2581paghahangad": 6957,
  "\u2581pagkamatapat": 6958,
  "\u2581rare": 6959,
  "\u2581upuan": 6960,
  "\u2581waves": 6961,
  "tuturing": 6962,
  "\u2581himpapawid": 6963,
  "\u2581igalang": 6964,
  "\u2581nagpapahayag": 6965,
  "\u2581pandaraya": 6966,
  "\u2581separated": 6967,
  "\u2581um": 6968,
  "ee": 6969,
  "kan": 6970,
  "\u2581Salomon": 6971,
  "\u2581Titus": 6972,
  "\u2581capacity": 6973,
  "\u2581gulay": 6974,
  "\u2581hide": 6975,
  "\u2581impeksiyon": 6976,
  "\u2581kapana": 6977,
  "\u2581lima": 6978,
  "\u2581makasaysayan": 6979,
  "\u2581nakaaapekto": 6980,
  "\u2581necessarily": 6981,
  "\u2581suportado": 6982,
  "\u2581target": 6983,
  "\u2581usapin": 6984,
  "Isang": 6985,
  "MA": 6986,
  "gal": 6987,
  "\u2581Back": 6988,
  "\u2581begun": 6989,
  "\u2581daungan": 6990,
  "\u2581goats": 6991,
  "\u2581magsasabi": 6992,
  "\u2581review": 6993,
  "\u2581teenagers": 6994,
  "ob": 6995,
  "yan": 6996,
  "\u258129:": 6997,
  "\u2581Malaki": 6998,
  "\u2581eggs": 6999,
  "\u2581firstborn": 7000,
  "\u2581magdao": 7001,
  "\u2581makatitiyak": 7002,
  "\u2581obligasyon": 7003,
  "\u2581pagpapalain": 7004,
  "\u2581pinipili": 7005,
  "\u2581resort": 7006,
  "\u2581salamat": 7007,
  "\u2581tabing": 7008,
  "Z": 7009,
  "daraos": 7010,
  "\u25814;": 7011,
  "\u2581Ikalawa": 7012,
  "\u2581Water": 7013,
  "\u2581fundamental": 7014,
  "\u2581infant": 7015,
  "\u2581kumbinsido": 7016,
  "\u2581messages": 7017,
  "\u2581mura": 7018,
  "\u2581nakatataas": 7019,
  "\u2581parapo": 7020,
  "\u2581raising": 7021,
  "\u2581sides": 7022,
  "\u2581villages": 7023,
  "ik": 7024,
  "\u2581Black": 7025,
  "\u2581Heights": 7026,
  "\u2581Marriage": 7027,
  "\u2581Rahab": 7028,
  "\u2581debt": 7029,
  "\u2581depend": 7030,
  "\u2581kapamilya": 7031,
  "\u2581kuwarto": 7032,
  "\u2581malaon": 7033,
  "\u2581nasira": 7034,
  "\u2581objects": 7035,
  "\u2581subjection": 7036,
  "\u2581texts": 7037,
  "pon": 7038,
  "\u00e3o": 7039,
  "\u2581Z": 7040,
  "\u2581ga": 7041,
  "\u2581gratitude": 7042,
  "\u2581inclined": 7043,
  "\u2581karalitaan": 7044,
  "\u2581ocean": 7045,
  "\u2581remind": 7046,
  "kas": 7047,
  "\u25811918": 7048,
  "\u2581Inc": 7049,
  "\u2581Jeroboam": 7050,
  "\u2581Romanong": 7051,
  "\u2581arm": 7052,
  "\u2581catch": 7053,
  "\u2581differ": 7054,
  "\u2581encourages": 7055,
  "\u2581flying": 7056,
  "\u2581foolish": 7057,
  "\u2581krisis": 7058,
  "\u2581slowly": 7059,
  "\u2581theocratic": 7060,
  "\u2581universal": 7061,
  "\u2581wave": 7062,
  "\u2581wholesome": 7063,
  "/": 7064,
  "\u258156": 7065,
  "\u2581Imperyo": 7066,
  "\u2581Ku": 7067,
  "\u2581Mikas": 7068,
  "\u2581Mu": 7069,
  "\u2581kawakasan": 7070,
  "\u2581meaningful": 7071,
  "\u2581opisina": 7072,
  "\u2581pagkalaki": 7073,
  "\u2581politics": 7074,
  "\u2581puma": 7075,
  "\u2581searching": 7076,
  "\u2581strike": 7077,
  "\u2581Kamakailan": 7078,
  "\u2581Napansin": 7079,
  "\u2581eliminate": 7080,
  "\u2581loud": 7081,
  "\u2581lumilipad": 7082,
  "\u2581magkaiba": 7083,
  "\u2581persecuted": 7084,
  "\u2581sagutin": 7085,
  "\u2581turista": 7086,
  "\u2581willingly": 7087,
  "\u2581GOD": 7088,
  "\u2581adjust": 7089,
  "\u2581ashamed": 7090,
  "\u2581idols": 7091,
  "\u2581panauhin": 7092,
  "\u2581roof": 7093,
  "\u2581siko": 7094,
  "gsisinungaling": 7095,
  "\u2581Cesar": 7096,
  "\u2581Pan": 7097,
  "\u2581kilusan": 7098,
  "\u2581nilayon": 7099,
  "\u2581repentance": 7100,
  "\u2581returning": 7101,
  "\u2581talks": 7102,
  "\u2581tutulungan": 7103,
  "\u2581worry": 7104,
  "IS": 7105,
  "glagay": 7106,
  "\u2581Atin": 7107,
  "\u2581Estudyante": 7108,
  "\u2581View": 7109,
  "\u2581owner": 7110,
  "\u2581pagtatalik": 7111,
  "\u2581residents": 7112,
  "\u2581Binago": 7113,
  "\u2581Food": 7114,
  "\u2581Inaasahan": 7115,
  "\u2581Ri": 7116,
  "\u2581brotherhood": 7117,
  "\u2581courageous": 7118,
  "\u2581gayunma": 7119,
  "\u2581ililigtas": 7120,
  "\u2581matupad": 7121,
  "\u2581sounds": 7122,
  "har": 7123,
  "if": 7124,
  "\u258154": 7125,
  "\u2581Elizabeth": 7126,
  "\u2581autoridad": 7127,
  "\u2581driver": 7128,
  "\u2581invite": 7129,
  "\u2581kagalingan": 7130,
  "\u2581mapagpipilian": 7131,
  "\u2581organisado": 7132,
  "\u2581pagsasagawa": 7133,
  "\u2581solve": 7134,
  "\u2581Name": 7135,
  "\u2581commands": 7136,
  "\u2581nagbabasa": 7137,
  "uc": 7138,
  "\u2581Mahirap": 7139,
  "\u2581Right": 7140,
  "\u2581Tangi": 7141,
  "\u2581Tulong": 7142,
  "\u2581ethnic": 7143,
  "\u2581klima": 7144,
  "\u2581magkaka": 7145,
  "\u2581soft": 7146,
  "\u2581window": 7147,
  "araw": 7148,
  "lic": 7149,
  "\u2581Ana": 7150,
  "\u2581fuel": 7151,
  "\u2581instructed": 7152,
  "\u2581pagtanda": 7153,
  "\u2581sustain": 7154,
  "impluwensiyahan": 7155,
  "\u2581Pentecostes": 7156,
  "\u2581Thou": 7157,
  "\u2581believing": 7158,
  "\u2581kalidad": 7159,
  "\u2581nakapagtataka": 7160,
  "\u2581rapidly": 7161,
  "\u2581taluktok": 7162,
  "\u2581traditions": 7163,
  "lay": 7164,
  "\u2581Easter": 7165,
  "\u2581MULA": 7166,
  "\u2581ages": 7167,
  "\u2581equipped": 7168,
  "\u2581insects": 7169,
  "\u2581ku": 7170,
  "\u2581meditate": 7171,
  "\u2581opera": 7172,
  "\u2581pagkabalisa": 7173,
  "\u2581seremonya": 7174,
  "ites": 7175,
  "ium": 7176,
  "\u2581Pentecost": 7177,
  "\u2581matuklasan": 7178,
  "\u2581merciful": 7179,
  "\u2581presidente": 7180,
  "\u2581sub": 7181,
  "\u2581sumasa": 7182,
  "\u2581tuluyan": 7183,
  "\u2581unknown": 7184,
  "\u2581Nehemiah": 7185,
  "\u2581flow": 7186,
  "\u2581ideal": 7187,
  "\u2581pagsilang": 7188,
  "\u2581preparing": 7189,
  "\u2581repeated": 7190,
  "\u2581seryosong": 7191,
  "HA": 7192,
  "\u2581Zechariah": 7193,
  "\u2581acknowledge": 7194,
  "\u2581brethren": 7195,
  "\u2581gambling": 7196,
  "\u2581maawain": 7197,
  "\u2581maghintay": 7198,
  "\u2581natutuwa": 7199,
  "\u2581pagtulog": 7200,
  "\u2581pangalagaan": 7201,
  "\u2581section": 7202,
  "\u2581tatahan": 7203,
  "\u2581tinuturuan": 7204,
  "convert": 7205,
  "lar": 7206,
  "\u2581Sion": 7207,
  "\u2581Sir": 7208,
  "\u2581awake": 7209,
  "\u2581bingi": 7210,
  "\u2581kabanalan": 7211,
  "tz": 7212,
  "umi": 7213,
  "\u2581Hospital": 7214,
  "\u2581apo": 7215,
  "\u2581atmospera": 7216,
  "\u2581colors": 7217,
  "\u2581educational": 7218,
  "\u2581emperador": 7219,
  "\u2581immune": 7220,
  "\u2581lolo": 7221,
  "\u2581oxygen": 7222,
  "\u2581spake": 7223,
  "\u2581Messianic": 7224,
  "\u2581conflicts": 7225,
  "\u2581friendly": 7226,
  "\u2581halamanan": 7227,
  "\u2581kumpleto": 7228,
  "\u2581magtanong": 7229,
  "\u2581nauukol": 7230,
  "\u2581tinalakay": 7231,
  "ito": 7232,
  "\u2581eskriba": 7233,
  "\u2581facilities": 7234,
  "\u2581fed": 7235,
  "\u2581itinataguyod": 7236,
  "\u2581load": 7237,
  "\u2581maintindihan": 7238,
  "pre": 7239,
  "\u2581Maganda": 7240,
  "\u2581Nehemias": 7241,
  "\u2581descendants": 7242,
  "\u2581fishing": 7243,
  "\u2581injury": 7244,
  "\u2581paglikha": 7245,
  "\u2581west": 7246,
  "ado": 7247,
  "harap": 7248,
  "\u25811982": 7249,
  "\u2581Berlin": 7250,
  "\u2581Elisha": 7251,
  "\u2581afflicted": 7252,
  "\u2581inamin": 7253,
  "\u2581teenage": 7254,
  "don": 7255,
  "\u2581Corinth": 7256,
  "\u2581Eliseo": 7257,
  "\u2581Lamb": 7258,
  "\u2581accompanied": 7259,
  "\u2581accord": 7260,
  "\u2581assignments": 7261,
  "\u2581context": 7262,
  "\u2581faithfulness": 7263,
  "\u2581intended": 7264,
  "\u2581nagbalik": 7265,
  "\u2581nagtatanong": 7266,
  "\u2581prejudice": 7267,
  "\u2581surrounding": 7268,
  "ghahangad": 7269,
  "\u2581Knorr": 7270,
  "\u2581acknowledged": 7271,
  "\u2581dioxide": 7272,
  "\u2581fair": 7273,
  "\u2581golden": 7274,
  "\u2581kama": 7275,
  "\u2581map": 7276,
  "\u2581pampamilya": 7277,
  "\u2581shell": 7278,
  "\u25811943": 7279,
  "\u2581Ammon": 7280,
  "\u2581Invalid": 7281,
  "\u2581Master": 7282,
  "\u2581Millions": 7283,
  "\u2581Pilato": 7284,
  "\u2581Tu": 7285,
  "\u2581hayagan": 7286,
  "\u2581kagustuhan": 7287,
  "\u2581kalaki": 7288,
  "\u2581supposed": 7289,
  "\u2581teokratiko": 7290,
  "\u2581worst": 7291,
  "\u2581Truly": 7292,
  "\u2581higaan": 7293,
  "\u2581hilingin": 7294,
  "\u2581installed": 7295,
  "\u2581kin": 7296,
  "\u2581latter": 7297,
  "\u2581magdadala": 7298,
  "\u2581pangakong": 7299,
  "\u2581philosophy": 7300,
  "\u2581pinasimulan": 7301,
  "\u2581wash": 7302,
  "fa": 7303,
  "lip": 7304,
  "\u2581Magulang": 7305,
  "\u2581achieve": 7306,
  "\u2581ikabubuti": 7307,
  "\u2581makadama": 7308,
  "\u2581pagtataguyod": 7309,
  "\u2581prey": 7310,
  "\u2581serye": 7311,
  "\u2581taggutom": 7312,
  "\u2581umiinom": 7313,
  "uma": 7314,
  "with": 7315,
  "\u2581Aprikano": 7316,
  "\u2581initiative": 7317,
  "\u2581kahawig": 7318,
  "\u2581labing": 7319,
  "\u2581madaig": 7320,
  "\u2581opposed": 7321,
  "\u2581smaller": 7322,
  "\u2581structure": 7323,
  "ari": 7324,
  "\u2581Promised": 7325,
  "\u2581armed": 7326,
  "\u2581focused": 7327,
  "\u2581kakain": 7328,
  "\u2581modest": 7329,
  "\u2581nagpapaliwanag": 7330,
  "\u2581printing": 7331,
  "\u2581siyudad": 7332,
  "\u2581tagaroon": 7333,
  "\u2581tela": 7334,
  "Patuloy": 7335,
  "buhay": 7336,
  "time": 7337,
  "\u2581legs": 7338,
  "\u2581mistake": 7339,
  "\u2581patutot": 7340,
  "\u2581reads": 7341,
  "\u2581satisfy": 7342,
  "\u2581treasures": 7343,
  "\u2581typical": 7344,
  "jw": 7345,
  "\u2581Central": 7346,
  "\u2581bihasa": 7347,
  "\u2581bottom": 7348,
  "\u2581cared": 7349,
  "\u2581increasingly": 7350,
  "\u2581nagbababala": 7351,
  "\u2581nalulugod": 7352,
  "\u2581pinahihirapan": 7353,
  "\u2581produces": 7354,
  "\u2581stronger": 7355,
  "ulo": 7356,
  "\u2581Pagdating": 7357,
  "\u2581Ya": 7358,
  "\u2581assurance": 7359,
  "\u2581board": 7360,
  "\u2581dies": 7361,
  "\u2581executed": 7362,
  "\u2581minamalas": 7363,
  "\u2581nakukuha": 7364,
  "awa": 7365,
  "\u2581Dead": 7366,
  "\u2581FOR": 7367,
  "\u2581Finland": 7368,
  "\u2581Last": 7369,
  "\u2581masakit": 7370,
  "\u2581pagkakaunawaan": 7371,
  "\u2581pamilihan": 7372,
  "\u2581sarisari": 7373,
  "\u2581storm": 7374,
  "\u2581tear": 7375,
  "min": 7376,
  "par": 7377,
  "\u25811989,": 7378,
  "\u2581Makatutulong": 7379,
  "\u2581Page": 7380,
  "\u2581dalampasigan": 7381,
  "\u2581fault": 7382,
  "\u2581kamalian": 7383,
  "\u2581kuta": 7384,
  "\u2581likido": 7385,
  "\u2581pagkabata": 7386,
  "\u2581Ten": 7387,
  "\u2581damdaming": 7388,
  "\u2581execution": 7389,
  "\u2581kawikaan": 7390,
  "\u2581neck": 7391,
  "\u2581title": 7392,
  "\u258135:": 7393,
  "\u2581exchange": 7394,
  "\u2581favorite": 7395,
  "\u2581garments": 7396,
  "\u2581immediate": 7397,
  "\u2581magtatagumpay": 7398,
  "\u2581maintaining": 7399,
  "\u2581maluwalhating": 7400,
  "\u2581wasn": 7401,
  "UN": 7402,
  "ship": 7403,
  "\u2581associates": 7404,
  "\u2581ipinaliliwanag": 7405,
  "\u2581itinalaga": 7406,
  "\u2581maingatan": 7407,
  "\u2581reproach": 7408,
  "\u2581shut": 7409,
  "\u2581sinunod": 7410,
  "\u2581transfusion": 7411,
  "\u2581womb": 7412,
  "\u2581AS": 7413,
  "\u2581Pre": 7414,
  "\u2581Zacarias": 7415,
  "\u2581alas": 7416,
  "\u2581function": 7417,
  "\u2581harina": 7418,
  "\u2581panlipunan": 7419,
  "\u2581perish": 7420,
  "\u2581tired": 7421,
  "\u2581warfare": 7422,
  "\u2581Gi": 7423,
  "\u2581Lazarus": 7424,
  "\u2581Pilate": 7425,
  "\u2581Source": 7426,
  "\u2581cruel": 7427,
  "\u2581disasters": 7428,
  "\u2581extend": 7429,
  "\u2581gustu": 7430,
  "\u2581kabalakyutan": 7431,
  "\u2581nananampalataya": 7432,
  "\u2581pabalik": 7433,
  "\u2581pinakamainam": 7434,
  "\u2581pleasing": 7435,
  "\u2581tested": 7436,
  "ier": 7437,
  "\u2581Ukraine": 7438,
  "\u2581balitang": 7439,
  "\u2581delighted": 7440,
  "\u2581giant": 7441,
  "\u2581informed": 7442,
  "\u2581isinaling": 7443,
  "\u2581pornograpya": 7444,
  "\u2581rightly": 7445,
  "\u2581select": 7446,
  "\u2581spot": 7447,
  "\u2581sugar": 7448,
  "\u2581trusted": 7449,
  "AT": 7450,
  "lapit": 7451,
  "\u2581MA": 7452,
  "\u2581Making": 7453,
  "\u2581Scientists": 7454,
  "\u2581bulayin": 7455,
  "\u2581kapani": 7456,
  "\u2581makasusumpong": 7457,
  "\u2581park": 7458,
  "\u2581positibo": 7459,
  "\u2581susundin": 7460,
  "\u2581tip": 7461,
  "\u2581Andrew": 7462,
  "\u2581KA": 7463,
  "\u2581bautisado": 7464,
  "\u2581calamity": 7465,
  "\u2581engaged": 7466,
  "\u2581harsh": 7467,
  "\u2581inakala": 7468,
  "\u2581piliin": 7469,
  "\u2581plenty": 7470,
  "\u2581tagapayo": 7471,
  "\u2581upset": 7472,
  "alam": 7473,
  "asyon": 7474,
  "\u2581Doing": 7475,
  "\u2581Explain": 7476,
  "\u2581bar": 7477,
  "\u2581filling": 7478,
  "\u2581ginugugol": 7479,
  "\u2581closed": 7480,
  "\u2581deadly": 7481,
  "\u2581farmers": 7482,
  "\u2581illustrations": 7483,
  "\u2581mapang": 7484,
  "\u2581teologo": 7485,
  "Narito": 7486,
  "lag": 7487,
  "tak": 7488,
  "\u2581Tuw": 7489,
  "\u2581defense": 7490,
  "\u2581espesyal": 7491,
  "\u2581hoped": 7492,
  "\u2581intelligent": 7493,
  "\u2581linked": 7494,
  "\u2581schedule": 7495,
  "AS": 7496,
  "bili": 7497,
  "\u2581bumabangon": 7498,
  "\u2581cars": 7499,
  "\u2581elsewhere": 7500,
  "\u2581ilegal": 7501,
  "\u2581nagtatagal": 7502,
  "\u2581periods": 7503,
  "\u2581pinahintulutan": 7504,
  "\u2581serpent": 7505,
  "lahat": 7506,
  "\u2581Macedonia": 7507,
  "\u2581admit": 7508,
  "\u2581exact": 7509,
  "\u2581matiyaga": 7510,
  "\u2581umiwas": 7511,
  "daragdag": 7512,
  "ens": 7513,
  "\u2581Blood": 7514,
  "\u2581NI": 7515,
  "\u2581Samson": 7516,
  "\u2581drop": 7517,
  "\u2581kailanma": 7518,
  "\u2581obvious": 7519,
  "\u2581silent": 7520,
  "\u2581sorts": 7521,
  "\u2581thankful": 7522,
  "\u2581yaman": 7523,
  "\u2581AND": 7524,
  "\u2581coffee": 7525,
  "\u2581dingding": 7526,
  "\u2581ebanghelisador": 7527,
  "\u2581entirely": 7528,
  "\u2581kaban": 7529,
  "\u2581kordero": 7530,
  "\u2581rising": 7531,
  "30": 7532,
  "lakas": 7533,
  "\u2581Dati": 7534,
  "\u2581abroad": 7535,
  "\u2581nakarating": 7536,
  "\u2581sumisira": 7537,
  "\u2581translations": 7538,
  "\u2581unexpectedly": 7539,
  "ell": 7540,
  "glalagay": 7541,
  "\u2581Additionally": 7542,
  "\u2581Katolika": 7543,
  "\u2581Ps": 7544,
  "\u2581bow": 7545,
  "\u2581continually": 7546,
  "\u2581ipinahahayag": 7547,
  "\u2581kahabaan": 7548,
  "\u2581magtungo": 7549,
  "\u2581minor": 7550,
  "\u2581tangi": 7551,
  "gco": 7552,
  "nes": 7553,
  "\u2581Babylonian": 7554,
  "\u2581Minor": 7555,
  "\u2581NOON": 7556,
  "\u2581Sarili": 7557,
  "\u2581matindi": 7558,
  "\u2581pangangalunya": 7559,
  "\u2581sinagoga": 7560,
  "\u2581traits": 7561,
  "ble": 7562,
  "\u2581Canadian": 7563,
  "\u2581Mali": 7564,
  "\u2581Middle": 7565,
  "\u2581balon": 7566,
  "\u2581breath": 7567,
  "\u2581ensure": 7568,
  "\u2581impression": 7569,
  "\u2581iskedyul": 7570,
  "\u2581pinagsama": 7571,
  "new": 7572,
  "\u2581Granted": 7573,
  "\u2581Los": 7574,
  "\u2581eaten": 7575,
  "\u2581natulungan": 7576,
  "\u2581pakikipagbaka": 7577,
  "\u2581suot": 7578,
  "\u2581Near": 7579,
  "\u2581Pahina": 7580,
  "\u2581Stephen": 7581,
  "\u2581aalala": 7582,
  "\u2581bit": 7583,
  "\u2581discover": 7584,
  "\u2581drawing": 7585,
  "\u2581hated": 7586,
  "\u2581identity": 7587,
  "\u2581iniharap": 7588,
  "\u2581papunta": 7589,
  "\u2581trak": 7590,
  "bayan": 7591,
  "\u2581Natural": 7592,
  "\u2581bersiyon": 7593,
  "\u2581examination": 7594,
  "\u2581healed": 7595,
  "\u2581maygulang": 7596,
  "\u2581modelo": 7597,
  "\u2581nagkaka": 7598,
  "\u2581pagpapagaling": 7599,
  "\u2581pagsasabing": 7600,
  "\u2581papalapit": 7601,
  "\u2581reputasyon": 7602,
  "\u2581tumatanggi": 7603,
  "day": 7604,
  "ult": 7605,
  "\u2581Alamin": 7606,
  "\u2581Ay": 7607,
  "\u2581Egyptians": 7608,
  "\u2581Gitna": 7609,
  "\u2581Heb": 7610,
  "\u2581afford": 7611,
  "\u2581asam": 7612,
  "\u2581criminal": 7613,
  "\u2581kapurihan": 7614,
  "\u2581nakasalalay": 7615,
  "ise": 7616,
  "\u2581Malachi": 7617,
  "\u2581accidents": 7618,
  "\u2581illustrated": 7619,
  "\u2581inherited": 7620,
  "\u2581kapatagan": 7621,
  "\u2581krus": 7622,
  "\u2581towns": 7623,
  "\u2581Angkop": 7624,
  "\u2581abandon": 7625,
  "\u2581demands": 7626,
  "\u2581katatagan": 7627,
  "\u2581mabibigat": 7628,
  "\u2581miss": 7629,
  "\u2581noo": 7630,
  "\u2581realm": 7631,
  "\u2581route": 7632,
  "\u2581tempted": 7633,
  "cho": 7634,
  "\u2581Bi": 7635,
  "\u2581Try": 7636,
  "\u2581pagkakaibigan": 7637,
  "\u2581syndrome": 7638,
  "\u2581wrongdoing": 7639,
  "ANG": 7640,
  "\u2581Malakias": 7641,
  "\u2581aangkin": 7642,
  "\u2581bugtong": 7643,
  "\u2581flood": 7644,
  "\u2581miracle": 7645,
  "\u2581significance": 7646,
  "qua": 7647,
  "\u00fc": 7648,
  "\u2581inches": 7649,
  "\u2581pinayagan": 7650,
  "\u2581sinang": 7651,
  "pinahihintulutan": 7652,
  "ria": 7653,
  "\u2581maipa": 7654,
  "\u2581pagkatuto": 7655,
  "\u2581pampubliko": 7656,
  "\u2581proverb": 7657,
  "\u2581sensitive": 7658,
  "\u2581tuklas": 7659,
  "oc": 7660,
  "pang": 7661,
  "\u2581Chi": 7662,
  "\u2581donasyon": 7663,
  "\u2581kaawaan": 7664,
  "\u2581nagpasimula": 7665,
  "\u2581nanlulumo": 7666,
  "\u2581occurs": 7667,
  "\u2581rescue": 7668,
  "bel": 7669,
  "\u00e2": 7670,
  "\u2581Power": 7671,
  "\u2581Review": 7672,
  "\u2581assures": 7673,
  "\u2581costs": 7674,
  "\u2581fever": 7675,
  "\u2581kapatawaran": 7676,
  "idad": 7677,
  "\u25811975": 7678,
  "\u25815,000": 7679,
  "\u2581Ministeryo": 7680,
  "\u2581discouraged": 7681,
  "\u2581fascinating": 7682,
  "\u2581idolatriya": 7683,
  "\u2581ilalagay": 7684,
  "\u2581motivate": 7685,
  "\u2581paanuman": 7686,
  "\u2581papaanong": 7687,
  "\u2581replace": 7688,
  "\u2581shock": 7689,
  "\u2581shoulder": 7690,
  "dis": 7691,
  "tong": 7692,
  "\u2581Namatay": 7693,
  "\u2581bulaan": 7694,
  "\u2581miraculous": 7695,
  "\u2581repentant": 7696,
  "44,": 7697,
  "70": 7698,
  "Who": 7699,
  "\u2581Avoid": 7700,
  "\u2581cease": 7701,
  "\u2581scripture": 7702,
  "\u2581similarly": 7703,
  "\u2581slavery": 7704,
  "lia": 7705,
  "\u25814,000": 7706,
  "\u2581Viewpoint": 7707,
  "\u2581accused": 7708,
  "\u2581papasok": 7709,
  "\u2581pursuing": 7710,
  "\u2581ruled": 7711,
  "\u2581sanglibutan": 7712,
  "\u2581sentence": 7713,
  "\u2581tina": 7714,
  "\u2581wili": 7715,
  "king": 7716,
  "paper": 7717,
  "\u2581approaching": 7718,
  "\u2581clouds": 7719,
  "\u2581commented": 7720,
  "\u2581desired": 7721,
  "\u2581kanina": 7722,
  "\u2581makisama": 7723,
  "\u2581matatalino": 7724,
  "\u2581pampamilyang": 7725,
  "\u2581pasan": 7726,
  "\u2581por": 7727,
  "\u2581somewhat": 7728,
  "\u2581tupang": 7729,
  "\u2581JEHOVAH": 7730,
  "\u2581companies": 7731,
  "\u2581crown": 7732,
  "\u2581dumaan": 7733,
  "\u2581idolatry": 7734,
  "\u2581jealousy": 7735,
  "\u2581pangarap": 7736,
  "\u2581permitted": 7737,
  "\u2581pormal": 7738,
  "\u2581rewarding": 7739,
  "\u2581tendency": 7740,
  "bar": 7741,
  "\u2581Gal": 7742,
  "\u2581Josephus": 7743,
  "\u2581ituro": 7744,
  "\u2581kum": 7745,
  "\u2581mahinang": 7746,
  "\u2581masarap": 7747,
  "\u2581planning": 7748,
  "\u2581sinag": 7749,
  "\u2581therapy": 7750,
  "ions": 7751,
  "izing": 7752,
  "\u2581(3)": 7753,
  "\u2581Mom": 7754,
  "\u2581adding": 7755,
  "\u2581falls": 7756,
  "\u2581figurative": 7757,
  "\u2581ginugol": 7758,
  "\u2581grasp": 7759,
  "\u2581hopes": 7760,
  "\u2581magalang": 7761,
  "\u2581prefer": 7762,
  "\u2581preserved": 7763,
  "\u2581respected": 7764,
  "\u2581settled": 7765,
  "\u2581sumpa": 7766,
  "\u2581Certainly": 7767,
  "\u2581Hawaii": 7768,
  "\u2581Ur": 7769,
  "\u2581bantog": 7770,
  "\u2581gates": 7771,
  "\u2581increases": 7772,
  "\u2581nagsilbing": 7773,
  "\u2581oksiheno": 7774,
  "\u2581sinasang": 7775,
  "\u2581unlad": 7776,
  "\u25811941": 7777,
  "\u2581607": 7778,
  "\u2581Dumating": 7779,
  "\u2581IT": 7780,
  "\u2581Napakahalaga": 7781,
  "\u2581handed": 7782,
  "\u2581kasakunaan": 7783,
  "\u2581korte": 7784,
  "\u2581pagpapatiwakal": 7785,
  "\u2581panonood": 7786,
  "\u2581umakyat": 7787,
  "IT": 7788,
  "ino": 7789,
  "\u2581Gen": 7790,
  "\u2581Live": 7791,
  "\u2581Years": 7792,
  "\u2581asno": 7793,
  "\u2581magsikap": 7794,
  "\u2581mahuhusay": 7795,
  "\u2581till": 7796,
  "\u2581Kataas": 7797,
  "\u2581Pennsylvania": 7798,
  "\u2581Sam": 7799,
  "\u2581depth": 7800,
  "\u2581habag": 7801,
  "\u2581kabayaran": 7802,
  "\u2581kampong": 7803,
  "\u2581nakibahagi": 7804,
  "\u2581propaganda": 7805,
  "\u2581Any": 7806,
  "\u2581blow": 7807,
  "\u2581genetic": 7808,
  "\u2581lady": 7809,
  "\u2581lagay": 7810,
  "\u2581regardless": 7811,
  "\u2581strangers": 7812,
  "\u2581university": 7813,
  "her": 7814,
  "\u2581Albert": 7815,
  "\u2581Document": 7816,
  "\u2581Herod": 7817,
  "\u2581Mars": 7818,
  "\u2581bride": 7819,
  "\u2581era": 7820,
  "\u2581humiwalay": 7821,
  "\u2581matutularan": 7822,
  "\u2581tulay": 7823,
  "mas": 7824,
  "\u25811935": 7825,
  "\u2581Alalahanin": 7826,
  "\u2581attractive": 7827,
  "\u2581captivity": 7828,
  "\u2581celebration": 7829,
  "\u2581gumaling": 7830,
  "\u2581mainly": 7831,
  "\u2581marangal": 7832,
  "\u2581spoil": 7833,
  "\u2581starting": 7834,
  "\u2581teenager": 7835,
  "00": 7836,
  "\u2581Du": 7837,
  "\u2581Sin": 7838,
  "\u2581challenging": 7839,
  "\u2581kikilos": 7840,
  "\u2581lumaganap": 7841,
  "rac": 7842,
  "\u25811994,": 7843,
  "\u2581conviction": 7844,
  "\u2581falling": 7845,
  "\u2581iniligtas": 7846,
  "\u2581kids": 7847,
  "\u2581maaamo": 7848,
  "\u2581makayanan": 7849,
  "\u2581mistulang": 7850,
  "\u2581pilosopiya": 7851,
  "Look": 7852,
  "\u2581Pasipiko": 7853,
  "\u2581Tinawag": 7854,
  "\u2581grows": 7855,
  "\u2581iniquity": 7856,
  "\u2581pahalagahan": 7857,
  "\u2581prophesied": 7858,
  "\u2581takbo": 7859,
  "\u2581trahedya": 7860,
  "ath": 7861,
  "lagay": 7862,
  "\u2581Hungary": 7863,
  "\u2581Jah": 7864,
  "\u2581adres": 7865,
  "\u2581auxiliary": 7866,
  "\u2581awitin": 7867,
  "\u2581globe": 7868,
  "\u2581kontinente": 7869,
  "\u2581kupon": 7870,
  "\u2581marital": 7871,
  "\u2581pinalaki": 7872,
  "\u2581tragedy": 7873,
  "was": 7874,
  "\u2581Atenas": 7875,
  "\u2581execute": 7876,
  "\u2581hall": 7877,
  "\u2581imperfection": 7878,
  "\u2581sikat": 7879,
  "\u2581Datapuwat": 7880,
  "\u2581Septuagint": 7881,
  "\u2581ch": 7882,
  "\u2581globo": 7883,
  "\u2581nasaktan": 7884,
  "\u2581practiced": 7885,
  "\u2581shadow": 7886,
  "\u2581twelve": 7887,
  "tter": 7888,
  "yu": 7889,
  "\u2581Amazon": 7890,
  "\u2581Cha": 7891,
  "\u2581Lalong": 7892,
  "\u2581Madali": 7893,
  "\u2581Meanwhile": 7894,
  "\u2581Olympic": 7895,
  "\u2581acid": 7896,
  "\u2581admonition": 7897,
  "\u2581ahensiya": 7898,
  "\u2581discussions": 7899,
  "\u2581institusyon": 7900,
  "\u2581makasarili": 7901,
  "\u2581palm": 7902,
  "\u2581pumapatay": 7903,
  "\u2581yoke": 7904,
  "\u258139.": 7905,
  "\u2581<": 7906,
  "\u2581Unlike": 7907,
  "\u2581announced": 7908,
  "\u2581napakahusay": 7909,
  "\u2581proceeded": 7910,
  "\u2581repent": 7911,
  "\u2581sanctuary": 7912,
  "\u2581scattered": 7913,
  "\u2581thoroughly": 7914,
  "\u2581General": 7915,
  "\u2581Supreme": 7916,
  "\u2581amounts": 7917,
  "\u2581bears": 7918,
  "\u2581dogs": 7919,
  "\u2581immortal": 7920,
  "\u2581magtayo": 7921,
  "\u2581pagsabog": 7922,
  "\u2581Heart": 7923,
  "\u2581gastos": 7924,
  "\u2581kakailanganin": 7925,
  "\u2581linangin": 7926,
  "\u2581roads": 7927,
  "\u2581scribes": 7928,
  "\u2581spreading": 7929,
  "Your": 7930,
  "\u25811947": 7931,
  "\u2581Globe": 7932,
  "\u2581dis": 7933,
  "\u2581kontento": 7934,
  "\u2581makapagbibigay": 7935,
  "\u2581mapagtagumpayan": 7936,
  "\u2581nahulog": 7937,
  "\u2581pita": 7938,
  "\u2581pula": 7939,
  "\u2581relate": 7940,
  "\u2581undo": 7941,
  "Mag": 7942,
  "kikipagtulungan": 7943,
  "\u2581Aral": 7944,
  "\u2581Martha": 7945,
  "\u2581TB": 7946,
  "\u2581aniya": 7947,
  "\u2581college": 7948,
  "\u2581dumaraan": 7949,
  "\u2581makaligtas": 7950,
  "\u2581pinakamarami": 7951,
  "\u2581publicly": 7952,
  "\u2581rage": 7953,
  "\u2581weekly": 7954,
  "bin": 7955,
  "nder": 7956,
  "tatag": 7957,
  "\u258113;": 7958,
  "\u2581Ab": 7959,
  "\u2581Darwin": 7960,
  "\u2581Pilipinas": 7961,
  "\u2581arrival": 7962,
  "\u2581incense": 7963,
  "\u2581napinsala": 7964,
  "\u2581pornography": 7965,
  "\u2581sang": 7966,
  "\u2581surprising": 7967,
  "\u2581urges": 7968,
  "US": 7969,
  "\u2581Everyone": 7970,
  "\u2581aakala": 7971,
  "\u2581bumaling": 7972,
  "\u2581crowds": 7973,
  "\u2581forgotten": 7974,
  "\u2581mabilang": 7975,
  "\u2581magpatotoo": 7976,
  "\u2581pagkakita": 7977,
  "\u2581prize": 7978,
  "\u2581tumutubo": 7979,
  "\u2581volunteers": 7980,
  "iv": 7981,
  "zo": 7982,
  "\u2581Map": 7983,
  "\u2581Were": 7984,
  "\u2581lawlessness": 7985,
  "\u2581matiisin": 7986,
  "\u2581pahamak": 7987,
  "\u2581peers": 7988,
  "Siya": 7989,
  "\u258111201": 7990,
  "\u2581Guro": 7991,
  "\u2581Herodes": 7992,
  "\u2581amo": 7993,
  "\u2581bawasan": 7994,
  "\u2581bore": 7995,
  "\u2581cool": 7996,
  "\u2581lowly": 7997,
  "\u2581nakaaaliw": 7998,
  "\u2581nakadama": 7999,
  "\u2581outlook": 8000,
  "\u2581peak": 8001,
  "\u2581permit": 8002,
  "\u2581Judge": 8003,
  "\u2581Peru": 8004,
  "\u2581addressed": 8005,
  "\u2581argument": 8006,
  "\u2581layer": 8007,
  "\u2581limitations": 8008,
  "\u2581makapasok": 8009,
  "\u2581pagmamaneho": 8010,
  "\u2581perfection": 8011,
  "\u2581tinatalakay": 8012,
  "\u2581upbuilding": 8013,
  "\u2581Neither": 8014,
  "\u2581Scotland": 8015,
  "\u2581containing": 8016,
  "\u2581deeper": 8017,
  "\u2581humbly": 8018,
  "\u2581inutusan": 8019,
  "\u2581segundo": 8020,
  "\u2581thick": 8021,
  "sin": 8022,
  "\u258136.": 8023,
  "\u2581Assyria": 8024,
  "\u2581Bu": 8025,
  "\u2581Ki": 8026,
  "\u2581Unyong": 8027,
  "\u2581Ye": 8028,
  "\u2581benefited": 8029,
  "\u2581dalang": 8030,
  "\u2581kampanya": 8031,
  "\u2581marijuana": 8032,
  "\u2581oppression": 8033,
  "\u2581volume": 8034,
  "\u258130:": 8035,
  "\u2581Columbus": 8036,
  "\u2581Lazaro": 8037,
  "\u2581expert": 8038,
  "\u2581hinatulan": 8039,
  "\u2581refreshing": 8040,
  "\u2581risks": 8041,
  "\u2581sekta": 8042,
  "\u2581upper": 8043,
  "\u2581(19": 8044,
  "\u2581Alexander": 8045,
  "\u2581Americans": 8046,
  "\u2581Fa": 8047,
  "\u2581Frank": 8048,
  "\u2581Religious": 8049,
  "\u2581Things": 8050,
  "\u2581hukay": 8051,
  "\u2581idiniin": 8052,
  "\u2581magkabila": 8053,
  "\u2581sudden": 8054,
  "\u2581tsuper": 8055,
  "\u2581tuloy": 8056,
  "\u2581Evidently": 8057,
  "\u2581kalaliman": 8058,
  "\u2581manlalaro": 8059,
  "\u2581naapektuhan": 8060,
  "\u2581pagsusugal": 8061,
  "\u2581Need": 8062,
  "\u2581arrive": 8063,
  "\u2581concept": 8064,
  "\u2581heal": 8065,
  "\u2581lovingly": 8066,
  "\u2581luklukan": 8067,
  "\u2581maglakbay": 8068,
  "\u2581rewarded": 8069,
  "\u2581tower": 8070,
  "\u2581Worship": 8071,
  "\u2581acquire": 8072,
  "\u2581consist": 8073,
  "\u2581daanan": 8074,
  "\u2581defend": 8075,
  "\u2581dropped": 8076,
  "\u2581edisyon": 8077,
  "\u2581generous": 8078,
  "\u2581glorify": 8079,
  "\u2581ipinakilala": 8080,
  "\u2581kapatiran": 8081,
  "\u2581katiwala": 8082,
  "\u2581laruan": 8083,
  "\u2581suklam": 8084,
  "\u2581unrighteous": 8085,
  "\u2581weaknesses": 8086,
  "lig": 8087,
  "nti": 8088,
  "\u2581Denmark": 8089,
  "\u2581fitting": 8090,
  "\u2581mamahalin": 8091,
  "\u2581motor": 8092,
  "\u2581panustos": 8093,
  "\u2581pumayag": 8094,
  "\u2581tongues": 8095,
  "amba": 8096,
  "\u258138.": 8097,
  "\u2581hi": 8098,
  "\u2581kapit": 8099,
  "\u2581nagmamasid": 8100,
  "\u2581nars": 8101,
  "\u2581strengthening": 8102,
  "\u2581sumigaw": 8103,
  "\u2581tanggihan": 8104,
  "IA": 8105,
  "use": 8106,
  "\u2581Buhat": 8107,
  "\u2581Caleb": 8108,
  "\u2581balikat": 8109,
  "\u2581destructive": 8110,
  "\u2581ease": 8111,
  "\u2581initial": 8112,
  "\u2581malilimutan": 8113,
  "\u2581moralidad": 8114,
  "\u2581pasukan": 8115,
  "\u2581pilosopo": 8116,
  "\u2581prominente": 8117,
  "\u2581reminds": 8118,
  "\u2581ruta": 8119,
  "fer": 8120,
  "ible": 8121,
  "\u2581Chronicles": 8122,
  "\u2581debate": 8123,
  "\u2581ipag": 8124,
  "\u2581magamit": 8125,
  "\u2581participate": 8126,
  "\u2581rejoicing": 8127,
  "\u2581suitable": 8128,
  "balik": 8129,
  "\u2581Free": 8130,
  "\u2581Mahal": 8131,
  "\u2581dramatic": 8132,
  "\u2581kaayon": 8133,
  "\u2581le": 8134,
  "\u2581meek": 8135,
  "\u2581preceding": 8136,
  "\u2581presents": 8137,
  "\u2581roots": 8138,
  "\u2581sharp": 8139,
  "\u2581tumigil": 8140,
  "gaya": 8141,
  "\u25811987,": 8142,
  "\u258195": 8143,
  "\u25819;": 8144,
  "\u2581Maligaya": 8145,
  "\u2581Nebuchadnezzar": 8146,
  "\u2581aborsiyon": 8147,
  "\u2581hadlangan": 8148,
  "\u2581humankind": 8149,
  "\u2581improved": 8150,
  "\u2581kahihinatnan": 8151,
  "\u2581naglalabas": 8152,
  "\u2581nagtrabaho": 8153,
  "\u2581pagtingin": 8154,
  "\u2581profound": 8155,
  "\u2581putik": 8156,
  "\u2581recommended": 8157,
  "\u2581se": 8158,
  "\u2581shaped": 8159,
  "\u2581sole": 8160,
  "ibang": 8161,
  "\u2581Magbigay": 8162,
  "\u2581coupon": 8163,
  "\u2581damaged": 8164,
  "\u2581feared": 8165,
  "\u2581film": 8166,
  "\u2581kingdoms": 8167,
  "\u2581lifetime": 8168,
  "\u2581magpapatuloy": 8169,
  "\u2581sorrow": 8170,
  "\u2581substance": 8171,
  "ama": 8172,
  "fe": 8173,
  "\u25812004": 8174,
  "\u2581Ephesus": 8175,
  "\u2581Ipinahihiwatig": 8176,
  "\u2581Kanino": 8177,
  "\u2581dragon": 8178,
  "\u2581exciting": 8179,
  "\u2581instrument": 8180,
  "\u2581mapagbantay": 8181,
  "\u2581prosperity": 8182,
  "tatamasa": 8183,
  "\u2581145": 8184,
  "\u2581250": 8185,
  "\u2581Pe": 8186,
  "\u2581Problema": 8187,
  "\u2581Spiritual": 8188,
  "\u2581bunton": 8189,
  "\u2581inspiring": 8190,
  "\u2581mabawasan": 8191,
  "\u2581palapag": 8192,
  "\u2581senses": 8193,
  "\u2581stream": 8194,
  "\u2581sumuko": 8195,
  "\u2581tremendous": 8196,
  "\u2581urge": 8197,
  "\u2581winds": 8198,
  "\u2581Katulad": 8199,
  "\u2581abortion": 8200,
  "\u2581binti": 8201,
  "\u2581endless": 8202,
  "\u2581hahayaan": 8203,
  "\u2581permission": 8204,
  "\u2581sumakay": 8205,
  "\u2581wearing": 8206,
  "By": 8207,
  "ea": 8208,
  "iba": 8209,
  "\u25812003": 8210,
  "\u25816,000": 8211,
  "\u2581Cronica": 8212,
  "\u2581Edom": 8213,
  "\u2581Manases": 8214,
  "\u2581Manasseh": 8215,
  "\u2581apparent": 8216,
  "\u2581beasts": 8217,
  "\u2581clay": 8218,
  "\u2581crying": 8219,
  "\u2581enables": 8220,
  "\u2581iwas": 8221,
  "\u2581motives": 8222,
  "\u2581nangako": 8223,
  "\u2581originally": 8224,
  "\u2581pangwakas": 8225,
  "\u2581tagapagmana": 8226,
  "bad": 8227,
  "\u2581Care": 8228,
  "\u2581Kapuwa": 8229,
  "\u2581Rock": 8230,
  "\u2581Susan": 8231,
  "\u2581bacteria": 8232,
  "\u2581bo": 8233,
  "\u2581ituwid": 8234,
  "\u2581judgments": 8235,
  "\u2581namamahala": 8236,
  "\u2581napapansin": 8237,
  "\u2581pababa": 8238,
  "\u2581safeguard": 8239,
  "\u2581ungodly": 8240,
  "\u2581wheat": 8241,
  "\u2581witnessed": 8242,
  "iti": 8243,
  "pat": 8244,
  "\u2581IS": 8245,
  "\u2581Kunin": 8246,
  "\u2581Magagawa": 8247,
  "\u2581Nilalaman": 8248,
  "\u2581asleep": 8249,
  "\u2581considerable": 8250,
  "\u2581dumaraming": 8251,
  "\u2581garment": 8252,
  "\u2581instruments": 8253,
  "\u2581nagpapayo": 8254,
  "\u2581namely": 8255,
  "\u2581pregnancy": 8256,
  "\u2581rooms": 8257,
  "\u2581sapatos": 8258,
  "\u2581ubasan": 8259,
  "ias": 8260,
  "\u25811985": 8261,
  "\u2581Georgia": 8262,
  "\u2581Notice": 8263,
  "\u2581Persian": 8264,
  "\u2581Trust": 8265,
  "\u2581declaring": 8266,
  "\u2581hinahatulan": 8267,
  "\u2581homoseksuwal": 8268,
  "\u2581ordinary": 8269,
  "\u2581paratang": 8270,
  "\u2581racial": 8271,
  "EL": 8272,
  "Magkakaroon": 8273,
  "lim": 8274,
  "war": 8275,
  "\u2581advanced": 8276,
  "\u2581broad": 8277,
  "\u2581comfortable": 8278,
  "\u2581compassionate": 8279,
  "\u2581effectively": 8280,
  "\u2581idinagdag": 8281,
  "\u2581loose": 8282,
  "\u2581nagagalak": 8283,
  "\u2581nagkakasala": 8284,
  "\u2581pagtutuwid": 8285,
  "\u2581pahirapan": 8286,
  "\u2581sunog": 8287,
  "isip": 8288,
  "\u258137.": 8289,
  "\u2581Pangalan": 8290,
  "\u2581Talaan": 8291,
  "\u2581breaking": 8292,
  "\u2581imbot": 8293,
  "\u2581isinaayos": 8294,
  "\u2581lipulin": 8295,
  "\u2581masabi": 8296,
  "\u2581pagsasaliksik": 8297,
  ",000": 8298,
  "nilarawan": 8299,
  "\u258161": 8300,
  "\u2581Ibang": 8301,
  "\u2581Karen": 8302,
  "\u2581alaman": 8303,
  "\u2581crops": 8304,
  "\u2581limits": 8305,
  "\u2581ride": 8306,
  "\u2581signal": 8307,
  "sk": 8308,
  "\u25811985,": 8309,
  "\u2581Mail": 8310,
  "\u2581Puso": 8311,
  "\u2581biyaya": 8312,
  "\u2581edge": 8313,
  "\u2581isinalin": 8314,
  "\u2581judged": 8315,
  "\u2581nakasakay": 8316,
  "\u2581pinakamahusay": 8317,
  "\u2581tea": 8318,
  "\u2581Ever": 8319,
  "\u2581Thailand": 8320,
  "\u2581asukal": 8321,
  "\u2581discussing": 8322,
  "\u2581guided": 8323,
  "\u2581lake": 8324,
  "\u2581malibang": 8325,
  "\u2581mixed": 8326,
  "\u2581survivors": 8327,
  "\u2581Argentina": 8328,
  "\u2581Nor": 8329,
  "\u2581Tom": 8330,
  "\u2581actual": 8331,
  "\u2581domestic": 8332,
  "\u2581ginhawa": 8333,
  "\u2581largely": 8334,
  "\u2581muscles": 8335,
  "\u2581nasiyahan": 8336,
  "\u2581olibo": 8337,
  "\u2581puna": 8338,
  "\u2581sumusulong": 8339,
  "ada": 8340,
  "\u2581Matagal": 8341,
  "\u2581Newsweek": 8342,
  "\u2581Ng": 8343,
  "\u2581barya": 8344,
  "\u2581cycle": 8345,
  "\u2581earthquakes": 8346,
  "\u2581infection": 8347,
  "\u2581kinilala": 8348,
  "\u2581paglalagay": 8349,
  "\u2581pagpapasakop": 8350,
  "\u2581shot": 8351,
  "\u2581tagapagsalin": 8352,
  "ks": 8353,
  "\u25811946": 8354,
  "\u2581MO": 8355,
  "\u2581Paraon": 8356,
  "\u2581Rights": 8357,
  "\u2581applies": 8358,
  "\u2581dahan": 8359,
  "\u2581openly": 8360,
  "\u2581pagsasakripisyo": 8361,
  "\u2581rid": 8362,
  "CH": 8363,
  "gawa": 8364,
  "\u2581Isipin": 8365,
  "\u2581Prayer": 8366,
  "\u2581Va": 8367,
  "\u2581balumbon": 8368,
  "\u2581distributed": 8369,
  "\u2581duty": 8370,
  "\u2581nangangako": 8371,
  "\u2581pinakamaganda": 8372,
  "\u2581weakness": 8373,
  "\u258185": 8374,
  "\u2581Tyndale": 8375,
  "\u2581abo": 8376,
  "\u2581baguhan": 8377,
  "\u2581bumuo": 8378,
  "\u2581extensive": 8379,
  "\u2581figures": 8380,
  "\u2581gun": 8381,
  "\u2581libing": 8382,
  "\u2581pakana": 8383,
  "\u2581pugad": 8384,
  "\u2581rebellious": 8385,
  "\u2581sinunog": 8386,
  "\u2581solar": 8387,
  "\u2581strongly": 8388,
  "\u2581tumagal": 8389,
  "pit": 8390,
  "port": 8391,
  "\u2581Ah": 8392,
  "\u2581Syria": 8393,
  "\u2581banned": 8394,
  "\u2581characters": 8395,
  "\u2581kontrolado": 8396,
  "\u2581nagpapatibay": 8397,
  "\u2581natututo": 8398,
  "\u2581normally": 8399,
  "\u2581pagtatangka": 8400,
  "\u2581photo": 8401,
  "ker": 8402,
  "kung": 8403,
  "\u2581Medicine": 8404,
  "\u2581avoided": 8405,
  "\u2581batayan": 8406,
  "\u2581choices": 8407,
  "\u2581decade": 8408,
  "\u2581guya": 8409,
  "\u2581inilipat": 8410,
  "\u2581maintained": 8411,
  "\u2581masagot": 8412,
  "\u2581pin": 8413,
  "ight": 8414,
  "\u2581Nabucodonosor": 8415,
  "\u2581Part": 8416,
  "\u2581Researchers": 8417,
  "\u2581kakapusan": 8418,
  "\u2581minded": 8419,
  "\u2581numbered": 8420,
  "\u2581washed": 8421,
  "\u2581ITO": 8422,
  "\u2581alcoholic": 8423,
  "\u2581despair": 8424,
  "\u2581hinayaan": 8425,
  "\u2581kilal\u00e1": 8426,
  "\u2581konteksto": 8427,
  "\u2581naglaho": 8428,
  "\u2581pamamahagi": 8429,
  "\u2581prime": 8430,
  "nikap": 8431,
  "ors": 8432,
  "\u2581Taon": 8433,
  "\u2581aalok": 8434,
  "\u2581combined": 8435,
  "\u2581departed": 8436,
  "\u2581enormous": 8437,
  "\u2581honey": 8438,
  "\u2581memories": 8439,
  "\u2581nagtatamasa": 8440,
  "\u2581nasusumpungan": 8441,
  "\u2581pipe": 8442,
  "IC": 8443,
  "len": 8444,
  "rus": 8445,
  "sus": 8446,
  "\u2581KUNG": 8447,
  "\u2581Visit": 8448,
  "\u2581anunsiyo": 8449,
  "\u2581delegado": 8450,
  "\u2581eksena": 8451,
  "\u2581ipaalam": 8452,
  "\u2581lumalapit": 8453,
  "\u2581nangangasiwa": 8454,
  "\u2581tulog": 8455,
  "bal": 8456,
  "my": 8457,
  "\u25811987": 8458,
  "\u258183": 8459,
  "\u2581Answers": 8460,
  "\u2581Belgium": 8461,
  "\u2581Britaniya": 8462,
  "\u2581Loob": 8463,
  "\u2581acquainted": 8464,
  "\u2581banda": 8465,
  "\u2581bigat": 8466,
  "\u2581forgiving": 8467,
  "\u2581imprisoned": 8468,
  "\u2581mahalay": 8469,
  "\u2581opposers": 8470,
  "\u2581seal": 8471,
  "lum": 8472,
  "\u2581Control": 8473,
[...]
